e s</w>
e n
d e</w>
a n
o u
o n
t i
q u
a i
l e</w>
r e</w>
o n</w>
e r
l a</w>
p a
e t</w>
e u
i n
e s
l es</w>
p r
en t</w>
e m
i s
e r</w>
o r
n e</w>
t r
e n</w>
a u
c h
l '</w>
t e</w>
l i
d es</w>
o m
qu e</w>
a r
a ti
c e</w>
d '</w>
s u
e l
o i
s i
c on
a v
u n</w>
d é
r i
p ou
d i
a l
p l
d u</w>
u ne</w>
es t</w>
m e</w>
an s</w>
r é
r e
t s</w>
em ent</w>
t re</w>
an t</w>
t é</w>
c i
s e</w>
c om
i l</w>
v i
pou r</w>
r a
a u</w>
on s</w>
ou s</w>
ati on</w>
d ans</w>
ai t</w>
t a
pr o
p o
pa r
i l
t u
a c
on t</w>
qu i</w>
r s</w>
eu r</w>
a g
s s
f i
a m
ti on</w>
t é
e t
t ou
u s</w>
ai s</w>
su r</w>
e x
n i
pa r</w>
r es</w>
t es</w>
o l
ou v
c a
é e</w>
pa s</w>
on n
au x</w>
c u
el le</w>
e c
qu '</w>
pr é
pl us</w>
a t
b i
m o
eu rs</w>
ai re</w>
eu x</w>
av e
p u
t er
s on</w>
r an
c es</w>
t en
d u
r o
p er
f or
i m
p or
ave c</w>
ai n
i s</w>
a p
f f
c o
c ou
è s</w>
p é
a b
è re</w>
j ou
d e
n o
v ous</w>
o u</w>
l u
s er
qu es</w>
j e</w>
s es</w>
é s</w>
p i
com m
n '</w>
et te</w>
v o
s '</w>
oi s</w>
m ais</w>
g u
en d
r es
s ont</w>
g i
t er</w>
s e
n é
m i
a s
en ts</w>
oi r</w>
s i</w>
m es</w>
é t
e z</w>
m ar
g e</w>
n ous</w>
l o
e l</w>
m on
a l</w>
v er
2 0
c ette</w>
b le</w>
d is
c '</w>
p h
j u
a d
p e
m in
ati ons</w>
s en
r en
v en
s t
m é
é té</w>
b l
tou t</w>
c e
t h
ag e</w>
b u
é l
si on</w>
ch e</w>
c l
par ti
s ou
s a</w>
po s
m a
m ent</w>
ti ons</w>
é es</w>
g n
ê tre</w>
g r
com me</w>
m an
té s</w>
tr i
p e</w>
u ni
s o
an ce</w>
oi t</w>
is e</w>
l eur</w>
. .
t ant</w>
m ê
p eu
tr es</w>
t o
er s</w>
il s</w>
b li
é g
v e</w>
in e</w>
f ait</w>
f ran
t e
an ts</w>
c er
.. .</w>
or i
s é
b re</w>
ai res</w>
t em
i t</w>
mê me</w>
el les</w>
in ter
ai ent</w>
in s</w>
a li
t -
al l
r u
en tr
m en
is i
bi en</w>
a n</w>
em i
a le</w>
tu re</w>
e au</w>
il l
j '</w>
a ss
g é
e u</w>
o p
1 9
f on
or s</w>
l l
c or
p s</w>
m u
pr ès</w>
g ran
al is
i e</w>
t eur</w>
con s
c ol
a i</w>
f aire</w>
an g
is s
en s</w>
en tre</w>
au ss
l ement</w>
ai n</w>
n u
d eux</w>
c ar
f in
g ra
c ri
per s
o b
d er
è me</w>
su i
en ce</w>
pr emi
tr av
auss i</w>
n ouv
p on
p li
su r
pou r
l is
pr i
qu i
es s
d re</w>
d r
h u
b ou
f fi
é ta
i r</w>
for m
tr ès</w>
pu is</w>
ouv er
o c
oi re</w>
pré sen
l e
20 1
s y
ti que</w>
s em
c tion</w>
al ement</w>
ét ait</w>
f a
s ans</w>
a t</w>
ai ne</w>
d onn
dé c
f u
u ti
0 0</w>
qu el
lu i</w>
an n
n om
pu bli
c r
vo tre</w>
t ement</w>
d on
f é
d em
av oir</w>
d s</w>
g ar
fi n</w>
tr ouv
m et
pro du
c an
is t
po si
de v
au tres</w>
cu l
ju s
p en
es ti
a près</w>
c ation</w>
t ous</w>
pa y
f ai
tr u
f ois</w>
t ation</w>
peu t</w>
tr an
eu ro
pl u
con tr
g ne</w>
é ri
è res</w>
c i</w>
v oir</w>
b e
tr o
con n
tem ps</w>
so ci
n es</w>
av ait</w>
ai ss
jou rs</w>
in s
ati on
20 0
i n</w>
b a
re c
ti onn
ra p
d o
r em
pa ss
o ù</w>
an d</w>
u e</w>
l eurs</w>
il le</w>
in té
c é
en ne</w>
pers onn
r ai
c ré
an te</w>
l le</w>
en ti
s or
e ff
po li
pr es
pe ti
ain si</w>
v oi
an d
s eu
ar ti
ai l</w>
em ents</w>
i que</w>
n ation
ch ar
d i</w>
ch o
t eurs</w>
h om
der ni
c el
ti tu
s se</w>
gé né
uti lis
end re</w>
m e
ce p
ab le</w>
v re</w>
r is
ain s</w>
co re</w>
r a</w>
v ol
d ont</w>
mo ins</w>
ar i
con tre</w>
tr a
f au
r ait</w>
v ent</w>
jou r
s ol
r el
ai ll
ch er
on ne</w>
en core</w>
b r
pé ri
v al
li té</w>
de puis</w>
v es</w>
cer t
t ent</w>
vi e</w>
d ou
l a
d ent</w>
al ors</w>
s -
por t</w>
tran s
ch a
l on
pe u</w>
pl a
ch e
or g
b o
p le</w>
au t
ser vi
an c
f s</w>
no tre</w>
j et</w>
il li
u n
av ant</w>
au tre</w>
com p
b er
f r
j eu
r ou
don c</w>
po in
b les</w>
pay s</w>
fran ç
di t</w>
ec ti
an de</w>
di ff
c le</w>
h a
m ati
entr e
l é
r er</w>
s al
ou r
j e
ch i
é qui
ar d</w>
an ti
d a
en f
pr en
h i
ég alement</w>
m on</w>
cou rs</w>
t u</w>
m is
ac ti
v isi
org an
end ant</w>
gr ou
d es
n on</w>
ver s</w>
ali té</w>
r ent</w>
él ec
su l
m or
n a
t aire</w>
c ro
v el
ag es</w>
par t</w>
in di
cou p</w>
b é
s ec
ain es</w>
r ation</w>
pr in
r ement</w>
o i</w>
es si
s ous</w>
o gi
el s</w>
s si
fran ce</w>
h eu
f er
té e</w>
m al
ser v
ce la</w>
mon de</w>
a s</w>
im por
m a</w>
col l
ç a</w>
d er</w>
min is
con se
an ci
j o
at ten
v is
a ff
ré gi
ai son</w>
s oit</w>
n or
g er</w>
jou r</w>
in form
ch es</w>
r ê
v e
cou r
tou r</w>
qu and</w>
g es</w>
ch am
vel op
ser a</w>
r é</w>
tr ai
s el
né es</w>
ch er</w>
gu e</w>
ti ques</w>
h au
p ec
man i
organ is
ar ri
d om
pré si
tou jours</w>
l à</w>
s an
f l
pr endre</w>
m illi
mé di
e -
quel ques</w>
be au
tou tes</w>
sui te</w>
o ff
m er
premi er</w>
ê te</w>
diff é
c li
si tu
oi n</w>
ci pa
dé velop
a les</w>
c am
s ta
m es
i ts</w>
ca r</w>
ré e</w>
no s</w>
qu es
ca s</w>
ap p
c in
a y
f il
tou te</w>
f em
sem ble</w>
is te</w>
vi r
b res</w>
h ist
g e
en t
é n
sel on</w>
m et</w>
c et</w>
v a</w>
con cer
con om
vo y
p es</w>
parti e</w>
fau t</w>
b ar
f am
posi tion</w>
g o
bi lité</w>
pr ise</w>
h é
é tu
tr ois</w>
pr is
pla ce</w>
ch é</w>
pos si
té ri
tri bu
ol ogi
m '</w>
s a
em pl
li eu</w>
trav ail</w>
m is</w>
di rec
ac c
su p
œ u
met tre</w>
plu si
dévelop p
plusi eurs</w>
ti n
é conom
an ces</w>
géné ra
g ouver
c lu
si m
pr is</w>
eu se</w>
s om
premi ère</w>
gouver n
com pa
i gn
r ant</w>
sy st
s pé
ab or
t an
g ag
jus qu'</w>
ch ez</w>
cha que</w>
su is</w>
com pl
l ors</w>
j am
mo y
gran d</w>
s er</w>
gra m
at eur</w>
vi lle</w>
qu é</w>
pro f
m em
dé j
vo s</w>
vi ent</w>
d é</w>
ta m
pu l
c ô
di re</w>
é ch
te ch
l or
ta l</w>
ann ée</w>
es se</w>
déj à</w>
spé ci
av i
el lement</w>
mu l
ô t</w>
t i</w>
pou v
mes u
h o
er re</w>
m ents</w>
19 9
d oit</w>
t on</w>
res pon
ci té</w>
ré alis
grou pe</w>
v ou
tou r
s au
pa ra
p endant</w>
pl ac
n e
euro pé
beau coup</w>
ap pli
m at
re cher
ta ble</w>
gra ph
personn es</w>
for me</w>
en vir
parti cu
sui v
su s</w>
m ois</w>
an nées</w>
o pé
in st
pro gram
hom me</w>
dé t
l ar
qu er</w>
ha bi
pa ri
ré pon
1 0</w>
poin t</w>
b ri
g l
cel u
au c
in g</w>
pri x</w>
po se</w>
i dé
ri en</w>
ri r</w>
re présen
b on</w>
mo i</w>
c al
bu t</w>
acti vi
m ain
th é
comp te</w>
si gn
li er</w>
ta ge</w>
0 00</w>
ac tu
a î
ren ce</w>
x i
m om
fa ce</w>
i ti
ai se</w>
b an
m .</w>
è ne</w>
tam ment</w>
qu a
poli tique</w>
b at
eff et</w>
m ag
gran de</w>
a fin</w>
a jou
lor s
é li
v er</w>
con fi
ffi ci
av ons</w>
dr oi
c en
aill eurs</w>
g en
u s
ph o
éta t</w>
l ég
t- il</w>
t o</w>
v ue</w>
ô le</w>
comm un
ac cu
on e</w>
nouv eau</w>
prési dent</w>
é cri
conse il</w>
ven ir</w>
ac tion</w>
cu ri
b es
qu oi</w>
z -
s ain
u tion</w>
rap port</w>
t y
s ouv
hu i</w>
au jour
enf ants</w>
fon c
m er</w>
bou r
si ons</w>
l an
sou r
i té</w>
con ti
no tamment</w>
ch an
nom br
v eau</w>
f o
jour n
en n
m é</w>
e aux</w>
aujour d'</w>
v rai
inter nation
t ex
si te</w>
i ci</w>
dé cl
derni er</w>
v ement</w>
pr om
r on
eu ses</w>
2 0</w>
r è
pris es</w>
tru c
tu res</w>
m ise</w>
s oi
1 8
franç ais</w>
d en
es pa
i re</w>
s tr
n i</w>
am éri
pr im
syst ème</w>
é di
t ants</w>
él é
né c
dr oit</w>
tu r
se ign
v in
g é</w>
jam ais</w>
ab les</w>
3 0</w>
ac cor
o ci
an tes</w>
ten ir</w>
è rement</w>
l er</w>
peu vent</w>
r om
ri e</w>
pro jet</w>
b e</w>
sen ti
a di
tro p</w>
qu el</w>
nom bre</w>
nouv elle</w>
c h</w>
peti t</w>
a ffi
th e</w>
arti cle</w>
por te</w>
ass oci
s é</w>
ex em
c eux</w>
cert ains</w>
ta t</w>
pro bl
er a</w>
ter min
t aires</w>
g a
ré sul
i ques</w>
ch ang
v é
ori g
eu re</w>
n er</w>
c au
qu ement</w>
t es
ati que</w>
en semble</w>
ni veau</w>
hist oire</w>
re z</w>
t a</w>
l s</w>
per met
ec tion</w>
développ ement</w>
ç on</w>
u m</w>
em bre</w>
no m</w>
er ci
cons titu
ex pli
se con
l aiss
ten ant</w>
comm is
eu r
v u</w>
per met</w>
d enti
w e
prin cipa
ét aient</w>
mom ent</w>
ven tion</w>
s ent</w>
produ its</w>
s ement</w>
gouvern ement</w>
at eurs</w>
se p
ati ve</w>
ann on
gi e</w>
5 0</w>
con di
servi ces</w>
ex i
dé f
m ou
mon tr
m aison</w>
c er</w>
pu is
f our
a f
ti f</w>
û t</w>
res te</w>
or is
pari s</w>
trouv e</w>
v é</w>
é vi
con si
n é</w>
g es
b al
té es</w>
t ôt</w>
donn ées</w>
in es</w>
comm uni
po pul
v éri
h y
trouv er</w>
pou voir</w>
pren d</w>
v eu
d in
pro cé
possi ble</w>
ré s</w>
è mes</w>
qu elle</w>
li gne</w>
su c
par ce</w>
celu i</w>
b or
comm en
a ch
si que</w>
g ni
sé curi
t om
conn aiss
commis sion</w>
fa ci
prof essi
vi c
je ts</w>
souv ent</w>
s ci
ra pi
t or
servi ce</w>
b ru
exem ple</w>
mem bres</w>
ten u</w>
sor ti
j eu</w>
ta le</w>
t ations</w>
soci été</w>
et tes</w>
for t</w>
pres sion</w>
u l
in f
ai r</w>
b onne</w>
recher che</w>
cons tru
pro ch
g ro
vou l
généra l</w>
parti r</w>
é v
s ons</w>
pré c
fi cation</w>
améri c
conti nu
no v
p er</w>
l y
e ts</w>
g ement</w>
dem ande</w>
p an
as se</w>
t oire</w>
ques tion</w>
1 5</w>
professi onn
sécuri té</w>
t te</w>
form ation</w>
ap par
ave z</w>
en ces</w>
milli ons</w>
in v
dem and
j ecti
mi eux</w>
- ci</w>
é co
ver si
en ten
pl e
av an
at ta
pers onne</w>
t ez</w>
s c
il les</w>
comm ent</w>
tech ni
lo i</w>
sur tout</w>
p ère</w>
qu ant</w>
min u
c ations</w>
su b
u r
ch au
fam ille</w>
ra ge</w>
san té</w>
c entr
c elle</w>
dev ant</w>
c é</w>
d ès</w>
ter r
décl ar
pos er</w>
o r</w>
s tri
ca pa
ex pl
déc isi
si è
seu lement</w>
d è
c s</w>
ai lle</w>
gr â
an im
m al</w>
publi que</w>
ai de</w>
l es
cô té</w>
mar ché</w>
ta ts</w>
cho se</w>
fu t</w>
ca dre</w>
ci r
grâ ce</w>
as su
e il</w>
fem mes</w>
s ée</w>
ad minis
b il
rè g
ti en</w>
fi er</w>
pa u
ré du
re g
oi res</w>
oc cu
ar rê
c entre</w>
em bl
é tr
adminis tr
d oi
ob jecti
onn ement</w>
e d</w>
s in
parti ci
fai s
té lé
ap pro
è te</w>
al y
i es</w>
program me</w>
dé fin
oi x</w>
mis sion</w>
équi pe</w>
o s</w>
fa çon</w>
s avoir</w>
c es
uni on</w>
pl an
li mi
in du
m i</w>
ba se</w>
mani ère</w>
rap p
z- vous</w>
hu m
f ac
seu l</w>
qua tre</w>
mi li
l ou
minis tre</w>
re gar
ca pi
ti tre</w>
ser ait</w>
o de</w>
b lo
dé p
ter ri
consi dé
en nes</w>
euro s</w>
dé ci
r aient</w>
fi ci
v ée</w>
r ont</w>
b ra
m ée</w>
ati f</w>
donn er</w>
vi ll
19 8
néc ess
d eu
hom mes</w>
bé né
pré ci
qu alité</w>
f av
g ent</w>
produ it</w>
publi c</w>
h ai
n et</w>
b re
particu li
ex péri
ay ant</w>
v res</w>
p ai
ri er</w>
b el
gr é</w>
all er</w>
pos é</w>
ê tes</w>
is me</w>
ser ont</w>
déc ouv
régi on</w>
diffé ren
pl an</w>
dé but</w>
dis posi
in t</w>
ré se
t ait</w>
ven u</w>
fem me</w>
quel que</w>
p oi
b on
s h
droi ts</w>
s ti
av is</w>
inté ri
lors que</w>
fonc tionn
s on
w i
con du
por ter</w>
all em
uni s</w>
au tant</w>
av aient</w>
pon i
l et
jus ti
mon di
inform ations</w>
1 2</w>
qu é
f ou
concer n
dis poni
heu res</w>
mar i
ati ves</w>
do cu
u es</w>
tex te</w>
entre prise</w>
bes oin</w>
i te</w>
gu es</w>
euro pe</w>
xi ème</w>
vrai ment</w>
com pé
ét ant</w>
iss ance</w>
fon d
situ ation</w>
c ra
pro fi
g men
fin anci
d esti
b as
ins titu
sou hai
sen s</w>
en gag
car ac
en fin</w>
as sur
peti te</w>
di s</w>
ori té</w>
t ête</w>
i r
te -
jeu ne</w>
s truc
li e</w>
vi er</w>
entre prises</w>
en suite</w>
jus te</w>
ati s
mo di
nouv elles</w>
t aux</w>
cor ps</w>
él è
pho to
au rait</w>
t s-
jeu nes</w>
ass ez</w>
ver s
p u</w>
av en
at te
gu erre</w>
pass er</w>
visi on</w>
indu stri
ex tr
nu mé
ag it</w>
in dre</w>
vi ol
inv esti
o bli
en te</w>
ges tion</w>
pi è
ri que</w>
d ant</w>
fé rence</w>
trav aill
pour rait</w>
f ont</w>
r ents</w>
re di</w>
rai son</w>
p les</w>
ologi e</w>
commun au
t ar
an aly
sain t-
c les</w>
re li
g ens</w>
j an
app el
nombr eux</w>
ad a</w>
cu r
ai sse</w>
iss ement</w>
én er
au gmen
inté rê
condi tions</w>
mor t</w>
l les</w>
d an
ve ill
l ent</w>
ai si
mesu re</w>
activi tés</w>
ra i</w>
am éli
o y
por ts</w>
derni ère</w>
m ét
me ill
h ar
peu t-
pro t
c y
enn ent</w>
auc un</w>
main tenant</w>
sour ces</w>
a -
t ard</w>
ins cri
res pec
produ ction</w>
pour quoi</w>
inté res
ri ère</w>
g au
ec tu
l anc
bl an
i denti
h e
ch ac
fil m</w>
dét ail</w>
pa ge</w>
es t-
acc ès</w>
comm and
ca l</w>
sy n
1 0
d -
heu r
m au
oc ca
s pec
t al
d ra
ar t</w>
conn aî
éta bl
mul ti
p ê
étu di
pa sse</w>
ta bl
in iti
l é</w>
is tes</w>
m oi
pr ê
2 5</w>
étr ang
c k</w>
cep endant</w>
s ex
ch oix</w>
ré si
mati ère</w>
inform ation</w>
c ès</w>
don ne</w>
m ouv
ma j
lon g</w>
économ ique</w>
in g
ill et</w>
deu xième</w>
to y
p re</w>
ad ap
donn é</w>
m as
ab ri
er ie</w>
améli or
o ffici
pass é</w>
europé enne</w>
m è
géné r
plu tôt</w>
cons om
f ra
ty pe</w>
utilis ation</w>
poin ts</w>
la quelle</w>
sem bl
doi vent</w>
aut om
som mes</w>
sé qu
ti ent</w>
con sul
pouv ez</w>
pr ati
lon g
présen te</w>
x e</w>
en seign
v end
ba s</w>
1 7
d el
x im
a z
s û
n eu
él e
che v
mo dè
pen se</w>
re ç
auc une</w>
cin q</w>
accor d</w>
é vol
e ffi
so li
pa l
alis ation</w>
can ada</w>
da te</w>
uni versi
j eux</w>
or din
cul ture</w>
m ai
péri ode</w>
off re</w>
sol ution</w>
ad res
ter re</w>
con tribu
i ta
ac cep
re ction</w>
fon ction</w>
ques tions</w>
pro pri
1 1</w>
pr it</w>
ts- unis</w>
1 4</w>
fi que</w>
eu sement</w>
par mi</w>
aff aires</w>
i li
sem aine</w>
p tion</w>
ca le</w>
œu vre</w>
seu le</w>
sy m
ré gu
peut- être</w>
a de</w>
î tre</w>
inst all
in vi
s am
l ec
ar ds</w>
v ari
cert aines</w>
q u</w>
poli tiques</w>
val u
ou ti
ex am
ali tés</w>
impor t
tour n
p é</w>
activi té</w>
eff ectu
c k
dé li
par ti</w>
d ement</w>
veu t</w>
su jet</w>
ra di
e f
ju in</w>
4 0</w>
ma téri
or dre</w>
cu is
1 8</w>
- même</w>
is l
mar s</w>
s tra
hau t</w>
compa gn
reg is
ad op
résul tats</w>
c a</w>
can di
cau se</w>
pa re
organis ation</w>
nation ale</w>
déf en
décisi on</w>
che f</w>
ch és</w>
es p
s .
envir on</w>
r ôle</w>
ré u
o li
di ri
ac tions</w>
g ri
e .
sim ple</w>
d ol
m ain</w>
po s</w>
c ent</w>
l oin</w>
g h
mesu res</w>
fon d</w>
li gn
li vre</w>
d a</w>
ru e</w>
for ce</w>
d ess
ro y
je an
s av
empl oi</w>
sal le</w>
v ais</w>
alis te</w>
vi dé
tri ce</w>
par fois</w>
diffé rents</w>
dé termin
gran ds</w>
au ra</w>
k o
au tour</w>
l in
jan vier</w>
dev rait</w>
b at</w>
k i
minu tes</w>
nouv eaux</w>
f ré
dé mo
m s</w>
t ons</w>
respon s
pré par
cho ses</w>
ré es</w>
di ffici
appli cation</w>
d ence</w>
is ation</w>
qu ête</w>
déc embre</w>
s aison</w>
f es
o g
sé rie</w>
tech n
opé ration</w>
in ten
moy en</w>
b elle</w>
enf ant</w>
cep tion</w>
ti ve</w>
19 7
é valu
heu re</w>
su péri
ph y
ran ce</w>
nor d</w>
com ité</w>
arti s
ai rement</w>
fr on
è rent</w>
par o
ob serv
occa sion</w>
ter me</w>
is er</w>
probl ème</w>
affi r
z e</w>
franç aise</w>
par ten
idé e</w>
o f</w>
ma i</w>
tr on
s oir</w>
sec teur</w>
re tour</w>
on es</w>
pen s
li en</w>
mo bi
con for
conn u</w>
ag ri
1 6</w>
pro pre</w>
se in</w>
entr aî
stra té
m ère</w>
em en
concern ant</w>
1 3</w>
inter net</w>
iss ant</w>
fi gu
6 0</w>
ri l</w>
é cu
su d</w>
comm er
pr eu
pour tant</w>
communau té</w>
il o
intéri eur</w>
po ss
pré sent</w>
impor tant</w>
lis te</w>
é po
nation al</w>
l ise</w>
gi que</w>
œu r</w>
espa ce</w>
concer ne</w>
gra tu
gu i
es senti
na ture</w>
th è
peti ts</w>
val eur</w>
sep tem
b â
bu re
ou r</w>
h ô
cré ation</w>
é p
prot ection</w>
î t</w>
four ni
mal gré</w>
dép end
1 ,
ob jet</w>
v oit</w>
trav aux</w>
cl ass
ali men
pi erre</w>
comm erci
tr ou
li bre</w>
e tat</w>
h or
ou bli
dom aine</w>
ti s
fin anc
orig in
su ff
du rant</w>
cham bre</w>
di rection</w>
trav ers</w>
septem bre</w>
1 7</w>
prin ci
ju illet</w>
vol on
ou i</w>
. .</w>
j ac
d am
oc to
particu lier</w>
qu o
cham pi
dé par
obli g
éta ts</w>
av ril</w>
char ge</w>
jean -
ap pu
ouver t</w>
rése au</w>
envir onnement</w>
étu de</w>
an nu
1 .
s élec
m ation</w>
investi ss
à -
r endre</w>
li ber
bu d
fon ds</w>
anci en</w>
tou te
y eux</w>
ver sion</w>
popul ation</w>
éco le</w>
t au
des sus</w>
f ils</w>
h ors</w>
fé dé
toute fois</w>
i i</w>
empl oy
di eu</w>
dé e</w>
n on
è de</w>
con séqu
comm une</w>
chac un</w>
2 4</w>
g al
tra di
ris que</w>
j ar
indi vi
be c</w>
b in
1 00</w>
contr ôle</w>
con serv
par ta
é men
iss ent</w>
é du
s ar
cam pa
r o</w>
cor respon
g ée</w>
coll ecti
o t
sol u
li n</w>
et er</w>
g res
abor d</w>
expéri ence</w>
x -
su per
gar anti
utilis er</w>
ang l
pro ces
octo bre</w>
orig ine</w>
pré cé
dé sor
ti ers</w>
es prit</w>
mê mes</w>
su s
ajou ter</w>
pa tri
généra le</w>
av ais</w>
en regis
t ari
au -
c t</w>
nov embre</w>
pro jets</w>
man che</w>
z one</w>
201 2</w>
pro pose</w>
journ ée</w>
t ter</w>
hist ori
1 5
s ait</w>
dou te</w>
mani fes
mét ho
con f
béné fici
m uni
li t</w>
épo que</w>
pro pos
mu sique</w>
av e</w>
r y</w>
pa ti
ass embl
nombr euses</w>
li bé
ac compagn
é cou
mo de</w>
li re</w>
ra ble</w>
mi lieu</w>
lu n
aisi r</w>
com pris</w>
fi x
tem ents</w>
vi e
a si
1 6
m y
différen tes</w>
avan tage</w>
accu e
objecti f</w>
nu it</w>
am bi
im age</w>
sou ff
expl oi
b es</w>
lors qu'</w>
trai tement</w>
ag ré
è ve</w>
fai te</w>
b ois</w>
f abri
ré gl
étu des</w>
é cl
vi v
ré s
im ag
parti es</w>
par ler</w>
il leur</w>
spec ta
ch ine</w>
d y
quel s</w>
pro té
sui vre</w>
régi on
proces sus</w>
o eu
re ven
qué bec</w>
reli gi
201 5</w>
ch ap
t h</w>
de -
au près</w>
internation al</w>
gran des</w>
ouver ture</w>
c .</w>
a r</w>
c o</w>
du e</w>
ti fs</w>
associ ation</w>
intérê t</w>
chi ff
0 ,
direc teur</w>
ar chi
g o</w>
v an
f ille</w>
opé r
ex téri
s k
al li
v rai</w>
ter a</w>
me illeur</w>
en voy
lu i
in i
g lo
dé si
201 4</w>
sou s-
ten d
v ont</w>
â ge</w>
o gue</w>
ci vi
2 1</w>
gau che</w>
élé ments</w>
effi ca
élec tri
habi tu
cho is
201 3</w>
c aux</w>
le quel</w>
is se</w>
ar gent</w>
enregis tr
d at</w>
ai me</w>
do ssi
siè cle</w>
v ac
ori tés</w>
trouv é</w>
c elles</w>
nécess aire</w>
qu ali
com pos
si x</w>
pl ement</w>
li tés</w>
ex écu
o graph
voi e</w>
por té</w>
n ations</w>
res sources</w>
can adi
jou er</w>
end r
tro isi
1 9</w>
soci ale</w>
g és</w>
h er
re ce
voi x</w>
ré publique</w>
cré er</w>
as si
t '</w>
suc cès</w>
k e
onn es</w>
vi ennent</w>
moy ens</w>
am our</w>
désor mais</w>
s ch
ren contre</w>
justi ce</w>
comm ande</w>
vi vre</w>
cou r</w>
ti er</w>
s ais</w>
pr atique</w>
1 2
éner gie</w>
au teur</w>
am en
entr ée</w>
constru ction</w>
gen re</w>
ob tenir</w>
car te</w>
r y
m age</w>
pr ouv
d res</w>
tra du
pres que</w>
probl èmes</w>
m ess
soi ent</w>
ou tre</w>
particuli èrement</w>
v rier</w>
suff is
qu ent</w>
ple in</w>
compé ten
ch ris
dé mar
tom b
tr a</w>
ouver te</w>
fr ais</w>
g am
ren for
du re</w>
mati n</w>
ap pare
na tu
sc ène</w>
te au</w>
bud g
ai der</w>
d or
s ai
dé s</w>
t y</w>
mouv ement</w>
troisi ème</w>
rapi dement</w>
qu ée</w>
poli ce</w>
m ad
m ac
présen ce</w>
fé vrier</w>
s t</w>
cu le</w>
pres se</w>
an e</w>
201 1</w>
b ro
a o
rou te</w>
vic ti
pro gres
t ori
si gni
vé hi
clu b</w>
sour ce</w>
ex iste</w>
to tal</w>
t ère</w>
ti di
plu part</w>
premi ers</w>
t aine</w>
for mes</w>
min ist
per mis</w>
2 2</w>
ex per
assur er</w>
c œur</w>
mat ch</w>
au di
diffici le</w>
app el</w>
ch ant</w>
qu elles</w>
p ecti
ra l</w>
ré v
ap préci
modè le</w>
connaiss ance</w>
ri di
par l
techni que</w>
sen si
o re</w>
n ent</w>
ma n</w>
g er
communi cation</w>
con ten
grou pes</w>
sec ré
ati fs</w>
atten tion</w>
bou t</w>
h on
di n</w>
mu si
in er</w>
re fu
201 6</w>
alis tes</w>
sim plement</w>
dis cu
du rée</w>
n ée</w>
co de</w>
ins tru
201 0</w>
gu eur</w>
g ori
lu mi
1 4
st y
derni ères</w>
f eu
droi te</w>
franç ois</w>
f ru
v ain
r ais</w>
confi r
mar que</w>
em ment</w>
rem ar
campa gne</w>
1 3
pro che</w>
internation ale</w>
res tau
posi tions</w>
ca p
mal adi
li t
v és</w>
rapp el
dis tribu
personn el</w>
r end
ti ss
derni ers</w>
ë l</w>
mè tres</w>
au to
ren contr
quo tidi
fi ques</w>
d ents</w>
ti n</w>
di manche</w>
sup pl
dé part</w>
ist ance</w>
suiv i</w>
é tés</w>
fi é</w>
ci toy
s pi
év én
ab lement</w>
lar s</w>
gro s</w>
découv rir</w>
l ang
cli ents</w>
économ ie</w>
h en
règ lement</w>
t on
tr ait</w>
produ c
r et</w>
b ran
s ac
i er</w>
vill age</w>
ca les</w>
d ec
pe ine</w>
gé ni
ro i</w>
s tu
qu arti
éta bli
200 8</w>
soci al</w>
ex is
k e</w>
photo s</w>
an ge</w>
long temps</w>
connaî tre</w>
a m</w>
pos te</w>
is es</w>
terr ain</w>
am is</w>
es sion</w>
2 3</w>
ac qu
da ts</w>
laiss er</w>
vi te</w>
dol lars</w>
sorti e</w>
milli ards</w>
pl aisir</w>
pi ed</w>
par ents</w>
de vient</w>
n avi
fais ant</w>
se z</w>
per mettre</w>
bes o
o t</w>
dé pen
f eu</w>
dé s
cro issance</w>
sû r</w>
preu ve</w>
h am
ess ay
pl at
h ol
vidé o</w>
m aire</w>
écri t</w>
il lu
disposi tif</w>
carac té
di e</w>
oi e</w>
d ang
ra ss
permet tant</w>
ven te</w>
europé en</w>
a- t-il</w>
ber t</w>
uni que</w>
cin é
y er</w>
at oire</w>
es pé
pi re</w>
p om
r i</w>
fai ts</w>
secon de</w>
conse ill
ci el</w>
a ts</w>
régu li
st oc
vend redi</w>
ré serv
200 9</w>
gar de</w>
mati que</w>
cons ta
procé dé</w>
u el</w>
ré vol
ca t</w>
ta bles</w>
mem bre</w>
fi e</w>
con clu
aff aire</w>
sor te</w>
cert ain</w>
8 0</w>
fré qu
puis que</w>
co û
aut oris
ologi que</w>
ex cel
l au
fé ren
terri toire</w>
o l</w>
ca té
vi té</w>
ch al
commer ce</w>
sam e
201 7</w>
ou est</w>
p a</w>
beso ins</w>
administr ation</w>
inté gr
analy se</w>
pou ss
sé ri
pren ant</w>
com prendre</w>
sta tu
universi té</w>
h an
p eux</w>
bure au</w>
o k</w>
r ons</w>
compa gni
ch â
s ant</w>
en quête</w>
sem aines</w>
ar mée</w>
200 7</w>
d o</w>
v eux</w>
lé gi
esp è
f is
n et
n am
coll abor
régi me</w>
minist ère</w>
ao ût</w>
an des</w>
cr ise</w>
assembl ée</w>
chau ff
équi p
b eau</w>
ter n
respon sa
l è
em pê
al bu
celu i
je an</w>
né go
ét aire</w>
fai tes</w>
cha î
actu ellement</w>
ph a
possi bilité</w>
in dépend
pr end
g ence</w>
v a
same di</w>
mo t</w>
expli que</w>
é ment</w>
ten ue</w>
cons ci
bâ ti
ag ne</w>
vi s</w>
techni ques</w>
pro pr
liber té</w>
démo cr
ven ue</w>
di x</w>
fr oi
di ffi
cro y
titu de</w>
re l</w>
m eu
c lo
por tant</w>
diffi cul
com prend</w>
to i</w>
com pli
vin g
eu res</w>
in vention</w>
s atis
mer ci</w>
f re
peti tes</w>
ai ses</w>
négo ci
ta les</w>
résul tat</w>
améric ain</w>
k m</w>
2 .
ex erci
tr ouver
néc essi
è le</w>
we b</w>
j ap
pro vin
cuis ine</w>
répon dre</w>
ré ser
lun di</w>
mo der
program mes</w>
per for
voi ture</w>
is é</w>
direc tement</w>
ex e</w>
af rique</w>
at h
no te</w>
9 0</w>
p el
bour g</w>
i g
1 er</w>
moy enne</w>
éta ts-unis</w>
si té</w>
f ri
caté gori
ra y
tan dis</w>
secon d</w>
for ts</w>
qu anti
pai x</w>
sci enti
arti cles</w>
suiv ant</w>
si onn
sou tien</w>
lo gi
édu cation</w>
con st
capa cité</w>
in te</w>
d on</w>
déclar é</w>
for ces</w>
a k
in tro
r ar
im pli
blan c</w>
mon tre</w>
er ont</w>
bi en
p sy
dé plac
2 8</w>
pass age</w>
ex clu
mo ts</w>
angl ais</w>
pro pos</w>
caracté ris
disponi ble</w>
re command
arri vée</w>
mé can
lumi ère</w>
par le</w>
sen ce</w>
ma t</w>
habi tants</w>
p â
est- ce</w>
ti rer</w>
all ait</w>
ch emi
2 6</w>
réu ssi
mer c
t- elle</w>
rem plac
rou ge</w>
ju di
né g
qu és</w>
ch in
évi ter</w>
mé m
ci -
lan gue</w>
2 7</w>
ag er</w>
tou ris
tem por
mondi ale</w>
u nes</w>
ré alité</w>
v ê
ori en
2 ,
t aille</w>
jeu di</w>
ma î
celui -ci</w>
so ins</w>
jou eurs</w>
piè ces</w>
intro du
cour t</w>
tr e
er ait</w>
man que</w>
ch u
19 6
muni cipa
l ande</w>
dom in
cho isi
sal ari
n o</w>
répon se</w>
h onn
qu e
ma xim
parti cipa
pe au</w>
a y</w>
l am
hi er</w>
st e
struc ture</w>
p .</w>
contr at</w>
inf lu
c ée</w>
respons able</w>
perfor man
hau te</w>
cher ch
20 00</w>
t oi
situ é</w>
tionn el</w>
cons ac
con cur
d ro
li v
è nes</w>
si tes</w>
lar ge</w>
de venir</w>
200 6</w>
3 1</w>
mar di</w>
b en
défen se</w>
dossi er</w>
so ph
di pl
is ra
gr ès</w>
exi on</w>
dis tin
po ly
chemi n</w>
for te</w>
merc redi</w>
der rière</w>
dr a</w>
vi n</w>
annon ce</w>
fin alement</w>
allem agne</w>
con férence</w>
arri ve</w>
peu ple</w>
contr ô
pho to</w>
extr ê
en tou
m me</w>
rapi de</w>
ju ridi
o s
uni es</w>
cl asse</w>
premi ères</w>
objecti fs</w>
di ver
ra ture</w>
adres se</w>
voy age</w>
syst èmes</w>
é cra
glo b
véri table</w>
ta n</w>
ni que</w>
av anc
prati ques</w>
é vo
faci le</w>
sor t</w>
rel ations</w>
co le</w>
f an
ac teurs</w>
sorti r</w>
u x</w>
com par
déci dé</w>
ar mes</w>
partici p
prom o
pro b
n ation</w>
soci aux</w>
th er
aven ir</w>
syn di
re trai
si eur</w>
entraî n
2 9</w>
aut orités</w>
ég lise</w>
po l
re -
ra c
lo gement</w>
bl ement</w>
am i</w>
con nu
ren seign
lég isl
min im
lu tte</w>
pen ser</w>
ban que</w>
li b
ess eur</w>
du l
v al</w>
travaill er</w>
ati onn
e ta
en g
en vie</w>
paro le</w>
200 5</w>
z i
f il</w>
n oir</w>
jo int</w>
accu eil</w>
idé es</w>
lui -même</w>
vi end
té r
ex prim
im ages</w>
tr ain</w>
s col
cou leur</w>
n al</w>
ss es</w>
o -
eff ets</w>
a ci
tin g</w>
maj orité</w>
le -
7 0</w>
mi ch
voi ci</w>
cri min
eff ecti
b all
ten ti
coll ec
règ les</w>
mé n
chang ement</w>
mon tant</w>
princi pe</w>
pu issance</w>
jar din</w>
4 5</w>
pa pi
impor te</w>
confi ance</w>
t ec
sol eil</w>
a c</w>
è ge</w>
pe in
por tu
de z</w>
voi là</w>
vac ances</w>
si l
b ai
cl é
professionn els</w>
industri e</w>
amélior er</w>
d us</w>
dé pu
l our
t oires</w>
suppl émen
ari té</w>
sé jour</w>
so l</w>
mo s
g ol
m ement</w>
é ven
dé l
t esse</w>
ri ch
in ci
er r
dé ten
mi cro
d avantage</w>
lon gue</w>
meill eure</w>
per ç
ce -
ré ci
ch im
g re
utilis é</w>
cir cul
re cu
im médi
dou ble</w>
cou pe</w>
import ante</w>
évalu ation</w>
d û</w>
mon sieur</w>
ét ais</w>
ouv rir</w>
bor d</w>
v au
tionn elle</w>
m és</w>
ra con
élè ves</w>
dépar tement</w>
par lement</w>
proch ain</w>
h ou
ni e</w>
annon cé</w>
j é
ins pi
pa ges</w>
cou ra
ph é
sur face</w>
e d
évol ution</w>
in qui
ca ss
m ains</w>
fav or
pa ssi
dis position</w>
graph e</w>
demand er</w>
b y</w>
lo t</w>
éch ang
numé ro</w>
em ent
gr av
piè ce</w>
v ant</w>
ré férence</w>
dé pl
vol u
secré taire</w>
pa s
li eux</w>
réalis er</w>
publi cs</w>
té moi
et c</w>
av o
a é
on om
i le</w>
fin ale</w>
1 -
as pec
dé bu
é ten
albu m</w>
import ance</w>
mis sions</w>
con dam
ta gne</w>
con vention</w>
dé rou
co m</w>
sty le</w>
a d</w>
mar chés</w>
mis es</w>
para ît</w>
v oire</w>
pouv ait</w>
inter ro
- -
tr ac
ra le</w>
g ation</w>
si ve</w>
a te</w>
poi ds</w>
b ac
h al
reç u</w>
l ée</w>
dess ous</w>
a des</w>
quarti er</w>
vi lles</w>
mé ment</w>
li vres</w>
a h</w>
pro vo
pour ra</w>
f ar
n our
pa th
tem pé
et c.</w>
ph ili
enseign ement</w>
édi tion</w>
er i
sur veill
él abor
5 00</w>
dé cri
v as
ter mes</w>
disposi tions</w>
économ iques</w>
roy au
financ ement</w>
ré union</w>
compé ti
établ issement</w>
pré f
val eurs</w>
li ens</w>
â tre</w>
p eur</w>
compagni e</w>
trans port</w>
fam ili
t ères</w>
propr es</w>
su it</w>
comm un</w>
è s-
exam en</w>
endr oit</w>
s té
pro ven
bi lités</w>
ti ens</w>
cou leurs</w>
rel e
docu ment</w>
ti é</w>
sep t</w>
visi te</w>
budg et</w>
ne w</w>
c ement</w>
en tes</w>
indi qué</w>
ex er
sou lign
o k
ti ère</w>
solu tions</w>
ag ence</w>
si f</w>
f esti
régi ons</w>
f e
el l
participa tion</w>
dem ment</w>
n au
lo g
pré fé
200 4</w>
né an
appare il</w>
d oc
vic toire</w>
co eur</w>
at tribu
ni té</w>
v ues</w>
co opération</w>
dy nam
s por
3 5</w>
form er</w>
con tenu</w>
di men
diri ge
. 000</w>
heur eusement</w>
oeu vre</w>
c ec
i ci
fai ble</w>
qu in
im pa
fam illes</w>
b ons</w>
b é</w>
conse ils</w>
l aisse</w>
l av
néan moins</w>
exerci ce</w>
car rière</w>
consom mation</w>
ga z</w>
con cep
su ffi
contr aire</w>
ch em
ser t</w>
trav er
per man
sain t</w>
0 0
respec t</w>
sélec tionn
indivi du
emi -
re trouver</w>
permet tent</w>
com por
ris ques</w>
di té</w>
w s</w>
docu ments</w>
20 0</w>
montr é
bri tan
nécess aires</w>
re trouv
cel le
res ter</w>
in nov
af ri
comm ence</w>
g ou
g ées</w>
alis me</w>
con centr
pé s</w>
disponi bles</w>
é pou
celle -ci</w>
assu rance</w>
volon té</w>
continu e</w>
mag ni
ci tés</w>
mo teur</w>
con ç
ç ant</w>
mati ques</w>
p pe</w>
vi a</w>
par c</w>
re trouve</w>
ai ls</w>
ac te</w>
den te</w>
sau f</w>
demand é</w>
carac tère</w>
mar che</w>
oi gn
si n</w>
ex ist
sou ri
ta s
mi di</w>
g no
b a</w>
mém oire</w>
e k
t ance</w>
chang er</w>
i ra
ren tr
con texte</w>
ca s
appro che</w>
cel lu
élé ment</w>
a dé
mé ri
p ilo
jo h
rév él
aff ec
let tre</w>
si e</w>
rel ation</w>
ati e</w>
ologi ques</w>
opér ations</w>
dev ait</w>
con tin
p is
améric aine</w>
ac cro
straté gie</w>
extéri eur</w>
maî tr
ç ons</w>
eta ts-unis</w>
pren nent</w>
tr im
b elles</w>
cal me</w>
na tur
mondi al</w>
hu it</w>
v all
a pr
us age</w>
oi rs</w>
stoc k
t alement</w>
ti ves</w>
imag in
ex cep
médi as</w>
cl am
uni té</w>
quel qu'</w>
ach at</w>
rédu ire</w>
t aient</w>
fu tu
c u</w>
étudi ants</w>
fé ri
responsa bilité</w>
ag ement</w>
diff u
op ti
gn es</w>
n és</w>
principa l</w>
bu l
in clu
pi e
ten ce</w>
pr on
b ass
cour ant</w>
ran ts</w>
tan tes</w>
b aisse</w>
em pr
sal on</w>
b au
recher ches</w>
journ al</w>
ré c
ati ques</w>
ef forts</w>
ven us</w>
c ru
rése aux</w>
alis er</w>
sex u
col on
es tre</w>
ro s</w>
200 3</w>
3 ,
cu les</w>
r on</w>
m ol
del à</w>
po tenti
2 -
k il
souv en
maladi e</w>
im pression</w>
mé dec
choisi r</w>
fonctionn ement</w>
vi eux</w>
ré g
montr er</w>
w or
ouv re</w>
sec tion</w>
ain ement</w>
phy sique</w>
pro xim
o is
mi té</w>
cr ois</w>
modi fi
es s</w>
z ones</w>
thè se</w>
judi ci
procé dure</w>
ach eter</w>
es -
mi que</w>
pré vu</w>
appar tement</w>
b ain</w>
y p
c m</w>
vis age</w>
éven tu
fais ait</w>
alis é</w>
ré uni
î le</w>
di vers</w>
regar d</w>
compl è
tour ner</w>
g s</w>
ré solution</w>
chap i
bu r
par tout</w>
l t</w>
faci lement</w>
p in
commun aut
.. ..</w>
publi é</w>
citoy ens</w>
y m
mé es</w>
puis se</w>
ch ance</w>
k a</w>
cham bres</w>
ss i</w>
élec tron
représen te</w>
ta ges</w>
dé bat</w>
t â
jou eur</w>
donn ée</w>
per du</w>
200 1</w>
bal l</w>
3 .
cri ption</w>
cré é</w>
f lo
agré able</w>
a me</w>
ég ard</w>
200 2</w>
cec i</w>
effica ce</w>
jou e</w>
lec ture</w>
arri ère</w>
mo bil
lé gu
f lu
ren du</w>
évol u
gui de</w>
ren ouv
ter s</w>
fil ms</w>
ch ron
s és</w>
t .
hau sse</w>
réalis é</w>
ai e</w>
situ ée</w>
génér alement</w>
ab sence</w>
poli ci
réalis ation</w>
trai té</w>
y or
moi tié</w>
ré fl
professionn el</w>
b onnes</w>
qu et</w>
histori que</w>
ma ss
bra s</w>
tabl eau</w>
victi mes</w>
soci étés</w>
is su
déclar ation</w>
g enti
atte indre</w>
é pi
centr ale</w>
li s</w>
l ab
meill eurs</w>
ch ée</w>
f ais</w>
éli min
im p
mili taire</w>
a re</w>
fav eur</w>
fran ch
dé cor
lou is</w>
mess age</w>
19 5
re té</w>
b us</w>
thé ori
di te</w>
a x
li ers</w>
anim aux</w>
rai sons</w>
profi ter</w>
f en
in féri
iss ements</w>
dis cours</w>
ru ssi
ré cu
présen ter</w>
pro position</w>
ati vement</w>
l and
l ation</w>
siè ge</w>
n aiss
ry th
ter ie</w>
soli d
acc essi
à- dire</w>
oc ci
outi ls</w>
uni quement</w>
m p</w>
parten aires</w>
organis ations</w>
dis ci
struc tures</w>
ve ille</w>
élec tions</w>
por tée</w>
mich el</w>
ré di
thé âtre</w>
vi t</w>
ologi es</w>
for ê
i tes</w>
p y
est- à-dire</w>
co pi
f er</w>
s onn
montré al</w>
in t
non -
cli ent</w>
capa ble</w>
supéri eur</w>
afri c
proxim ité</w>
ph e</w>
diffé rence</w>
b ag
ciné ma</w>
blo g</w>
f as
fr ère</w>
par fai
tribu nal</w>
ajou té</w>
de venu</w>
ita lie</w>
g on
continu er</w>
faci li
neu f</w>
fonc tions</w>
cour se</w>
comm unes</w>
fil les</w>
d res
qu ar
pau l</w>
ty pes</w>
exploi tation</w>
principa ux</w>
atten dre</w>
lign es</w>
ren d</w>
excel l
témoi gn
hu mani
vo te</w>
mi e</w>
pé di
pour raient</w>
papi er</w>
ouv rage</w>
présen tation</w>
nu clé
mari age</w>
di c
ép is
connaî t</w>
19 4
quotidi en</w>
i tion</w>
lo caux</w>
inter pré
personn ages</w>
am én
bo î
au x
rap ports</w>
intérê ts</w>
ci ens</w>
gag ner</w>
con vain
ad hé
h eur</w>
fer a</w>
aut onom
di al
développ er</w>
o ffi
partici per</w>
di versi
c élè
de z-vous</w>
parfai tement</w>
app elle</w>
conn ec
ph one</w>
su isse</w>
cl au
professionn elle</w>
éta pe</w>
anci enne</w>
dét ails</w>
augmen tation</w>
ple ine</w>
gi es</w>
ph ar
pl ai
sé cu
li ci
vi tesse</w>
comp ter</w>
enten du</w>
esti me</w>
ti fi
cl in
écra n</w>
uti le</w>
cor rec
parta ger</w>
e m</w>
ve aux</w>
s port</w>
for mu
utilis ateurs</w>
qu ées</w>
matéri el</w>
off rir</w>
nor mes</w>
go ût</w>
pay s
lo cation</w>
atta que</w>
ab an
es .
aut orité</w>
figu re</w>
ju st
ti me</w>
tex tes</w>
compéten ces</w>
dépen ses</w>
ap pr
li qui
quanti té</w>
ni col
cr oire</w>
ci en</w>
par cours</w>
anci ens</w>
cu l</w>
pie ds</w>
st ation</w>
bi bli
ci n</w>
cert aine</w>
équi pes</w>
ob jets</w>
présen té</w>
dev raient</w>
nouv el</w>
ma ître</w>
v ées</w>
champi onn
four n
am a</w>
écl ai
voy ag
ô me</w>
cl as
espa gne</w>
er t</w>
hau teur</w>
ju ge</w>
dé sign
ph ilo
m eur
cré dit</w>
co ût</w>
exis tence</w>
heur eux</w>
poss ède</w>
uni vers</w>
atte int</w>
commen cé</w>
mar ie</w>
dé ri
al lu
st atis
institu tions</w>
souhai te</w>
f lé
es père</w>
fi chi
th i
para graphe</w>
tend ance</w>
is ol
y e</w>
l ac
to talement</w>
cir cu
vo is
cham p</w>
é car
m ant</w>
préc is
tou che</w>
a ce</w>
v ois</w>
archi tec
tr om
mé lan
russi e</w>
con cours</w>
ex ac
inst ant</w>
bl ess
c ent
chois i</w>
en -
ten sion</w>
capi tale</w>
f f</w>
im mobi
proch aine</w>
t ch
x y
philo soph
4 ,
com bat</w>
ré féren
c ence</w>
m am
men er</w>
ac ci
pay er</w>
améric ains</w>
ra s</w>
rem on
soci ales</w>
servi r</w>
av ance</w>
dis pose</w>
d ait</w>
investiss ement</w>
ex position</w>
do s</w>
constitu e</w>
am ment</w>
viol ence</w>
cul tu
a che
ph on
qui t
as h
man uel</w>
op position</w>
3 -
ar ab
ti ne</w>
tr é
f t</w>
en d</w>
6 -
pr u
d eur</w>
ch ô
cré di
prési denti
hé si
ca ts</w>
for mul
sup er</w>
char gé</w>
por t
hô pi
bi ent
n ar
prépar ation</w>
métho de</w>
inter vention</w>
ra teur</w>
ven tions</w>
dis tance</w>
cher cher</w>
eur o</w>
fi ce</w>
ag ir</w>
op ini
représen tant</w>
vo l</w>
soi rée</w>
install ation</w>
rédu ction</w>
me -
qu ez</w>
z o
pha se</w>
s ées</w>
pour rez</w>
s ession</w>
pron on
ju i
om è
réu ssi</w>
a ï
s ho
europé ens</w>
g la
c re
sim il
pri vé</w>
vis ant</w>
fi r
min i
confor mément</w>
ren dez-vous</w>
tu s</w>
honn eur</w>
a dul
produ ire</w>
bi ens</w>
ai lles</w>
bient ôt</w>
san g</w>
de au</w>
ti tres</w>
contr ain
tran si
condi tion</w>
suffi t</w>
ou rs</w>
b ande</w>
impa ct</w>
c ess
l ois</w>
dr ait</w>
sci ences</w>
fi t</w>
respons ables</w>
préc ise</w>
améri que</w>
re venu</w>
ta lité</w>
am i
ap porter</w>
engag ement</w>
v ali
im prim
di z
cé der</w>
b er</w>
nom mé</w>
publi ques</w>
jeu n
diver ses</w>
g â
techn ologie</w>
chaî ne</w>
cé ré
prê t</w>
hu ile</w>
s hi
dom aines</w>
tu de</w>
ra ges</w>
ad er</w>
rec ru
s .</w>
financi ère</w>
re venir</w>
réguli èrement</w>
d ois</w>
ni veaux</w>
fin al</w>
com bin
j ec
comm ent
ch ré
étrang er</w>
hi ver</w>
seu ls</w>
actu elle</w>
re van
mon t
mau v
nicol as</w>
c essi
ex pression</w>
anti -
mo ine</w>
yor k</w>
lar gement</w>
puis qu'</w>
c ac
personn age</w>
s cé
éco les</w>
un i</w>
s s</w>
ch ent</w>
occu p
enten dre</w>
dé non
bi e</w>
ré forme</w>
pass ant</w>
ch é
rom an</w>
véhi cule</w>
w in
sélec tion</w>
pl ans</w>
éch ange</w>
pri vi
j au
salari és</w>
c ine</w>
aé ro
comp tes</w>
difficul tés</w>
pro ches</w>
k i</w>
phy si
ass is
par fait</w>
revan che</w>
e bo
bat tre</w>
gam me</w>
fo ot
médi cam
veu lent</w>
sin on</w>
fl am
et tre</w>
châ teau</w>
réser ve</w>
candi dat</w>
li vrai
entre tien</w>
4 .
cou ple</w>
modè les</w>
retrai te</w>
phé nom
éle vé</w>
vers aire</w>
pro poser</w>
fi li
co -
pro fon
pa ci
reven us</w>
fav oris
indi que</w>
e y</w>
cri tique</w>
si vement</w>
ét aires</w>
im pos
k ar
candi dats</w>
is ent</w>
en coura
iss ons</w>
sé par
vi ens</w>
illi r</w>
ra bles</w>
inf ra
catégori e</w>
statu t</w>
consci ence</w>
s te</w>
rece voir</w>
organis mes</w>
envir onn
alis ée</w>
commen cer</w>
men tionn
chiff re</w>
hy po
réc emment</w>
g our
récu pé
constru ire</w>
é ti
re cours</w>
pl as
ri vi
jac ques</w>
les quels</w>
chan ge</w>
t tes</w>
d emi-
bre f</w>
ti ble</w>
in é
véri té</w>
pers pecti
ba ts</w>
rem pli
j on
su re</w>
an i
z a</w>
phili ppe</w>
pan ier</w>
j i
décisi ons</w>
au teurs</w>
connu e</w>
capi tal</w>
mu sée</w>
arrê t</w>
trouver ez</w>
lanc é</w>
promo tion</w>
effica cité</w>
f ête</w>
électri que</w>
au- delà</w>
car tes</w>
ge ant</w>
parti s</w>
onn é</w>
para ître</w>
su jets</w>
idé al</w>
enti ss
si gne</w>
apr ès-
rem bour
numé rique</w>
gar der</w>
fer me</w>
enti èrement</w>
artis tes</w>
popul aire</w>
proté ger</w>
clas sique</w>
sym bo
ca tal
pl on
ser aient</w>
appel é</w>
in dis
3 2</w>
e g
cri p
o le</w>
199 9</w>
de aux</w>
du rable</w>
mor ce
compl ète</w>
en vis
rass embl
mor ts</w>
dé tru
cer tes</w>
l ait</w>
fi c
limi te</w>
fin i</w>
al tern
natu rel</w>
m m</w>
illu str
princi pes</w>
ti r</w>
ap prendre</w>
sup port</w>
jo indre</w>
7 5</w>
outi l</w>
empl ois</w>
élec tion</w>
bel gique</w>
docu men
por te-
actu el</w>
disci pl
pé tro
mau vais</w>
avi ons</w>
ob ten
identi té</w>
principa lement</w>
su g
al -
dis pos
v ag
por tent</w>
ari at</w>
essenti el</w>
con tes
f r</w>
propri été</w>
ca f
ver t</w>
milli ers</w>
fu rent</w>
uti lise</w>
arri ver</w>
let tres</w>
du es</w>
d avi
trav ailleurs</w>
principa le</w>
bi o
r d
provin ce</w>
offi ce</w>
pari tion</w>
e z-vous</w>
voul u</w>
pro to
al gé
é mo
5 ,
el le
dev oir</w>
é col
complè tement</w>
n a</w>
all ez</w>
z y</w>
fourni r</w>
k ing</w>
cul tur
bru x
th ème</w>
tr on</w>
col or
s u</w>
in ven
tou rs</w>
terr oris
f i</w>
4 -
im possible</w>
chapi tre</w>
per te</w>
évén ement</w>
distribu tion</w>
mu sul
gé ograph
ill er</w>
av er
techn ologies</w>
trans fer
évén ements</w>
ac tes</w>
li que</w>
britan nique</w>
ca th
espè ce</w>
cô te</w>
occu pa
appro pri
dom ici
fru its</w>
d at
gen ces</w>
d ar
at ti
déc ouverte</w>
pris on</w>
rece v
initi ative</w>
pé es</w>
c esse</w>
prob ablement</w>
utilis ateur</w>
j et
cou ps</w>
défin iti
aff ron
dis par
com posé</w>
accue ill
p .
véhi cules</w>
isl am
mi gr
ré el</w>
ré pé
h ab
nécessi té</w>
prof esseur</w>
ma chine</w>
fou r</w>
cons truc
pé n
dé es</w>
compl et</w>
m ail</w>
l ati
rapp elle</w>
permet tra</w>
com position</w>
pu iss
pen sée</w>
pré s
par isi
dang er
tempé rature</w>
naiss ance</w>
som me</w>
expl o
t- ils</w>
patri moine</w>
se l</w>
cl air</w>
op pos
pai ement</w>
photo graph
nor me</w>
lo c
par tage</w>
pro grès</w>
enn em
con fort</w>
in é</w>
chev eux</w>
5 -
ac teur</w>
su d-
b ol
exper ts</w>
at ement</w>
g a</w>
ex pédi
ég alité</w>
tri ces</w>
tu n
maxim um</w>
li gue</w>
supéri eure</w>
sta de</w>
représen tants</w>
au raient</w>
télé char
specta cle</w>
é mission</w>
métho des</w>
mai sons</w>
per dre</w>
renseign ements</w>
évi demment</w>
impor tants</w>
pl ain
men ac
bon heur</w>
0 1</w>
fédé ration</w>
natu rel
o ise</w>
eu x
ta x
b s</w>
n s</w>
ê tres</w>
de hors</w>
appu i</w>
établ issements</w>
fau dra</w>
w al
d ette</w>
ré su
s cul
mili taires</w>
â me</w>
télé vision</w>
har mon
hum aine</w>
3 3</w>
in a</w>
man ger</w>
hum ain</w>
su res</w>
ré fu
diff us
e x</w>
g il
festi val</w>
s eur</w>
t ante</w>
a ture</w>
du res</w>
is ant</w>
gratu it</w>
si mul
vau t</w>
volu me</w>
révol ution</w>
comm iss
cl assi
ni er</w>
conséqu ences</w>
es ses</w>
élec tor
p c</w>
co p
coû ts</w>
ordin aire</w>
de cin</w>
an o</w>
ex -
ag ent</w>
constitu tion</w>
c tions</w>
pouv ant</w>
to r</w>
vi gueur</w>
rel ative</w>
v ul
r ations</w>
civi le</w>
b om
ti onne</w>
man dat</w>
i a</w>
t ol
b ill
préc isi
gu er
3 6</w>
we ek
v ise</w>
acti f</w>
dél ai</w>
livrai son</w>
lo cal</w>
sk i</w>
ob tenu</w>
coll ection</w>
ni s</w>
coll è
pal esti
d ri
sé ance</w>
ag ents</w>
ur gence</w>
éch elle</w>
sé n
3 00</w>
concur rence</w>
d y</w>
in ée</w>
chang ements</w>
in géni
issu e</w>
err eur</w>
chiff res</w>
moder ne</w>
som met</w>
al er
enti er</w>
cou che</w>
l aire</w>
re pas</w>
sub st
ver se</w>
pour ront</w>
effectu er</w>
g as
renfor cer</w>
tradu ction</w>
institu t</w>
mé decin</w>
lo cales</w>
rem erci
acti ve</w>
esp oir</w>
d ation</w>
pri me</w>
tr o</w>
surveill ance</w>
célè bre</w>
ig n</w>
b anc
a perç
mati ères</w>
u t</w>
ne i
direc t</w>
re ti
pati ents</w>
l en
t t</w>
rel atives</w>
cor por
caractéris tiques</w>
ven tes</w>
a h
is -
f oi</w>
l end
solu ment</w>
li és</w>
trans ports</w>
por tes</w>
dé di
pi er
mobi le</w>
pro posé</w>
multi pli
fabri cation</w>
visi ons</w>
davi d</w>
onn er</w>
inter ne</w>
montr é</w>
garanti e</w>
kil omè
o m</w>
fr ont</w>
envoy er</w>
communi qué</w>
connaiss ances</w>
y a</w>
ce e</w>
artis te</w>
cl airement</w>
géné ration</w>
dem an
so i</w>
par all
arrê té</w>
allem and</w>
financi ers</w>
ri che</w>
cô tés</w>
or e
o des</w>
dé cou
assu re</w>
ali e</w>
pré ten
v age</w>
fo r</w>
jeun esse</w>
iss ait</w>
entr er</w>
an a</w>
li ts</w>
regar der</w>
qua tri
ch ement</w>
b is
tionn els</w>
nation ales</w>
bibli o
scienti fique</w>
ag res
stu di
sec teurs</w>
class ement</w>
con ception</w>
rom e</w>
jap on
ordin ateur</w>
le ver</w>
t- on</w>
eu e</w>
laiss é</w>
cal cul
associ ations</w>
re qu
cen te</w>
av ou
ca n</w>
ag i
intégr ation</w>
employ és</w>
au gu
cher che</w>
prépar er</w>
au ront</w>
co hé
ad mi
con vient</w>
expl or
les quelles</w>
électron ique</w>
re vient</w>
go og
dem ain</w>
établi r</w>
autom ati
condu it</w>
a éri
comment aires</w>
en qu
rés istance</w>
con ver
impor tantes</w>
p s
suiv ante</w>
com prenant</w>
s oin</w>
exécu tion</w>
lend em
gé rer</w>
défin ition</w>
ré pu
ét oi
w o
écri re</w>
espa gno
supplémen taires</w>
ra t
nor d-
al ex
cen tres</w>
res pecti
championn at</w>
pré hen
9 ,
pl age</w>
fé min
for um</w>
cr ain
écri v
diffu sion</w>
acti fs</w>
modi fier</w>
rec ettes</w>
fr ères</w>
trav aille</w>
ar ts</w>
voi rs</w>
psy ch
off res</w>
pé d
b el</w>
co or
0 -
t s
mélan ge</w>
senti ment</w>
influ ence</w>
bâti ment</w>
cri tères</w>
c re</w>
ber n
condu ite</w>
blan che</w>
radi o</w>
ar gu
lon dres</w>
jou é</w>
3 4</w>
k er</w>
collabor ation</w>
au tr
r al
utilis és</w>
indis pens
mal heureusement</w>
mon ter</w>
flé ch
espè ces</w>
magni fique</w>
propri étaire</w>
lo s</w>
inter médi
e i
just ement</w>
per tin
quatri ème</w>
financi er</w>
beau té</w>
conseill er</w>
di vision</w>
futu r</w>
empr un
in ement</w>
agri culture</w>
ex por
goog le</w>
éch app
expéri men
amélior ation</w>
jap on</w>
détermin er</w>
prés ents</w>
lu min
mé lang
sar ko
mo ti
ol ym
am our
o bi
z z
œu vres</w>
bou che</w>
cons iste</w>
alimen tation</w>
conf lit</w>
n ou
ag ers</w>
nom s</w>
suiv ants</w>
ti ères</w>
con tempor
mar chan
immédi atement</w>
au str
ci eux</w>
c tu
domici le</w>
sup prim
f allait</w>
l er
ri tu
dev ra</w>
un s</w>
publi cation</w>
mo indre</w>
dem andes</w>
augmen ter</w>
secon d
performan ce</w>
5 5</w>
victi me</w>
ro se</w>
inform atique</w>
fi dè
lendem ain</w>
origin al</w>
dem eure</w>
échang es</w>
europé ennes</w>
foot ball</w>
onn aire</w>
dirige ants</w>
h éri
pis cine</w>
6 ,
ra s
isra ël</w>
gr ave</w>
po st
pi que</w>
ex tra
y ou
char les</w>
inscri t</w>
des c
fau te</w>
ba c</w>
oubli er</w>
inten tion</w>
ori z
étrang ers</w>
sex e</w>
hôpi tal</w>
en vers</w>
v an</w>
an ni
lanc er</w>
h as
s anc
é mer
m ille</w>
o xy
st and
no ël</w>
ar s</w>
cl é</w>
e f</w>
eu x-
to tale</w>
ru sse</w>
pro positions</w>
internation ales</w>
qui tter</w>
régl emen
ban ques</w>
l y</w>
ren con
signi fie</w>
eu t</w>
ass istance</w>
dé gu
l .</w>
présidenti elle</w>
chô mage</w>
s ation</w>
p es
contr e
joh n</w>
ai mer
or ge</w>
w il
logi ciel</w>
pri vée</w>
ang let
cert ainement</w>
minim um</w>
mar i</w>
d age</w>
b rési
b lu
u re</w>
lo gique</w>
g ène</w>
trai ts</w>
sign é</w>
e tats</w>
on g</w>
cam p</w>
ter ra
quali fi
brux elles</w>
affir me</w>
conti ent</w>
utilis ant</w>
f ins</w>
des ign</w>
r av
ô ts</w>
be aux</w>
essay er</w>
fac ebo
ver tu</w>
y -
anglet erre</w>
al co
com bien</w>
ver re</w>
él u</w>
l ant</w>
gh t</w>
él us</w>
m asse</w>
ryth me</w>
circu it</w>
voul oir</w>
lan gues</w>
pour suivre</w>
s téri
aven ture</w>
mi n</w>
res tent</w>
pré serv
ru p
c oin</w>
pos tes</w>
sou tenir</w>
particip ants</w>
im pres
oc é
expli quer</w>
der a</w>
bri ll
ambi ance</w>
appr entiss
arri vé</w>
découv rez</w>
m ont</w>
recu e
gu er</w>
vis u
vi enne</w>
ci s</w>
pouv ons</w>
con fron
dynam ique</w>
la c</w>
communau tés</w>
è tes</w>
dét aill
f e</w>
ar me</w>
d ons</w>
soi gn
di ag
fin ances</w>
er n
l and</w>
chac une</w>
et -
ill on</w>
b ap
mad ame</w>
a w
le v
capa cités</w>
hum ains</w>
bat aille</w>
avan tages</w>
alis és</w>
net toy
bil an</w>
g an
ré d
démar che</w>
démocr atie</w>
3 9</w>
ap parti
ex pos
nour ri
après- midi</w>
ch age</w>
v ég
co les</w>
hol lande</w>
ven ant</w>
pê che</w>
om é
circul ation</w>
n er
di ca
ra les</w>
mo d
in titu
sus pen
199 8</w>
tra fi
kilomè tres</w>
3 8</w>
ri ers</w>
main tenir</w>
direc tive</w>
ol es
com édi
répon ses</w>
ssi ons</w>
publi c
écri ture</w>
pro por
di r</w>
em bar
spéci al</w>
ann exe</w>
et h
sur prise</w>
diversi té</w>
trans par
t ative</w>
t t
ch ées</w>
réfu gi
opti mis
ajou te</w>
biblio thè
sarko zy</w>
4 8</w>
f ol
ci- dessous</w>
arrê ter</w>
9 5</w>
chin ois</w>
condu c
dial ogue</w>
pou voirs</w>
è n
du r</w>
ces sion</w>
trans form
conn us</w>
e au
réfl exion</w>
p p
5 .
ph ère</w>
ti enne</w>
dé faut</w>
g ren
199 0</w>
mi -
mat eurs</w>
6 5</w>
on y
re cor
3 7</w>
cou rir</w>
c élé
caf é</w>
scienti fiques</w>
tionn elles</w>
viv ant</w>
7 ,
che ts</w>
pro vis
élè ve</w>
aspec t</w>
for tement</w>
organis me</w>
e z-
l ine</w>
él ar
cath oli
k y
to p</w>
chan son</w>
prend s</w>
doi g
trouv ent</w>
h oriz
er ies</w>
expli qué</w>
at tr
rencon tres</w>
région al</w>
vi es</w>
multi ples</w>
acc ess
terra sse</w>
hy dro
re vue</w>
graph ique</w>
communaut aire</w>
bl eu</w>
seign eur</w>
facebo ok</w>
lo cale</w>
juridi que</w>
conséqu ence</w>
0 4</w>
effi cac
o d</w>
man u
sci ence</w>
v ar
j o</w>
appli quer</w>
ca bin
7 -
mar se
lon gueur</w>
viend ra</w>
mar ine</w>
ter ont</w>
concep t</w>
mom ents</w>
chu te</w>
sembl ent</w>
cir const
froi d</w>
me di
n av
scol aire</w>
cam p
ven ait</w>
su bi
spéci fiques</w>
di que</w>
f ro
cha ts</w>
lit tér
ch ass
g re</w>
cou rage</w>
am end
con vi
plac es</w>
f rap
f leurs</w>
rê ve</w>
fi che</w>
sé pa
compl exe</w>
voul ait</w>
ap prouv
ti e</w>
c .
sub s
ab solument</w>
is son</w>
ré clam
ac adé
dé bar
au- dessus</w>
feu ille</w>
ch at</w>
ré fléch
qué bé
e re</w>
sou mis</w>
opini on</w>
déci de</w>
ogi que</w>
sol dats</w>
chal eur</w>
tran qu
donn ent</w>
sign al
ru r
mu r</w>
ex es</w>
for cé
p ont</w>
forê t</w>
popul ations</w>
ter res</w>
al ise</w>
pré vention</w>
correspon d</w>
fra î
all ons</w>
. le</w>
week -
renouv el
ga re</w>
sim pli
négoci ations</w>
re prise</w>
extr é
annon ces</w>
fu sion</w>
forcé ment</w>
au quel</w>
mé tier</w>
n g</w>
ti ennent</w>
vi l
de l</w>
v ins</w>
pré voit</w>
au rais</w>
pal ais</w>
formu le</w>
statis tiques</w>
mar ques</w>
che fs</w>
modi fication</w>
profi t</w>
pro s
d en</w>
sal les</w>
for mat</w>
9 9</w>
autom obi
con tenant</w>
sec ret</w>
le y</w>
r ol
nom in
c és</w>
confi gu
ly on</w>
tour ne</w>
c -
centr al</w>
comm an
0 3</w>
investiss ements</w>
principa les</w>
règ le</w>
conn exion</w>
senti r</w>
poss é
mouv ements</w>
por teur</w>
dé lég
sor ti</w>
f a</w>
avi on</w>
voyag eurs</w>
gr è
re connaissance</w>
dis sement</w>
mauv aise</w>
autr ement</w>
ur b
b en</w>
reg re
tr e-
espa ces</w>
prin temps</w>
cherch eurs</w>
u k
h a</w>
te d</w>
rem ettre</w>
c on</w>
at oires</w>
hé ber
dis que</w>
mar qu
visi ble</w>
f all
au rez</w>
im men
tomb er</w>
prin ce</w>
ap paraît</w>
consom mateurs</w>
clau de</w>
lit té
li ées</w>
gratu i
main tien</w>
dé voi
s ag
ouver tes</w>
essenti ellement</w>
hé ros</w>
transfer t</w>
é par
jo in
m ans</w>
dev ez</w>
elle -même</w>
pol lu
c is
pro cès</w>
re connu</w>
cy cle</w>
intéres sant</w>
religi on</w>
ex pres
ch s</w>
compl émen
équi libre</w>
voul ez</w>
l d</w>
palesti ni
cl és</w>
com porte</w>
tro ph
pré vue</w>
ma ch
fl or
pl at</w>
c te</w>
ph ra
considé ré</w>
k s</w>
sur -
pas sion</w>
0 5</w>
br ou
preu ves</w>
ro bert</w>
judici aire</w>
appli cations</w>
apprentiss age</w>
an ne</w>
minis tres</w>
alimen taire</w>
li ère</w>
poin te</w>
au lt</w>
co u</w>
min e</w>
di minu
dou bl
ti bles</w>
re prendre</w>
sus cep
touris me</w>
c ents</w>
po é
bre tagne</w>
déc ouvert</w>
o gues</w>
sé du
m il
vrai e</w>
empê cher</w>
dang er</w>
atten d</w>
k o</w>
i ii</w>
anti ll
is és</w>
gran d-
str e
avo cat</w>
on u</w>
ai r
l abor
ci e</w>
bu ts</w>
hum aines</w>
ré per
inst aller</w>
n ari
con ci
g le</w>
ving t</w>
compéti tion</w>
sym path
utilis ée</w>
ti vité</w>
sou ligne</w>
suc re</w>
s sion</w>
ter ait</w>
particuli ers</w>
défin ir</w>
ac u
l és</w>
pen sé</w>
g rés</w>
canadi en</w>
ex ception</w>
ru es</w>
an ds</w>
ta r</w>
chris ti
th om
affir mé</w>
v endre</w>
rencontr er</w>
mu tu
vi tés</w>
oblig ation</w>
no tes</w>
prom is</w>
appli ca
difficul té</w>
re cette</w>
mon tagne</w>
desti né</w>
équi val
s can
re joindre</w>
conséqu ent</w>
constru it</w>
e té</w>
han dica
tradi tion</w>
s co
chau d</w>
écou te</w>
rel ativement</w>
c eux
c n
qu ette</w>
br û
se i
innov ation</w>
introdu ction</w>
ber g</w>
re prises</w>
onn és</w>
extrê mement</w>
consul ter</w>
éri r</w>
8 5</w>
limi tes</w>
portu g
ent aux</w>
tom be</w>
hu mi
ran te</w>
appu y
p o</w>
mo dé
4 00</w>
m onn
ré ception</w>
mag az
sc ru
nation aux</w>
in car
prê ts</w>
vê tements</w>
ign or
scé nari
esti mé</w>
lég èrement</w>
di am
rem ise</w>
organis é</w>
cent aines</w>
procé dures</w>
199 7</w>
mon u
acc élé
mar tin</w>
ten te</w>
com préhen
ceux -ci</w>
cham ps</w>
rédu it</w>
compor tement</w>
ar bi
cré e</w>
8 ,
n oire</w>
el l</w>
pr o</w>
dr é</w>
ai m
dipl om
précé dent</w>
t .</w>
lu x
pr ess
r h
ter ran
possi bilités</w>
b aiss
dev ons</w>
terri tori
pré pa
franç aises</w>
contr airement</w>
s è
vi ce-
ef fort</w>
s ab
ma le</w>
s ouver
t est</w>
ac céder</w>
0 6</w>
dan i
tis me</w>
p è
lau rent</w>
met tent</w>
l u</w>
péd ag
vas te</w>
ex empl
des cription</w>
grou p
j oie</w>
acci dent</w>
gag n
ho spi
ad oles
ten ter</w>
ser ve</w>
affi cher</w>
ess ai</w>
men ace</w>
ru ption</w>
i ra</w>
char ges</w>
t v</w>
possi bles</w>
accor ds</w>
enten d</w>
met tant</w>
li br
particuli ère</w>
week- end</w>
phénom ène</w>
habitu de</w>
ad or
dis crimin
ô mes</w>
suffis amment</w>
remar qu
ci de</w>
c us</w>
gratui tement</w>
4 2</w>
adop té</w>
dé jeu
plan ète</w>
commerci al</w>
agri cole</w>
maladi es</w>
fer me
op portu
is tan</w>
go û
es t-il</w>
polici ers</w>
ré mu
h 30</w>
199 5</w>
aspec ts</w>
ai gn
ré par
dis ant</w>
fourn iss
v ation</w>
in dé
ap pris</w>
re .
étrang ères</w>
milli on</w>
exi gences</w>
pré al
respec ter</w>
partici pé</w>
em pire</w>
c ouv
financi ères</w>
feu illes</w>
cer tifi
bénéfici er</w>
vidé os</w>
déli v
él oign
ca d
facili ter</w>
mar c</w>
cli mat</w>
appare ils</w>
entre pren
ré public
bl anc
p ann
enf ance</w>
a trice</w>
privi légi
t wi
assur é</w>
ré ment</w>
0 2</w>
6 .
situ ations</w>
prom ouv
no ter</w>
can al</w>
qu ie</w>
o c</w>
er ez</w>
rivi ère</w>
in dem
visi ter</w>
concer t</w>
po lo
ver ser</w>
nuclé aire</w>
m ène</w>
adop tion</w>
sa c</w>
op tion</w>
établ i</w>
fac teurs</w>
dis pu
médec ins</w>
t z</w>
qu e-
donn ant</w>
dépu tés</w>
flu x</w>
so r</w>
secon des</w>
c ées</w>
commen taire</w>
is mes</w>
parten ariat</w>
dé fici
ing ton</w>
dét ec
ac k</w>
internation aux</w>
suiv antes</w>
m el
sign al</w>
w n</w>
ang le</w>
excel lent</w>
voi tures</w>
ch on</w>
s an</w>
journ aliste</w>
tu e</w>
déf endre</w>
meill eures</w>
vi de</w>
ro ï
w a</w>
pau v
plac é</w>
dem eu
b o</w>
ins pec
ét onn
cho col
rému né
contribu tion</w>
mo du
g in
indépend ance</w>
pour sui
journ alistes</w>
déjeu ner</w>
in con
restau rant</w>
men é</w>
asi e</w>
ai l
cabin et</w>
natur elle</w>
co s
accue illir</w>
électri cité</w>
pres tations</w>
bl es
rai sonn
a k</w>
isra éli
cul aire</w>
r eu
boî te</w>
vé cu</w>
dépu té</w>
v us</w>
offici el</w>
char d</w>
ci te</w>
au th
dis ent</w>
voi ent</w>
so y
ouver ts</w>
recommand ations</w>
m eurs</w>
199 6</w>
dé bi
bé bé</w>
é missions</w>
sim ples</w>
collecti f</w>
nor m
cr ème</w>
organis er</w>
terri toires</w>
royau me-
éner gé
migr ation</w>
sau ve
pâ te</w>
communi cations</w>
d ère</w>
par fu
inscri ption</w>
rési dence</w>
ne y</w>
plan i
gouvern emen
an dre</w>
fi ces</w>
ta bilité</w>
f aux</w>
ap porte</w>
bru it</w>
con sen
f actu
effecti vement</w>
tu er</w>
da me</w>
promouv oir</w>
k h
pl om
spéci fique</w>
m y</w>
diag no
chi en</w>
ran g</w>
rappel er</w>
pré vues</w>
is ée</w>
p i</w>
empl ac
litté rature</w>
mi r</w>
e di
oblig ations</w>
contr ats</w>
séri eux</w>
4 4</w>
correspon d
lec teur</w>
royau me</w>
véri fier</w>
au par
desti nation</w>
trans mission</w>
mon ta
mis si
royaume- uni</w>
l i</w>
ill age</w>
hon or
imp ôt</w>
z u
en ce
c ouverture</w>
di tes</w>
w at
trafi c</w>
all ant</w>
ac tionn
instru ments</w>
dou x</w>
épou se</w>
r -
pro fond
indivi dus</w>
ni ques</w>
s h</w>
trai ter</w>
fond ation</w>
cellu les</w>
de venue</w>
b asse</w>
uni tés</w>
étr oi
vo i</w>
plat e
gouvern ements</w>
envoy é</w>
cin qu
fau drait</w>
vou dr
ti s</w>
on i
vir tu
chang é</w>
ogi e</w>
ri s</w>
t euse</w>
m p
parti tion</w>
aupar avant</w>
ba y
pl antes</w>
ad di
bou te
fron tière</w>
épis ode</w>
b i</w>
v or
démocr atique</w>
expéri ences</w>
at mos
ch ers</w>
sil ence</w>
0 .
extrê me</w>
é preuve</w>
qua si
l ance</w>
k u
équip ements</w>
1 50</w>
entre -
re ts</w>
n t</w>
aut or
om e</w>
visi teurs</w>
n ez</w>
er ai</w>
l et</w>
v aiss
sta r</w>
an th
accessi ble</w>
d r</w>
potenti el</w>
bern ard</w>
sy sté
ac h</w>
l as
soulign é</w>
f ati
supplémen taire</w>
reç oit</w>
d al
con cr
2 5
a .</w>
com bat
peu ples</w>
j ol
li enne</w>
rés is
occu pe</w>
constitu ent</w>
con grès</w>
pro cu
rar es</w>
médicam ents</w>
diffé rent</w>
conserv er</w>
es thé
cy cl
dimen sion</w>
trou pes</w>
c av
opér ationn
gro sse</w>
représen tent</w>
cal end
catégori es</w>
w ar
p ain</w>
asi n</w>
b ris
e .</w>
4 3</w>
fond amen
réussi te</w>
inscri re</w>
nei ge</w>
ph éri
accep ter</w>
racon te</w>
ori ent</w>
mé ta
mar qué</w>
marchan dis
a pos</w>
pro tes
ré ellement</w>
fl eu
ab on
tabl ement</w>
éta ge</w>
libé ration</w>
studi o</w>
t atif</w>
situ e</w>
col om
pein ture</w>
au tri
performan ces</w>
porte- parole</w>
pa pe</w>
re f
pi ra
consul tation</w>
disponi bilité</w>
ran ces</w>
ob s
intermédi aire</w>
indi ca
affi che</w>
is sez</w>
s n
cri tiques</w>
grè ce</w>
mag asin</w>
identi fier</w>
fron tières</w>
ti se</w>
le ader</w>
conç u</w>
am bass
fan tas
form ations</w>
8 -
acqu isi
indispens able</w>
v i</w>
pau vres</w>
e k</w>
préc isé</w>
humani té</w>
ra re</w>
autoris ation</w>
mé té
représen tation</w>
é r
cl us</w>
cor ri
préci s</w>
lon gues</w>
class es</w>
f rapp
no ti
candi da
ré action</w>
mar iti
4 9</w>
liqui de</w>
aiss ent</w>
s mar
is tique</w>
tr ine</w>
exac tement</w>
co ordin
z ar
coll ège</w>
bour se</w>
catal ogue</w>
fac ul
gar di
0 8</w>
tr age</w>
inter nau
religi eux</w>
ave z-vous</w>
du c</w>
sy rie</w>
ser ez</w>
199 4</w>
ci ble</w>
précis ément</w>
les -
ba r</w>
prom en
con ven
in cen
adul tes</w>
ré col
chris t</w>
an g</w>
te aux</w>
prési dence</w>
off er
im meu
atten te</w>
ex ter
f action</w>
théori e</w>
struc tu
ou t</w>
lo ca
prim aire</w>
pren ez</w>
atten dant</w>
matéri aux</w>
can cer</w>
souven ir</w>
fi ée</w>
0 9</w>
me ts</w>
in ti
chau s
cr u</w>
qu ait</w>
a xe</w>
orien tation</w>
élabor ation</w>
cam é
es te</w>
ass ass
éch antill
ch et</w>
li é</w>
uti les</w>
tu é</w>
répon d</w>
acqu is</w>
ta xe</w>
po lé
lang age</w>
rem pl
p d
confor table</w>
cl u</w>
adap tation</w>
immobi lier</w>
trim estre</w>
4 1</w>
u r</w>
al ain</w>
dé fi
anni versaire</w>
éch é
off en
cli quez</w>
m ill
i m</w>
- -</w>
enregistr ement</w>
méri te</w>
présen tant</w>
a .
ab sol
nu l</w>
équip ement</w>
ch anti
nor mal</w>
m c
mar ch
champi on</w>
l â
ré com
fédé ral</w>
occupa tion</w>
0 7</w>
bure aux</w>
on ni
da y</w>
ai t-il</w>
ô les</w>
spéci aliste</w>
solid arité</w>
collecti vités</w>
é che
tes -
fonc tionne</w>
législ ation</w>
marse ille</w>
dé gra
mau ri
land ais</w>
en rich
r aine</w>
canadi ens</w>
proto cole</w>
8 9</w>
ca tas
po le</w>
architec ture</w>
val oris
dési r</w>
céré mon
s ante</w>
signi fic
ro ck</w>
bour ge
in tes</w>
ach et
dé gag
b ab
dossi ers</w>
ap por
a bilité</w>
enseign ants</w>
rég im
tourn ée</w>
9 2</w>
sal u
ar ron
vall ée</w>
is la
dé chets</w>
invi te</w>
r eur</w>
éta pes</w>
è que</w>
actu alité</w>
b oi
mi x
mess ages</w>
o v
im plan
ten us</w>
bibliothè que</w>
ro be</w>
correspon dant</w>
exprim er</w>
199 2</w>
m â
spi ritu
ju gement</w>
mat chs</w>
fin ir</w>
ren on
envis ag
s tre</w>
transi tion</w>
par lé</w>
mu rs</w>
aéro port</w>
dé co
mé d
rel atif</w>
entr et
p iste</w>
pi ques</w>
sign es</w>
trans fé
propri étaires</w>
in fo
garanti r</w>
ar bres</w>
annu el</w>
impres sionn
jé sus</w>
avi er</w>
déc en
hom mage</w>
paro les</w>
circonst ances</w>
7 .
réci t</w>
soci aliste</w>
diagno sti
mod alités</w>
partici pe</w>
féren ces</w>
décl en
mé tro
ca li
di ction</w>
pri orité</w>
cultu rel</w>
j a</w>
command er</w>
capi t
él ég
ch asse</w>
af p</w>
fran co
déc ès</w>
région ale</w>
intégr er</w>
bien -
par faite</w>
ba ses</w>
ti on
poi gn
compl é
pa tron</w>
in de</w>
minu te</w>
re tard</w>
produc teurs</w>
4 7</w>
sécu ris
lo isi
allem ande</w>
parten aire</w>
a qu
sec ours</w>
ci er</w>
c ann
ai mé</w>
per f
er ons</w>
capi taine</w>
h el
d an</w>
di vis
in croy
montr ent</w>
ch auss
œ il</w>
décri t</w>
déc ret</w>
spéci ale</w>
re por
ti ll
pétro le</w>
re connaître</w>
a bi
vie ille</w>
fi xe</w>
rel ève</w>
plu ie</w>
dis ait</w>
cl aire</w>
autom ne</w>
ad ore</w>
6 4</w>
ou x</w>
ré elle</w>
c â
s aisi
con ta
. com</w>
réalis ée</w>
chev al</w>
gag né</w>
199 3</w>
vie ill
a tes</w>
mi d
re fl
5 6</w>
poli ti
tri que</w>
all on
ma jeu
souri re</w>
rec en
s me</w>
ç ait</w>
ess ais</w>
5 2</w>
ta s</w>
b eur
li cen
chan sons</w>
évalu er</w>
sau ver</w>
om bre</w>
p ée</w>
dé ment</w>
j eter</w>
blanc s</w>
anim al</w>
réfugi és</w>
car bu
ri re</w>
agri coles</w>
perspecti ve</w>
occi den
coordin ation</w>
en jeux</w>
mar ke
n d</w>
consi dère</w>
initi atives</w>
vi ande</w>
enti ère</w>
men ée</w>
ob sta
institu tion</w>
inté gra
san i
prof il</w>
c y</w>
bar re</w>
log ements</w>
morce aux</w>
us ine</w>
histori ques</w>
bâti ments</w>
ab at
tâ che</w>
ne w
évi dence</w>
lis ation</w>
inter vie
iss ante</w>
souhai tez</w>
sem ents</w>
cal cul</w>
découv re</w>
201 8</w>
4 6</w>
tu be</w>
cré ée</w>
g eur</w>
org es</w>
amén agement</w>
travaill é</w>
n an
offici elle</w>
g ère</w>
d ins</w>
ch ette</w>
rem is</w>
b y
or donn
maîtr ise</w>
cr oit</w>
mou r</w>
ai des</w>
9 3</w>
atta ques</w>
on ze</w>
jo lie</w>
oi ent</w>
di ts</w>
eux- mêmes</w>
w ash
car di
fran cs</w>
contr e-
fichi er</w>
o sité</w>
tari at</w>
effectu é</w>
fa ç
ri ches</w>
j a
pauv reté</w>
discu ssion</w>
ita lien</w>
conn ais</w>
chi rur
ab outi
indi ce</w>
in no
pu issant</w>
profond eur</w>
ouv rages</w>
sal aire</w>
graph ie</w>
ar ran
médec ine</w>
pau vre</w>
s ter</w>
ti end
condu ire</w>
tri e</w>
dan se</w>
roy al</w>
f lui
mon tée</w>
automobi le</w>
b ains</w>
adap ter</w>
reven di
immen se</w>
pass ent</w>
mani pul
e v
marke ting</w>
è tre</w>
gu ill
vi vent</w>
pilo te</w>
no tion</w>
win do
bel ge</w>
éche c</w>
straté gique</w>
ac compli
v él
qu eur</w>
calend rier</w>
invi té</w>
am or
stoc k</w>
ap parition</w>
isi e</w>
mè tre</w>
install ations</w>
trans formation</w>
cri me</w>
publi cité</w>
pour suit</w>
n d
si fs</w>
occu per</w>
im poser</w>
ple inement</w>
ég yp
dé légu
re connaiss
favoris er</w>
8 8</w>
bu ll
hist oires</w>
o d
qu esti
th ou
ch t
sensi ble</w>
fichi ers</w>
ré sou
commiss aire</w>
légu mes</w>
dépl oy
pass ée</w>
délég ation</w>
ing rédi
c ois</w>
soli de</w>
tari fs</w>
r ati
trai te</w>
mi gran
re ine</w>
logi ci
si as
access oires</w>
g esti
k er
japon ais</w>
canadi enne</w>
cr oix</w>
chal eur
ar bre</w>
entret en
gro ss
voi es</w>
conf lits</w>
philosoph ie</w>
fé lici
dou ze</w>
inter dit</w>
tou lou
g nées</w>
ving t-
dé pos
di min
ol ogue</w>
i rs</w>
glob al</w>
cin qui
n as
ma r</w>
su sci
compa gne</w>
bou tique</w>
jui fs</w>
9 -
g rec
tem p
u p</w>
magaz ine</w>
pr e
thom as</w>
utilis ées</w>
veill er</w>
déf i</w>
apparti ent</w>
jau ne</w>
ra cin
ch ances</w>
l em
associ é</w>
algé rie</w>
déplac ement</w>
sup por
ag ue</w>
k g</w>
arab e</w>
5 1</w>
compéten ce</w>
ce au</w>
bra ss
glob ale</w>
ha m</w>
alli ance</w>
sac ri
g h</w>
or es</w>
7 2</w>
twi tter</w>
sou p
interpré tation</w>
voul ais</w>
ce voir</w>
al d</w>
i ons</w>
mo des</w>
mi ra
séri es</w>
diz aines</w>
lu tter</w>
pro c
ch es
musul mans</w>
mach ines</w>
emplac ement</w>
an dré</w>
è lement</w>
j ection</w>
re pris</w>
5 4</w>
l ag
6 00</w>
mon o
l o</w>
a- t-elle</w>
str as
dev ront</w>
fen être</w>
z é
ab sor
m o</w>
s eurs</w>
lég er</w>
exem ples</w>
bl eu
prési dente</w>
198 0</w>
wash ington</w>
pi t</w>
tur quie</w>
c eur</w>
fon dé</w>
recor d</w>
c f</w>
chocol at</w>
remplac er</w>
po sez</w>
im pose</w>
é norme</w>
re joint</w>
at lan
f c</w>
ab s
s avez</w>
discu ssions</w>
ra teurs</w>
dou leur</w>
environn emen
fonctionn aires</w>
o se</w>
plat eau</w>
mar oc</w>
collè gues</w>
proven ant</w>
fi ant</w>
5 7</w>
scénari o</w>
windo ws</w>
cultur elle</w>
op tions</w>
es t
f al
op tique</w>
artis tique</w>
fon dée</w>
manifes tations</w>
mi cha
5 8</w>
mag as
invi tés</w>
constitu é</w>
dé mon
desti née</w>
ét h
pro lon
rév èle</w>
pro cur
lanc ement</w>
l à-
amour eux</w>
entraîn ement</w>
renfor cement</w>
li ée</w>
for d</w>
pa tient</w>
personn els</w>
hô tes</w>
espagno l</w>
autonom ie</w>
199 1</w>
form é</w>
ph ones</w>
. la</w>
médi terran
vill ages</w>
e tre</w>
li aison</w>
g ements</w>
p is</w>
fr om
e e</w>
scul p
regar de</w>
alis ées</w>
s tes</w>
7 7</w>
re trait</w>
hen ri</w>
vél o</w>
économ ies</w>
allem ands</w>
appli que</w>
terroris me</w>
m 2</w>
mi t</w>
sé min
oblig atoire</w>
re vê
g el
gar çon</w>
es cl
has ard</w>
dou ce</w>
nég li
mécan isme</w>
tr ag
y ers</w>
pu issent</w>
dé bats</w>
organis ée</w>
li cence</w>
i c</w>
ri ques</w>
accompagn é</w>
tal ent</w>
serv i</w>
w h
ferme ture</w>
con que</w>
confir mé</w>
de gré</w>
vois ins</w>
è dent</w>
manifes tation</w>
w illi
a chats</w>
instru ment</w>
li eu
en ca
5 9</w>
po t</w>
bat eau</w>
6 8</w>
personn elle</w>
super be</w>
év ê
in age</w>
commerci ale</w>
e p
tes ts</w>
dom mage</w>
édi tions</w>
g end
atten du</w>
6 2</w>
cinqui ème</w>
conclu sion</w>
œu rs</w>
5 3</w>
qu alités</w>
ob ama</w>
sav ent</w>
li bres</w>
tour no
accompagn er</w>
char me</w>
s o</w>
d .</w>
s pati
l ai
sy l
th e
cour te</w>
o ss
qui tte</w>
chris to
ci a</w>
généra les</w>
posi tionn
proch aines</w>
conclu sions</w>
québé cois</w>
ver ti
i i
navi gation</w>
dépen d</w>
re tirer</w>
th èmes</w>
célé br
capa bles</w>
év èn
bor deaux</w>
plac er</w>
g an</w>
modifi cations</w>
au ssi
siè cles</w>
tr ente</w>
cl ar
mor ale</w>
mam an</w>
contr ac
dem i</w>
oi ts</w>
ca p</w>
col ère</w>
é prouv
he b
w hi
différen te</w>
développ é</w>
gu ère</w>
voy ant</w>
ri ez</w>
che -
e h</w>
or ange</w>
s ha
c d</w>
em e</w>
répon du</w>
8 .
automati quement</w>
quarti ers</w>
t onnes</w>
écou ter</w>
co lis</w>
migran ts</w>
a que</w>
min es</w>
engag er</w>
serv eur</w>
en velop
compos ée</w>
em per
crédi ts</w>
monn aie</w>
avan t-
ali ments</w>
pé né
acquisi tion</w>
k en
gi ques</w>
dé ta
favor able</w>
associ és</w>
stock age</w>
déc ro
dé faite</w>
sta bil
6 7</w>
dépar tem
uni vers
adap té</w>
diffici les</w>
s w
s core</w>
pres tation</w>
tiss u</w>
hu mour</w>
disposi tifs</w>
pla que</w>
sembl ait</w>
p en</w>
ex cu
t ais</w>
on s-
p -
y s</w>
gla ce</w>
archi ves</w>
pro long
f .</w>
vo cation</w>
s age</w>
comm andes</w>
e li
î les</w>
sta bilité</w>
ven ez</w>
f ans</w>
rencontr é</w>
alco ol</w>
accu sé</w>
atten tes</w>
danger eux</w>
install é</w>
eu il</w>
natur elles</w>
f ab
fou le</w>
je té</w>
imp ôts</w>
off rent</w>
adop ter</w>
es ca
tru mp</w>
ser vent</w>
laiss ant</w>
écar t</w>
n y</w>
specta teurs</w>
ri v
straté gies</w>
condam né</w>
fac es</w>
tourno i</w>
rou ges</w>
smar t
gi le</w>
nourri ture</w>
sign ature</w>
qu art</w>
man n</w>
quin ze</w>
excell ente</w>
c ts</w>
équip ée</w>
internau tes</w>
af gh
hési tez</w>
éle vée</w>
doc teur</w>
an to
secré tariat</w>
sep h</w>
mai rie</w>
appel er</w>
déclar ations</w>
sau v
e p</w>
lux em
l ées</w>
copi e</w>
pri vés</w>
précisi on</w>
espé rons</w>
jo seph</w>
contribu er</w>
9 .
in suffis
f li
off ert</w>
as pi
amén ag
naturel lement</w>
engag ements</w>
marchandis es</w>
anim ation</w>
la r</w>
mat ern
aux quels</w>
comm is</w>
cl e
cu ir</w>
souven irs</w>
pays age</w>
diz aine</w>
pe aux</w>
compréhen sion</w>
grav es</w>
h i</w>
ég ale</w>
lég ère</w>
par venir</w>
classi ques</w>
engag é</w>
f asse</w>
bl esse</w>
desti nés</w>
tou cher</w>
b ét
c aisse</w>
d .
sensi bil
sti mul
ly cée</w>
at titude</w>
région ales</w>
termin é</w>
s pon
9 4</w>
co ok
6 6</w>
limi ter</w>
ennem i</w>
dani el</w>
empê che</w>
brési l</w>
exam iner</w>
instru ction</w>
am iti
aperç u</w>
fix é</w>
réuni ons</w>
6 3</w>
réguli ère</w>
ca dres</w>
ni es</w>
el le-
h il
e- mail</w>
maj eur</w>
r in
g ê
responsa bilités</w>
év acu
d re
6 1</w>
augmen té</w>
v ait</w>
propri étés</w>
p il
te .
présen tent</w>
re trouvé</w>
dou che</w>
st ar
bl é</w>
err eurs</w>
ement aires</w>
mé tiers</w>
voudr ais</w>
trou bles</w>
clu bs</w>
n at
m l</w>
ob tient</w>
or th
8 6</w>
s ports</w>
précé dente</w>
patri ck</w>
7 8</w>
alimen taires</w>
9 1</w>
b et
i les</w>
du r
lec teurs</w>
investiss eurs</w>
gu é</w>
b an</w>
ca deau</w>
endr oits</w>
progres sion</w>
ré partition</w>
9 8</w>
com te</w>
in aire</w>
v il</w>
ch a</w>
famili ale</w>
lég en
inst au
communi quer</w>
réglemen tation</w>
9 6</w>
f êtes</w>
cou ples</w>
den is</w>
syndi cats</w>
i t
d j
bi ais</w>
aci er</w>
ra peu
rd v</w>
respecti vement</w>
gratu ite</w>
am ateurs</w>
on de</w>
consta té</w>
ven du</w>
vir us</w>
in fir
pi ers</w>
cel les
h 00</w>
quit té</w>
sc ènes</w>
f -
réalis és</w>
seu les</w>
offici ellement</w>
é ni
s lo
plas tique</w>
beur re</w>
énergé tique</w>
indivi du</w>
ill ez</w>
rempli r</w>
préci pi
8 7</w>
in verse</w>
limi tée</w>
ch eur</w>
x vi
thé rapi
8 00</w>
indé pendant</w>
auto cht
com posi
ai sons</w>
s ap
mi r
résou dre</w>
ti le</w>
nouv eau
ar genti
consta ter</w>
prend ra</w>
restau rants</w>
étudi er</w>
di a</w>
mar ge</w>
k in
s able</w>
an téri
an taine</w>
intéres se</w>
concern és</w>
o te</w>
g or
so ft</w>
for tes</w>
cuis son</w>
intitu lé</w>
entraîn eur</w>
thé rapeu
pay s-
cer cle</w>
dimen sions</w>
procé dés</w>
second aire</w>
é tique</w>
ma qu
bo x</w>
dép ôt</w>
t airement</w>
mari e-
cul tures</w>
ess eurs</w>
consac ré</w>
tradu it</w>
hom o
di er</w>
bill ets</w>
rou tes</w>
présen tée</w>
ra blement</w>
ten ance</w>
accep té</w>
men u</w>
tour né</w>
m en</w>
celles -ci</w>
acadé mie</w>
géni e</w>
di gi
ag u
spéci fi
ti es</w>
o eil</w>
probl é
pro pa
is sus</w>
ac cou
ges te</w>
p t
pré venir</w>
trai tés</w>
p istes</w>
réd action</w>
pour suite</w>
compar aison</w>
j or
l li
qui n</w>
mat hé
restau ration</w>
mag is
ri el</w>
ai gu
soi x
an te-
tâ ches</w>
scol aires</w>
logici els</w>
re tourner</w>
consom m
acc ent</w>
inféri eure</w>
fond ateur</w>
co ff
plate forme</w>
tr ont</w>
cri ti
si ll
- là</w>
édi teur</w>
. les</w>
ois eaux</w>
cou l
direc te</w>
u mp</w>
mou rir</w>
an ony
én on
chaus sures</w>
ir lande</w>
ira n</w>
g -
sou s
ten té</w>
élec teurs</w>
t ai
d î
labor atoire</w>
fru it</w>
hy per
fond am
révol uti
el ec
stand ard</w>
rel s</w>
per tur
a po
1 1
c aiss
ex tension</w>
satis faction</w>
accu mul
onn aires</w>
libé r
téléchar ger</w>
ri es</w>
ang e
fréqu ence</w>
7 1</w>
198 9</w>
mo tifs</w>
n oirs</w>
spéci alistes</w>
en a</w>
m ages</w>
char te</w>
voy ages</w>
li a</w>
oli vier</w>
su spec
municipa l</w>
des sin</w>
ingrédi ents</w>
soy ez</w>
collecti ve</w>
tru ction</w>
récupé rer</w>
pi e</w>
rich esse</w>
atlan tique</w>
re froi
to xi
al sa
tiss ement</w>
rem porté</w>
ag issait</w>
pu re</w>
ex ique</w>
s ations</w>
micha el</w>
cul ti
7 6</w>
ta teur</w>
différen ces</w>
all ég
bi o</w>
cou pa
or i</w>
origin ale</w>
mécan ismes</w>
infra structures</w>
o di
sorti es</w>
sta ge</w>
industri elle</w>
pouss er</w>
8 3</w>
rentr er</w>
fourni t</w>
matéri au</w>
en nu
ff e</w>
jam es</w>
amend ement</w>
d v
sou ci</w>
tran ge</w>
lu c</w>
jol i</w>
discrimin ation</w>
enregistr é</w>
catholi que</w>
cau ses</w>
si ble</w>
extra ordinaire</w>
sai d</w>
l ap
f ou</w>
pla ts</w>
ch ie</w>
l at
cérémon ie</w>
isla m</w>
vo ter</w>
déli ca
ron de</w>
gr ève</w>
ju gé</w>
r .
ra m
am pl
al iné
extr ait</w>
bas é</w>
j us</w>
ten ues</w>
s tique</w>
dél ais</w>
magas ins</w>
béné fice</w>
mer veill
ing s</w>
régl er</w>
mo tif</w>
équi pé</w>
8 2</w>
intéri eure</w>
gn on</w>
for t
s pa
2 50</w>
atmos phère</w>
organ es</w>
ré alise</w>
présen tes</w>
pé ni
inté gré</w>
légi ti
o p</w>
emper eur</w>
physi ques</w>
é pau
déc é
ins truc
progres sivement</w>
rend ement</w>
im pu
m ons</w>
ograph ie</w>
char gée</w>
av es</w>
er -
démo cra
pr ête</w>
ri chard</w>
rap proch
radi o
è se</w>
i v</w>
ta c
ru sses</w>
observ ations</w>
to talité</w>
inter venir</w>
b illet</w>
appro fon
ch ou
rup ture</w>
tru c</w>
préf ère</w>
ill é</w>
7 3</w>
p me</w>
cl ô
chim iques</w>
nor man
connu es</w>
cen tes</w>
subs titu
t ch</w>
sou tenu</w>
bou ton</w>
détermin ation</w>
u m
- à-
ra ff
ro bo
visi tes</w>
es sence</w>
per d</w>
per tes</w>
ég al</w>
navi g
observ er</w>
le vé</w>
viol ences</w>
pouv aient</w>
2 e</w>
anci ennes</w>
posi tif</w>
inféri eur</w>
contrô ler</w>
ar ra
veu illez</w>
em manuel</w>
trouv ait</w>
am ie</w>
bas sin</w>
fr au
fabri c
tu eux</w>
8 1</w>
ma tu
h él
ré nov
8 4</w>
b ec
concentr ation</w>
for ment</w>
l on</w>
efficac es</w>
génér aux</w>
qu oi
cou per</w>
péné tr
re pose</w>
an tique</w>
co tis
ge orges</w>
con clu</w>
on des</w>
aler te</w>
in sul
e conom
pays- bas</w>
no y
ar mées</w>
mac ron</w>
ré cep
aussi tôt</w>
atte inte</w>
fin it</w>
industri els</w>
en ter
fer mer</w>
5 0
cer veau</w>
th at</w>
confir me</w>
mi ques</w>
occu pé</w>
stras bourg</w>
bat terie</w>
al i</w>
exer cer</w>
9 7</w>
chauff age</w>
ré formes</w>
con vers
eng age</w>
é tern
bless és</w>
évolu er</w>
commerci ales</w>
am u
enqu ê
vol s</w>
ci vil</w>
ma s</w>
ten ait</w>
c oi
écriv ain</w>
syndi cat</w>
extré mité</w>
au d</w>
an es</w>
b onn
considé rer</w>
ennem is</w>
6 9</w>
constitu er</w>
mé tal</w>
mu r
audi ence</w>
se c</w>
dev aient</w>
électri ques</w>
adhé sion</w>
re pos</w>
ali er</w>
voy ez</w>
is ab
télé phon
7 4</w>
phra se</w>
phar ma
conten us</w>
re prend</w>
blo c</w>
cli ent
ga z
t w
com bats</w>
dispar u</w>
christi an</w>
professionn elles</w>
gag ne</w>
man agement</w>
perspecti ves</w>
nomin ation</w>
am us
e ût</w>
cho c</w>
ref us</w>
exper tise</w>
évi dent</w>
mon étaire</w>
austr alie</w>
pu r</w>
en thou
pi n</w>
ad joint</w>
éle vés</w>
personn alité</w>
sté ph
configu ration</w>
autonom e</w>
préfé ré</w>
procé der</w>
re voir</w>
imag iner</w>
cri mes</w>
rè gl
al u
nouv elle-
g ènes</w>
contin ent</w>
monta gnes</w>
prot ec
enthou sias
refu se</w>
le ad
préal able</w>
arrê te</w>
re tourn
em ball
plain te</w>
prob able</w>
départem en
and a</w>
d ge</w>
gen er
de viennent</w>
mo bilité</w>
élec tro
fac teur</w>
tari f</w>
trai tements</w>
par ts</w>
réussi r</w>
men su
bi n</w>
s aisir</w>
sé v
améric aines</w>
résu mé</w>
jour nées</w>
im migration</w>
seu il</w>
ori taire</w>
sal aires</w>
scru tin</w>
déci der</w>
e a</w>
convain cre</w>
passi onn
dis cr
c g
publi ée</w>
observ ation</w>
fi és</w>
b one</w>
tri b
industri el</w>
termin e</w>
ten tative</w>
d d
exper t</w>
di t-il</w>
l oire</w>
pé r
appro visi
cul te</w>
per pé
bai gn
sin gu
banc aire</w>
considé rée</w>
he im</w>
ré jou
com i
s pe
bu sin
financ er</w>
conduc teur</w>
ci- dessus</w>
r .</w>
diagnosti c</w>
ép aiss
port ail</w>
fédé rale</w>
ô ne</w>
édu c
t atives</w>
autom atique</w>
toulou se</w>
la s</w>
référen ces</w>
péri odes</w>
spéci alement</w>
ch at
res sort</w>
avanc er</w>
ran i
identi fication</w>
mon tage</w>
cor ruption</w>
aci de</w>
ad versaire</w>
198 8</w>
sch é
ap ple</w>
po isson</w>
emen taire</w>
val oir</w>
communaut aires</w>
desc end
con forme</w>
trans former</w>
info s</w>
sé ment</w>
cu ire</w>
bull e
cam ar
rè gne</w>
profon de</w>
fai bles</w>
amiti é</w>
mi cr
exécu tif</w>
w e</w>
étudi ant</w>
cook ies</w>
refu sé</w>
ru bri
f rai
suc cessi
propos és</w>
ver sé</w>
den tes</w>
vég ét
inté g
som maire</w>
c entre-
défi s</w>
milli ard</w>
fréqu en
conserv ation</w>
197 0</w>
mo des
fam eux</w>
pr esti
four ni</w>
ap prend</w>
inter diction</w>
bal le</w>
t eux</w>
inter ventions</w>
dis parition</w>
bas ée</w>
an ie</w>
la té
al titude</w>
ce in
po issons</w>
vag ue</w>
ri ons</w>
heur euse</w>
commerci aux</w>
in augu
el d</w>
des truction</w>
com bu
discu ter</w>
accompagn ement</w>
at om
program mation</w>
mal ade</w>
appu yer</w>
doig ts</w>
ré cente</w>
si s</w>
s œur</w>
discipl ine</w>
trac es</w>
inter face</w>
morce au</w>
ol é
é trange</w>
pi b</w>
ni ce</w>
my th
par king</w>
ch i</w>
som me
gen ève</w>
décl are</w>
oubli é</w>
travaill ent</w>
étoi les</w>
médi cal</w>
r ard</w>
2 4
sy ri
é cr
vin cent</w>
7 9</w>
sén at</w>
symbo le</w>
candida ture</w>
j al
sain te-
tabl eaux</w>
ques -
rentr ée</w>
ai mer</w>
con qu
al ph
re commande</w>
para mètres</w>
cu e</w>
pul sion</w>
ver ts</w>
administr atif</w>
compagni es</w>
tol é
ta g
e- t-il</w>
décor ation</w>
toi le</w>
fort une</w>
tend ances</w>
accue ille</w>
préc iser</w>
vi er
chi ens</w>
et h</w>
polo gne</w>
fidè le</w>
pour cen
investi r</w>
impli que</w>
rappel é</w>
propos ées</w>
g el</w>
commer ces</w>
contr adi
rel atifs</w>
toi l
cri t</w>
res tri
li on</w>
in i</w>
mag né
équival ent</w>
rar ement</w>
nu tri
mili tants</w>
tr embl
res semble</w>
é tions</w>
paci fique</w>
senti ments</w>
poé sie</w>
gri s</w>
3 e</w>
f ine</w>
précisi ons</w>
pier res</w>
net tement</w>
phar mac
or dres</w>
c age</w>
som bre</w>
civi ls</w>
h ec
ali gn
im péri
essay é</w>
por trait</w>
ache té</w>
analy ses</w>
réalis ateur</w>
cro is
as te</w>
ni tés</w>
w ay</w>
ro u</w>
sec rets</w>
dé poser</w>
naturel s</w>
arab es</w>
bien- être</w>
mét alli
ass ist
chev aux</w>
po che</w>
fl exi
éventu ellement</w>
remar que</w>
g ez</w>
ec s</w>
ai dera</w>
y og
super fici
défici t</w>
provin ci
dipl ôme</w>
considé rant</w>
cour rier</w>
employ é</w>
on tari
s en</w>
thérapi e</w>
transpar ence</w>
chem ins</w>
n is
l une</w>
anti ci
ha ï
consta te</w>
pa st
inter ven
ver sement</w>
supprim er</w>
s ter
ci ty</w>
wi th</w>
parall èle</w>
pl ages</w>
ber lin</w>
portug al</w>
ogi ques</w>
ampl eur</w>
men tion</w>
définiti vement</w>
forê ts</w>
né r
procur eur</w>
ri t</w>
ma x</w>
pou sse</w>
onni ers</w>
présen tés</w>
bran che</w>
in ser
ti ré</w>
té lé</w>
islam ique</w>
exist ent</w>
chré tiens</w>
universi taire</w>
collec te</w>
sou l
o ï
ol s</w>
cor ée</w>
ai s
sui vent</w>
norm alement</w>
hau ts</w>
so vi
prof ession</w>
tan ément</w>
al l</w>
vis -à-
fil tr
qu ettes</w>
pou dre</w>
génér ations</w>
b ation</w>
lu xe</w>
ra n</w>
v esti
chan teur</w>
ence inte</w>
- je</w>
fin ance</w>
vis-à- vis</w>
universi tés</w>
plani fication</w>
b .</w>
fu ite</w>
s p
d t</w>
tra ce</w>
m essi
mad ri
contrain tes</w>
tr em
recru tement</w>
autocht ones</w>
con ju
sei gne</w>
suc c
citoy en</w>
titu laire</w>
souff le</w>
rele ver</w>
afric aine</w>
man qu
majeu re</w>
t onn
m exique</w>
moder nes</w>
du m</w>
connaiss ent</w>
incroy able</w>
l l</w>
en va
mécan ique</w>
législ atives</w>
to s</w>
tes ter</w>
son dage</w>
sa chant</w>
utilis ent</w>
ambass ad
juridi ques</w>
1 20</w>
n isation</w>
municipa lité</w>
sai sons</w>
sou d
limi té</w>
té m
j az
propos ons</w>
compa tible</w>
th é</w>
con férences</w>
gra s</w>
tem ple</w>
journ aux</w>
appréci é</w>
répu tation</w>
annu elle</w>
compar er</w>
mon d</w>
aliné a</w>
se z-vous</w>
in corpor
hy dra
ai ment</w>
jar dins</w>
ten sions</w>
el e
hé li
sin c
n es
con so
re connaît</w>
es pri
inst ance</w>
budg étaire</w>
ju ges</w>
administr ative</w>
198 6</w>
mobil isation</w>
sexu elle</w>
sol lici
satis faire</w>
syn thèse</w>
o ts</w>
z aine</w>
quasi ment</w>
ita lienne</w>
re au</w>
reu ters</w>
termin er</w>
cultur elles</w>
1 000</w>
fer mé</w>
bless é</w>
si er</w>
ball on</w>
mon te</w>
aimer ais</w>
souhai tent</w>
personn elles</w>
gar s</w>
cl er
heb dom
prom et
titu des</w>
au tre
g î
rap porte</w>
t aill
s avait</w>
ke y</w>
oeu vres</w>
popul aires</w>
profon dément</w>
re j
posi tive</w>
pri orités</w>
parl ementaire</w>
cu re</w>
e gl
luxem bourg</w>
pren ait</w>
for ma
tou ché</w>
li ation</w>
hebdom ad
busin ess</w>
app els</w>
encoura ger</w>
ge orge</w>
direc trice</w>
lis se</w>
sanc tions</w>
co stu
échapp er</w>
augmen te</w>
sain te</w>
si ves</w>
t s.
sol o</w>
ver sions</w>
rou l
p ôle</w>
cour ses</w>
fu ture</w>
l ing</w>
3 d</w>
océ an</w>
dis poser</w>
f leur</w>
3 0
v o</w>
dis tri
as i</w>
dévelop pe</w>
g ers</w>
sé ances</w>
ob é
my st
incen die</w>
enqu êtes</w>
fer ont</w>
trans mettre</w>
car bone</w>
dess ins</w>
aff ai
au me</w>
suscep tibles</w>
influ en
indica teurs</w>
nécess airement</w>
re pé
di ab
é man
collec tionn
ch ère</w>
tra î
at tirer</w>
modu le</w>
chau de</w>
chanti er</w>
c ouvert</w>
préserv er</w>
re group
mo ham
extéri eure</w>
hou se</w>
ill ement</w>
pré férence</w>
t z
immeu ble</w>
ca che</w>
hypo thèse</w>
off rant</w>
int è
cam er
champi ons</w>
ét al
ci bl
è che</w>
loisi rs</w>
t ail</w>
simil aires</w>
su prê
affi chage</w>
lin gu
è vre</w>
ac compl
ins is
inter pr
dé fil
anto ine</w>
micro -
perman ente</w>
198 7</w>
dé sol
pa ul
sym pa</w>
na z
ai tre</w>
e vi
nor male</w>
in clus</w>
idé ale</w>
cali for
employ eur</w>
pri vées</w>
b c</w>
dé ç
perman ent</w>
exempl aires</w>
déli bé
bou le
isi n</w>
té moins</w>
rembour sement</w>
ag ences</w>
évo que</w>
pré voir</w>
ving taine</w>
autri che</w>
pens ées</w>
tax es</w>
ti t</w>
am pli
p aire</w>
accep te</w>
. -
exclu sivement</w>
y a
pen sent</w>
sou tient</w>
mon i
appel ée</w>
vis ée</w>
mo teurs</w>
k in</w>
com battre</w>
fourniss eurs</w>
lo cu
ab ri</w>
religi euse</w>
du quel</w>
k a
u sa</w>
déplac er</w>
e y
arri vent</w>
terr ains</w>
sub i</w>
infir mi
alex andre</w>
arron dissement</w>
ré tro
jus qu</w>
accessi bles</w>
se -
t ain</w>
sign er</w>
jam bes</w>
pollu tion</w>
dr ement</w>
tradi tionnelle</w>
com prennent</w>
7 00</w>
ur ban
pays ages</w>
terroris tes</w>
esti m
k an
re tar
préci eux</w>
d ale</w>
ac compagne</w>
p ères</w>
c ouvrir</w>
réser ves</w>
région aux</w>
assis ter</w>
organ ise</w>
tr iste</w>
fall u</w>
eri c</w>
è vement</w>
oc tro
écri te</w>
co ali
can ton</w>
oi r-
onn ements</w>
fan t
accro ître</w>
rémuné ration</w>
cor de</w>
in tri
co l</w>
pass és</w>
acqu érir</w>
en ne
t oit</w>
mariti me</w>
dé posé</w>
vi ve</w>
bi s</w>
ira k</w>
christo phe</w>
vis é</w>
indépend ante</w>
exerci ces</w>
g .</w>
e ant</w>
fis cale</w>
inter rom
rap porteur</w>
t en</w>
inform er</w>
em bau
client èle</w>
gar çons</w>
do se</w>
émo tion</w>
réfléch ir</w>
pati ence</w>
ru g
p end
publi ci
ss ent</w>
pri v
mesu rer</w>
péri phéri
ac trice</w>
quotidi enne</w>
médi cale</w>
mi t
tar es</w>
fer ait</w>
dou ceur</w>
cou tu
ra ce</w>
tin s</w>
tré sor</w>
cir cons
g y
por tés</w>
la ï
vo isin</w>
tron om
lo cations</w>
g i</w>
diri gé</w>
compl exes</w>
voul ons</w>
er ry</w>
auto -
pru dence</w>
parisi en</w>
di es</w>
continu ent</w>
publi cations</w>
cer ti
élector ale</w>
v ap
pass agers</w>
préf ec
er aient</w>
nécessi te</w>
ag issant</w>
gardi en</w>
b oire</w>
autre fois</w>
dipl ô
tr ap
gé n
b al</w>
gr avi
mas ter</w>
horiz on</w>
épis odes</w>
gour man
atta quer</w>
pl ante</w>
li ve</w>
arti cul
re cul
v en</w>
h .</w>
on -
e qui
propos ent</w>
mai l
tempé ra
ju ry</w>
atten dent</w>
ph il
terri ble</w>
to m</w>
my stéri
littér aire</w>
di x-
élimin er</w>
don ald</w>
g om
sor tes</w>
ur bain</w>
mili eux</w>
ar ché
correc tement</w>
gi r</w>
trouv ez</w>
di gne</w>
long s</w>
éth ique</w>
domin ique</w>
remplac ement</w>
administr atives</w>
mem e</w>
dé du
tis te</w>
iss er</w>
accor der</w>
pen sion</w>
dv d</w>
in sé
n eau</w>
a sion</w>
déco r</w>
souri s</w>
ra jou
dé bou
envir ons</w>
coor données</w>
qu at
musi ciens</w>
fu n
serv ant</w>
bru t</w>
su ède</w>
thè ses</w>
fré déri
adap tée</w>
at tes
vin t</w>
actu elles</w>
y o
campa gnes</w>
laiss ez</w>
sec ou
desti nées</w>
ou te</w>
tr ons</w>
ap paraître</w>
m ères</w>
recommand é</w>
modi fié</w>
ec tionn
contribu é</w>
pourcen tage</w>
suprê me</w>
d aient</w>
n ement</w>
c ag
pou ssi
tr ou</w>
guill aume</w>
sû rement</w>
ré vision</w>
somme il</w>
indi quer</w>
aux quelles</w>
obli gé</w>
pro jec
mos cou</w>
provis oire</w>
compos és</w>
cellu le</w>
con sécu
contribu tions</w>
gouvern ance</w>
aut o</w>
y ves</w>
par en
lè vres</w>
men ées</w>
excell ence</w>
fo yer</w>
statis tique</w>
in és</w>
al le</w>
produc teur</w>
ess aie</w>
cou ches</w>
lis tes</w>
mon té</w>
entou rs</w>
vain queur</w>
rés ist
ex ag
voi le</w>
pro fond</w>
res té</w>
espri ts</w>
ré pli
str ation</w>
h e</w>
m n</w>
de m</w>
actu els</w>
jou ent</w>
agri cul
véri fication</w>
visi bles</w>
meur tre</w>
soup ç
res tera</w>
adul te</w>
yog a</w>
aven ue</w>
com té</w>
entraî ne</w>
ar ro
co qu
témoign age</w>
do té</w>
dé pit</w>
al entours</w>
â gé</w>
chap elle</w>
inter pel
mé tro</w>
remplac é</w>
voy ait</w>
bom bar
pl eu
com pose</w>
hô te</w>
pré vus</w>
hau t-
di um</w>
avo cats</w>
espé rer</w>
bat tu</w>
rend ent</w>
inter nes</w>
por tait</w>
graph iques</w>
egl ise</w>
ar y</w>
en voi</w>
am eri
véri fi
britan niques</w>
ven ues</w>
198 5</w>
sol aire</w>
crip tions</w>
d au
st al
cer titude</w>
res se</w>
ver a</w>
excep tionnel</w>
k y</w>
ho sti
intervie w</w>
complé ter</w>
v .</w>
b ine</w>
d h</w>
fidè les</w>
x x
mén ages</w>
re pos
fais aient</w>
particu les</w>
lanc ée</w>
dom mages</w>
viv ants</w>
enf er
ouv riers</w>
déc al
. -</w>
y '</w>
éten due</w>
k at
remarqu able</w>
lè vement</w>
déten tion</w>
adres ser</w>
. fr</w>
médi a</w>
gé ant</w>
coali tion</w>
vice- président</w>
sup pression</w>
dra me</w>
ot ta
effectu e</w>
h â
sur pris</w>
exi ons</w>
str ess</w>
gro sses</w>
fix er</w>
recu l</w>
d ants</w>
subst ances</w>
rat ta
vol et</w>
personn ellement</w>
spor tif</w>
u res</w>
pos t</w>
as tu
au t</w>
prati quement</w>
appréci er</w>
pen sez</w>
occupa tions</w>
ar m
sélectionn er</w>
élimin ation</w>
g on</w>
débi t</w>
t c</w>
c el</w>
an al
ol og
sépar ation</w>
em ar
gran de-
dimin ution</w>
co té</w>
expédi é</w>
bo s
recev rez</w>
c él
r t</w>
ch ants</w>
bénéfici e</w>
com portant</w>
esthé tique</w>
me c</w>
provin ces</w>
éch ou
an ten
r hô
n aux</w>
représen ter</w>
vul né
aven tures</w>
t el</w>
a tures</w>
sta ble</w>
we b
cr eu
en seigne</w>
tro phe</w>
ang lo
numé riques</w>
étrang ère</w>
auth enti
ge ait</w>
in utile</w>
angl aise</w>
2 2
habi tat</w>
intéres sé</w>
réalis ées</w>
liber tés</w>
navi re</w>
adap tés</w>
f illon</w>
c end
fi ction</w>
entraî ner</w>
regis tre</w>
in fl
suspen sion</w>
sen ti</w>
gouvern eur</w>
exter ne</w>
vil la</w>
da tes</w>
démar ches</w>
négoci ation</w>
camé ra</w>
ch el
av eu
siè ges</w>
g ab
frap pe</w>
gu y</w>
lin ge</w>
a de
ol ogues</w>
dé ro
ci ter</w>
ti tion</w>
convi vi
poss ession</w>
de dans</w>
musi cale</w>
incon tourn
lo ok</w>
navi res</w>
requ is</w>
qu asi</w>
st ations</w>
da m</w>
clo s</w>
rel ais</w>
éri e</w>
ex pan
gl oire</w>
p neu
gar age</w>
lon gu
ca deaux</w>
coi ff
habi tation</w>
maî tres</w>
ra y</w>
tém oin</w>
re dou
h aine</w>
i v
ter res
atten tats</w>
comédi e</w>
légen de</w>
réserv é</w>
futu rs</w>
proch ains</w>
éclai rage</w>
micro soft</w>
le vée</w>
mass ac
vari été</w>
ang es</w>
détermin ée</w>
garanti es</w>
pom mes</w>
béné fices</w>
all é</w>
g les</w>
dét ection</w>
personn alités</w>
mu s
inten sité</w>
écri ts</w>
ren voy
l .
otta wa</w>
opé rateurs</w>
ren te</w>
rec y
sau ce</w>
ca teur</w>
tri om
s emi-
as cen
pré visions</w>
al s</w>
bap ti
ta bli
res pi
concer ts</w>
av é
s p</w>
par u</w>
j .</w>
de x</w>
licen ci
sa ou
lour d</w>
la -
organ e</w>
gal erie</w>
formul aire</w>
li ères</w>
afric ains</w>
mor al</w>
prépa re</w>
sensi bles</w>
wo od</w>
po w
n ette</w>
eur -
révél é</w>
d ing</w>
colon i
diam ètre</w>
madri d</w>
documen taire</w>
géograph ique</w>
publi és</w>
clin ique</w>
s mi
ir ré
pouss é</w>
ap porté</w>
f ût</w>
g lu
av or
remar quer</w>
d eurs</w>
conseill ers</w>
pu n
en contre</w>
proven ance</w>
béné vo
re d</w>
al pes</w>
as h</w>
trouver a</w>
re bon
ét e
fac ture</w>
propor tion</w>
décen nies</w>
mén age</w>
vi ta
cein ture</w>
compos ants</w>
cent aine</w>
e c</w>
roy ale</w>
combin aison</w>
ch il
c enti
ar th
rê ves</w>
analy ser</w>
cr is
par quet</w>
s avons</w>
ter ies</w>
cru ci
den ces</w>
ti re</w>
mété o</w>
nuclé aires</w>
mis sionn
mas sif</w>
profi te</w>
ex posé</w>
dépar tements</w>
avou e</w>
a p</w>
gl omé
a o</w>
d ance</w>
alli és</w>
chaî nes</w>
en jeu</w>
ta bac</w>
cou n
affron ter</w>
ver ra</w>
sav oir-
vers aires</w>
dérou le</w>
ag ran
anc er</w>
pour suivi</w>
uk raine</w>
ver te</w>
quali fication</w>
m eur</w>
ati vité</w>
iss u</w>
gu eu
ab us</w>
appar ence</w>
retrouv ez</w>
émo tions</w>
pa p
s et</w>
cons is
vi vement</w>
humani taire</w>
donn és</w>
th er</w>
é puis
inscri ts</w>
sau vage</w>
command ant</w>
pla y</w>
frédéri c</w>
fleu ve</w>
cultu rels</w>
appar tenant</w>
ré actions</w>
198 4</w>
second aires</w>
en voie</w>
électron iques</w>
hi é
ordonn ance</w>
inspi ration</w>
applica bles</w>
médicam ent</w>
rapp el</w>
y e
prof esseurs</w>
dé passe</w>
perman ence</w>
habitu ellement</w>
certifi cat</w>
pau se</w>
tom e</w>
si xième</w>
ar a
s paci
nettoy age</w>
dro gue</w>
mauri ce</w>
v es
ca ther
spéci ales</w>
di gni
te z-
indépend ants</w>
débu ts</w>
né er
vé ni
men tale</w>
i on</w>
in clin
demand ent</w>
dé passer</w>
re qué
m r</w>
man ie</w>
ci des</w>
inser tion</w>
ambi tion</w>
chirur gi
pay é</w>
considé rable</w>
cli matique</w>
menac es</w>
z y
iss age</w>
sympath ique</w>
propos ée</w>
dem ents</w>
subst ance</w>
su n
fémin in</w>
pri ère</w>
tionn ellement</w>
indi rec
po lon
fai m</w>
wor ld</w>
publi er</w>
commen cent</w>
en tam
â gées</w>
cour riel</w>
ca thé
pein tre</w>
pres sions</w>
fix ation</w>
opportu nité</w>
inspi ré</w>
mar oc
i b
sug gé
r ôles</w>
p eter</w>
ré chauff
en ta
sex y</w>
i quement</w>
n antes</w>
form ant</w>
réserv ation</w>
la dite</w>
mal ades</w>
ti ème</w>
sui vie</w>
per su
répar ation</w>
eff on
sup pose</w>
san tes</w>
er .
ontari o</w>
qu e.
s and
envis ager</w>
bi r
exi ge</w>
ir ri
témoign ages</w>
ton i
régim es</w>
fau t-il</w>
justi fier</w>
é preuves</w>
por teurs</w>
ab u
ras sur
1, 5</w>
ven ti
stre et</w>
excep tionnelle</w>
fai sons</w>
po p</w>
in ég
franch ement</w>
rem porte</w>
olym pique</w>
vic tori
an i</w>
desti n</w>
far ine</w>
para dis</w>
enten te</w>
arti fici
co des</w>
jeu x
is ées</w>
é nor
pilo tes</w>
ore illes</w>
conta min
sym pt
me d</w>
détermin é</w>
ban des</w>
19 60</w>
tradi tionnel</w>
techn ologique</w>
ou l</w>
appu ie</w>
té ro
const ante</w>
res tre
st on</w>
l aires</w>
touris tes</w>
ca de</w>
du o</w>
assi s</w>
commun s</w>
ajou tez</w>
ul téri
class é</w>
m g</w>
imag ine</w>
fo is
d ji
jo li
cl ou
st ati
ch ante</w>
ti eux</w>
v et</w>
utilis ez</w>
parti sans</w>
cou cher</w>
jus que</w>
ci euse</w>
qu ets</w>
ch ons</w>
pas cal</w>
volon taire</w>
cour onne</w>
éten d</w>
f n</w>
mar cher</w>
imagin ation</w>
spéci alisée</w>
lo ts</w>
char ger</w>
contrô les</w>
char gés</w>
cather ine</w>
or ch
froi de</w>
ser ai</w>
explor er</w>
chois issez</w>
ré pan
eff ac
vég éta
héber gement</w>
complémen taires</w>
publi e</w>
uni ver
inf o</w>
orig ines</w>
de grés</w>
com pens
dé tr
w c</w>
ann a</w>
consomm ateur</w>
austr ali
produc tions</w>
joh n
hu r
pré -
v as</w>
rec ouv
expli cation</w>
photograph ie</w>
ap pl
chron ique</w>
im i
fai ll
contribu e</w>
simil aire</w>
arti san
constru ite</w>
empr e
quali fié</w>
re dres
r eux</w>
moi -même</w>
min i</w>
dr ôle</w>
guer res</w>
prouv er</w>
illi s</w>
effecti f</w>
hau tes</w>
précé dents</w>
g ain</w>
rédu ite</w>
t êtes</w>
ser ais</w>
car d</w>
con version</w>
pass ées</w>
raisonn able</w>
ti ge</w>
appar emment</w>
mo to</w>
li lle</w>
in fin
olym piques</w>
assu rances</w>
psy chi
com prends</w>
tor on
donn era</w>
dol lar</w>
ju ger</w>
am az
bou lot</w>
res tant</w>
mélang er</w>
si da</w>
m .
gi n</w>
ré unis</w>
pon ctu
ca ble</w>
ar c</w>
bleu s</w>
ch ait</w>
enregistr er</w>
applica ble</w>
des cen
pos ée</w>
établi e</w>
appar aissent</w>
accueill i</w>
v ain</w>
cor é
préf et</w>
pare il</w>
essenti elle</w>
maxim ale</w>
pla ît</w>
afgh an
i phone</w>
fondam entaux</w>
mobi les</w>
flui de</w>
dédi é</w>
mat ches</w>
nom mée</w>
g r</w>
b ad
mont pel
or y</w>
vis uel</w>
régu l
b ob
dé gâ
. vous</w>
rom ans</w>
urb aine</w>
ul time</w>
orch estre</w>
consul tations</w>
audi o</w>
ch en
vic toires</w>
par lent</w>
initi ale</w>
oi vent</w>
quel conque</w>
por te
inten se</w>
f ê
com positions</w>
pa cte</w>
facul té</w>
bi zar
conclu re</w>
ingéni eur</w>
expres s</w>
ti c</w>
affir mer</w>
religi euses</w>
prépar é</w>
se ine</w>
im pér
écol ogique</w>
vol er</w>
fran c
confi denti
f oc
rubri que</w>
expor tations</w>
cô tes</w>
bi jou
doig t</w>
ore ille</w>
offici er</w>
ag en
parti cul
papi ers</w>
détru ire</w>
pla fond</w>
tis sus</w>
considé ration</w>
jaz z</w>
f auss
fen êtres</w>
recommand ation</w>
recher cher</w>
introdu it</w>
coupa ble</w>
gre c</w>
altern ative</w>
all en
effecti fs</w>
ai rs</w>
al é
minis téri
or iste</w>
adop tée</w>
évê que</w>
for esti
t- elles</w>
rac cor
ê me</w>
rele vé</w>
hé roï
hum eur</w>
ang o
bi ologique</w>
situ és</w>
gross esse</w>
mén ag
bar cel
ro y</w>
confor mité</w>
ran donnée</w>
pharmac eu
from age</w>
pa pa</w>
palestini ens</w>
tranqu ille</w>
min eurs</w>
c aire</w>
compor tements</w>
res titu
convain cu</w>
cré ations</w>
fonctionn er</w>
ll er</w>
pann eaux</w>
inf ec
dé chi
savoir- faire</w>
volon taires</w>
confi é</w>
op posé</w>
obsta cles</w>
â mes</w>
moy en-
déplac ements</w>
t va</w>
po ète</w>
essi ons</w>
re production</w>
fis cal</w>
gouvernemen tales</w>
res sembl
dis ques</w>
ther mique</w>
afghan istan</w>
bles sures</w>
dam es</w>
gri lle</w>
all er
u p
alsa ce</w>
. pour</w>
f an</w>
hy gi
absol ue</w>
pan or
sen sation</w>
di eux</w>
confir mer</w>
spéci alisé</w>
no té</w>
sign aux</w>
sû re</w>
stri c
épaiss eur</w>
ré sol
k ou
famili al</w>
el y
élabor er</w>
ons- nous</w>
associ ée</w>
bac téri
demand ant</w>
ra lité</w>
conse ille</w>
quel ques-
boute ille</w>
o do
vo té</w>
dî ner</w>
oubli ez</w>
collabor ateurs</w>
r ois</w>
origin aire</w>
inter vient</w>
zé ro</w>
ne ws</w>
ju ris
ri z</w>
k ur
c p</w>
ex cessi
dess in
hebdomad aire</w>
c f
proven ce</w>
con vo
sud- est</w>
e du
ag i</w>
particuli ères</w>
ré fri
consac rée</w>
w as</w>
ti el</w>
tr i</w>
198 2</w>
chim ique</w>
shi p</w>
rom ain</w>
consci ent</w>
st -
l r</w>
le dit</w>
méd aille</w>
col onne</w>
liv ré</w>
par vient</w>
compl ex
su bli
pa k
fro m</w>
étoi le</w>
d c</w>
qu er
sor tant</w>
ad o</w>
sol s</w>
bien venue</w>
b ê
té nu
lu e</w>
ma y
fi dé
lar geur</w>
s él
por table</w>
ta pis</w>
en vies</w>
k m
pour rais</w>
ar res
pi c</w>
micr o</w>
and re
ch air</w>
an ti</w>
tomb é</w>
sembl able</w>
parl ant</w>
pro po
z e
g ents</w>
pris onniers</w>
hié rar
manifes tants</w>
trouv é
jac k</w>
cor se</w>
n -
bl ack</w>
in sur
ograph ique</w>
f eux</w>
ch or
albu ms</w>
stéph ane</w>
s c</w>
eg yp
annon cer</w>
h an</w>
h auss
pom piers</w>
car ol
s k</w>
explo sion</w>
ag glomé
con tent</w>
faci lité</w>
infl ation</w>
car re
construc teur</w>
. l'</w>
car ré</w>
py ré
co opér
lab el</w>
in d
in vo
smart phone</w>
fi le</w>
terr oriste</w>
in on
retrouv ent</w>
souhai té</w>
amen er</w>
in -
lo ge</w>
qu eue</w>
volu mes</w>
se e</w>
inform é</w>
ju lien</w>
hy dr
fau t
soulign er</w>
men son
tiend ra</w>
ad versaires</w>
offici ers</w>
ba ye</w>
racon ter</w>
e te</w>
re belles</w>
précé dentes</w>
suscep tible</w>
tal on</w>
ri n</w>
enva h
règl ements</w>
jo r</w>
mar in</w>
198 3</w>
can ap
ge ts</w>
fai lli
diminu er</w>
ori ent
è re-
sensi bilité</w>
catas trophe</w>
ement aux</w>
exprim é</w>
ta teurs</w>
épar gne</w>
écl at
lo y
gé rard</w>
diri ge</w>
in édi
satis fait</w>
specta cles</w>
industri es</w>
dirige ant</w>
de bout</w>
dé ran
distri ct</w>
grande- bretagne</w>
laiss ent</w>
ca se</w>
gu ita
v rais</w>
accor dé</w>
fer ro
centr ales</w>
i den
cli quant</w>
mar ti
thi erry</w>
si mon</w>
considé rablement</w>
ré p
o deur</w>
op en</w>
cul aires</w>
mar quée</w>
tor t</w>
is si
ré fé
p r</w>
fil tre</w>
sur vie</w>
ci le</w>
éner gies</w>
lis es</w>
regre t
tourn ant</w>
édi teurs</w>
ti r
figu rent</w>
ges tes</w>
cu i
pro cher</w>
b és</w>
nu its</w>
nation alité</w>
défen seur</w>
o h</w>
mag ie</w>
vari able</w>
énor mément</w>
tri ques</w>
lar mes</w>
présen tées</w>
mag ique</w>
iti nér
vap eur</w>
cou p
défin i</w>
direc tives</w>
m c</w>
h is
r ain
rend us</w>
efficac ement</w>
bl er</w>
straté giques</w>
é ro
géograph iques</w>
bru no</w>
su é
ben o
ten dre</w>
for mid
co ton</w>
atten tat</w>
ma jor</w>
pré occupations</w>
i cô
hor aires</w>
car i
cé dé</w>
join ts</w>
tun isie</w>
obten us</w>
k it</w>
complémen taire</w>
ill ée</w>
mar ins</w>
c c</w>
gu é
onn age</w>
ex prime</w>
meu bles</w>
ré centes</w>
expli cations</w>
vi c</w>
commun iste</w>
198 1</w>
manifes te</w>
instruc tions</w>
cham pa
liv rer</w>
tal ents</w>
autoris é</w>
tradi tionnels</w>
onn ais</w>
ro tation</w>
profi té</w>
den sité</w>
expor tation</w>
ra c</w>
concern ent</w>
se g
ch t</w>
dé bor
re tenue</w>
réfri gé
ô tre</w>
tribu naux</w>
con fon
h oc
toron to</w>
deman dez</w>
2 3
essenti elles</w>
exclu sion</w>
sur faces</w>
engag és</w>
dispos ent</w>
ba si
ti m
n ing</w>
tran che</w>
fonctionn alités</w>
initi alement</w>
post -
navig ateur</w>
d d</w>
jo inte</w>
en chaî
permet trait</w>
dégâ ts</w>
sû reté</w>
là- bas</w>
vi tr
j on</w>
dè rent</w>
sub ventions</w>
mauv aises</w>
en lever</w>
0 .000</w>
condi tionn
trans mis</w>
er g
déc ouvertes</w>
mati quement</w>
argu ments</w>
ori taires</w>
sou pe</w>
ar més</w>
résul te</w>
sou mettre</w>
em pris
ch eurs</w>
expédi tion</w>
fo ot</w>
uti lité</w>
cr ist
no t</w>
ag e
de venus</w>
hau te-
concer nées</w>
convers ation</w>
pré cau
da s</w>
p t</w>
infra structure</w>
is ses</w>
rou es</w>
jo y
hospi ta
occa sions</w>
fi bres</w>
nu lle</w>
bas k
alu mini
pass ages</w>
2 1
d ages</w>
am s</w>
abor der</w>
subi r</w>
contin u</w>
g illes</w>
bo y
opé rateur</w>
tr ent
du -
séqu ence</w>
dépl oi
touris tique</w>
l ad
tabl ette</w>
ju n
anth ro
dé sar
fo lie</w>
cré ateur</w>
entr ées</w>
st a</w>
mar quer</w>
mé lo
b ête</w>
crain te</w>
l om
permet tront</w>
opé ra</w>
ray ons</w>
v ec
exis tant</w>
sho w</w>
sau rait</w>
asi le</w>
évo qué</w>
i voire</w>
loc alisation</w>
isi on</w>
bu n
chauss ée</w>
entrepren eurs</w>
car din
e ar
centre- ville</w>
ran tes</w>
bi ère</w>
puiss ante</w>
ch y
u ms</w>
cam ps</w>
pédag ogique</w>
dédi ée</w>
lo tte</w>
p ist
. il</w>
do r</w>
syn thé
expan sion</w>
ai dé</w>
distin ction</w>
atta quant</w>
carac tères</w>
cr aign
parl ementaires</w>
ni ère</w>
sensi blement</w>
salari é</w>
refu ser</w>
sémin aire</w>
agricul teurs</w>
appel és</w>
régu lation</w>
p h</w>
chaleur eux</w>
na polé
f 1</w>
chim ie</w>
para do
prin cesse</w>
com promis</w>
ap port</w>
pom pe</w>
remon ter</w>
so eur</w>
p seu
g age</w>
souver ain
ma c</w>
pré su
a jus
feu ill
établi t</w>
man ches</w>
parall èlement</w>
particip ent</w>
dé sert</w>
cohé rence</w>
re tenir</w>
jean- pierre</w>
e ffici
produ ite</w>
pi ano</w>
en cl
ci gar
ob serve</w>
vi gn
bran ches</w>
métho d
sexu els</w>
y on</w>
curi eux</w>
vier ge</w>
ta gon
chois is</w>
dé ser
mar k</w>
intè gre</w>
civi lisation</w>
vi br
actionn aires</w>
spor tifs</w>
ra ch
meur t</w>
j ette</w>
intéres sante</w>
tu és</w>
l ève</w>
polici er</w>
con serve</w>
préfec ture</w>
plac ée</w>
chan teuse</w>
bai e</w>
lumin eux</w>
bon us</w>
g en</w>
ca cher</w>
v on</w>
moy ennes</w>
cathé dra
ti les</w>
assass in
bor ds</w>
habitu des</w>
appro bation</w>
ray on</w>
recu eil</w>
vi de
alumini um</w>
individu elle</w>
cu ill
avanc ée</w>
u .
sup ports</w>
comm u
re quête</w>
vi gil
ad mis</w>
man us
ec h</w>
lou er</w>
collec tions</w>
afric ain</w>
montpel lier</w>
fili ale</w>
w ard</w>
diffus é</w>
contempor ain</w>
qu ants</w>
bac h</w>
figu res</w>
guita re</w>
con ventions</w>
cons tat</w>
séri eusement</w>
le ts</w>
g et</w>
méditerran ée</w>
tra jet</w>
el -
iden tique</w>
ferro vi
impor tations</w>
d ettes</w>
ordin aires</w>
qu ad
ro ck
ass or
ch allen
er ais</w>
sal ut</w>
universi taires</w>
ab and
t le</w>
consen sus</w>
mathé matiques</w>
procu rer</w>
plac és</w>
mentionn é</w>
chin oise</w>
acci dents</w>
témoi gne</w>
mor te</w>
mo re</w>
di vor
dési gne</w>
fu ir</w>
conn ait</w>
ci ation</w>
ren é</w>
r c</w>
g ations</w>
tou ches</w>
tor at</w>
n ap
constitu ée</w>
échantill on</w>
arri vés</w>
documen tation</w>
willi am</w>
pa d</w>
k am
enn ement</w>
approvisi onnement</w>
us ages</w>
gâ teau</w>
architec te</w>
h av
ap ai
concur ren
man e</w>
trent aine</w>
métro pole</w>
fa çons</w>
monu ments</w>
héri tage</w>
envelop pe</w>
ser re</w>
fi ées</w>
clô ture</w>
bénéfici ent</w>
ex cès</w>
beno ît</w>
en t-ils</w>
rapi des</w>
s ang
cinqu ante</w>
év an
catas troph
traver se</w>
représen té</w>
définiti ve</w>
viend rait</w>
gl ac
suffis ant</w>
res tait</w>
4 e</w>
contr o
bi er</w>
tempéra tures</w>
con s</w>
consul tez</w>
souff rance</w>
argenti ne</w>
médi caux</w>
y u
emar k</w>
bar bar
désign é</w>
or bi
fas cin
ca t
ri gueur</w>
déf end
atte ign
as simil
ex positions</w>
e la</w>
or ph
tu y
arri v
combat tants</w>
intég rée</w>
ma les</w>
réper toire</w>
pén ale</w>
dépend ance</w>
re tenu</w>
suc cession</w>
cou rants</w>
s ors</w>
v ine</w>
harmon ie</w>
éten dre</w>
sélectionn é</w>
pro clam
visi bilité</w>
spéci aux</w>
ren nes</w>
coû te</w>
sec rè
m ait</w>
ven tre</w>
quoi que</w>
propos ant</w>
parisi enne</w>
rénov ation</w>
matern elle</w>
offici elles</w>
interven ants</w>
e v</w>
capi taux</w>
ren om
si on
son ore</w>
in connu</w>
diri ger</w>
dou lour
cess é</w>
cl ame</w>
amen de</w>
ve il</w>
cons tamment</w>
ci me
concur rents</w>
parfu m</w>
matéri els</w>
vend us</w>
con go</w>
pen sez-vous</w>
provo qué</w>
par cs</w>
desc endre</w>
ci- après</w>
on nier</w>
bulle tin</w>
ste in</w>
déten us</w>
mer ie</w>
quanti tés</w>
at ténu
sex uel</w>
plac ement</w>
fra c
ex ci
sud- ouest</w>
pass ait</w>
ro ger</w>
ren due</w>
â gés</w>
n e-
t we
peut- on</w>
sani taire</w>
w ol
men tal</w>
canadi ennes</w>
in aires</w>
inci dent</w>
dis paraître</w>
éché ant</w>
im posé</w>
d ai
él as
sché ma</w>
frapp é</w>
197 9</w>
é qu
bles sure</w>
fu tures</w>
occiden tale</w>
inst alle</w>
rug by</w>
provo quer</w>
ver n
compli qué</w>
débar rass
représen tations</w>
fourni s</w>
sup porter</w>
pla ques</w>
ma tri
exam in
tr am
soli des</w>
ten nis</w>
n .
habi li
un anim
197 8</w>
libé ral</w>
cherch ent</w>
défin it</w>
sou cis</w>
ni r</w>
p p</w>
cer a</w>
magni fiques</w>
o ph
vari ations</w>
considé rés</w>
échang er</w>
bat eaux</w>
peu pl
ha s</w>
cr oi
fix ée</w>
ar is
légi time</w>
i rani
p us</w>
al ber
ar d
command ement</w>
montr ant</w>
univers elle</w>
pr être</w>
ce .
ma ï
spéci alisés</w>
épar gn
197 5</w>
détru it</w>
fu r</w>
éch el
at a</w>
myst ère</w>
engag ée</w>
digni té</w>
trans actions</w>
pos té</w>
res .
musi cal</w>
m exi
rempl i</w>
fourniss eur</w>
racin es</w>
dan emark</w>
w an</w>
gri m
al bert</w>
compéti tivité</w>
ç ants</w>
ti rs</w>
tempor aire</w>
remerci er</w>
d ent
exer ce</w>
ri gour
e in</w>
cher a</w>
étonn ant</w>
hu iti
i .
dev int</w>
cli matiques</w>
sac ré</w>
m ette</w>
j er
hon g
effectu ée</w>
sai si</w>
appli quent</w>
c ouvre</w>
opini ons</w>
bu ff
mar k
psychi a
renouv ellement</w>
commis sions</w>
main tenance</w>
nom me</w>
supéri eurs</w>
approuv é</w>
bourge ois</w>
obten tion</w>
us agers</w>
pens ais</w>
ex cé
ru ral</w>
tan tôt</w>
br on
bi g</w>
baiss er</w>
accor dée</w>
pla y
g is
re poser</w>
sav ais</w>
per ception</w>
5 e</w>
av ère</w>
ré tabli
truc s</w>
ac k
obli ge</w>
tradi tionnelles</w>
répon dit</w>
gri ll
w a
sympt ômes</w>
symbo lique</w>
vis ées</w>
ré cent</w>
peti t-
ê le</w>
aban donner</w>
pa quet</w>
aéri enne</w>
li min
soci alistes</w>
vend eur</w>
réserv er</w>
accep table</w>
vis és</w>
parta gé</w>
offici els</w>
compl ément</w>
vi h</w>
si l</w>
tra -
c ouver
déten te</w>
entou rage</w>
sé nég
accor de</w>
cl avier</w>
k ir
è tent</w>
atis ation</w>
bas tien</w>
esti ment</w>
ri o</w>
psy cho
atte in
res truc
poss èdent</w>
distin gue</w>
bou cle</w>
vi f</w>
référen dum</w>
grou p</w>
ter ai</w>
pu r
qu a</w>
véri tables</w>
vol ant</w>
sep tième</w>
sou mise</w>
ter nité</w>
pré con
man qué</w>
sou ple</w>
œu fs</w>
bal ance</w>
wi ki
acc en
ajou tant</w>
d ine</w>
con quête</w>
ren ault</w>
géné rer</w>
lib an</w>
problé matique</w>
re grou
h o</w>
an n</w>
progres ser</w>
horiz on
sa r</w>
univer sel</w>
tr és</w>
k on
fréqu entes</w>
pa tron
re comman
fémin ine</w>
spor tive</w>
sénég al</w>
figu rant</w>
mari a</w>
ali ers</w>
e au-
in o</w>
ré conci
ajou tée</w>
recy cl
tradi tions</w>
ch ères</w>
appli quée</w>
l an</w>
atten dait</w>
e i</w>
el li
actu alités</w>
enseign ant</w>
essenti els</w>
d ais</w>
conso le</w>
fran co-
véri tablement</w>
ré agir</w>
dis si
st ars</w>
rai s
ig no
mas que</w>
zi ème</w>
extéri eurs</w>
l ass
fl ori
g ré
sovi étique</w>
rele vant</w>
presti gi
donn ait</w>
désign er</w>
hec tares</w>
épou x</w>
barcel one</w>
ri ères</w>
hy bri
effectu ées</w>
ambassad eur</w>
épi dé
aband on</w>
déploi ement</w>
éch ap
n u</w>
en du
ex traits</w>
particip ant</w>
b am
gr aines</w>
souff re</w>
fai blesse</w>
ban k</w>
bou lev
faç ade</w>
mas cul
tr ains</w>
ti vement</w>
in tr
entr é</w>
m aux</w>
édi fice</w>
rési dents</w>
c s
étroi te</w>
ten tion</w>
g abri
pouv ais</w>
se au</w>
colon el</w>
éle vage</w>
moti vation</w>
conten te</w>
n el</w>
tu ration</w>
contrain te</w>
as t</w>
ar na
carbu rant</w>
occi dent</w>
char bon</w>
profi tez</w>
libé rer</w>
cotis ations</w>
pai ements</w>
ég lises</w>
immédi ate</w>
remerci e</w>
lati ne</w>
califor nie</w>
sal em</w>
individu el</w>
jac k
simpli cité</w>
co ins</w>
sh ar
nour rir</w>
pr enne</w>
gon fl
bac k</w>
parti ellement</w>
us b</w>
dor mir</w>
illu stre</w>
è tement</w>
messi eurs</w>
10 ,
mir oir</w>
invi tation</w>
ha dis
pen te</w>
mal i</w>
an der
mon s
bo l</w>
y me</w>
déc o</w>
câ ble</w>
ca hier</w>
ange les</w>
saisi e</w>
argu ment</w>
tar di
om ni
i ron
fran c</w>
o tes</w>
stock s</w>
vis er</w>
ac o</w>
comp tait</w>
évol ue</w>
g as</w>
sac s</w>
tt c</w>
phénom ènes</w>
inten tions</w>
l era</w>
fili ère</w>
mes se</w>
ou tre-
pann eau</w>
qu isi
conti enne</w>
r avi
prom esse</w>
i .</w>
gr ati
parten ari
ra mener</w>
j av
ré pression</w>
le d</w>
plat e-
bijou x</w>
z él
ingéni eurs</w>
xi xe</w>
ou t
n ant</w>
fon taine</w>
sauve garde</w>
championn ats</w>
bon jour</w>
fau sse</w>
end or
pr ie</w>
rassembl ement</w>
gra de</w>
ten d</w>
précé demment</w>
pré texte</w>
10 .
b arri
inclu ant</w>
glob alement</w>
n y
pré judi
cathédra le</w>
intéres sés</w>
lour de</w>
i ez</w>
offen sive</w>
caractéris tique</w>
superfici e</w>
adoles cents</w>
lun ettes</w>
prati quer</w>
a té
complex ité</w>
espagno le</w>
réuni r</w>
sai s
gol f</w>
entou ré</w>
bal les</w>
gro ssi
libr ement</w>
effectu és</w>
en i
enthousias me</w>
j i</w>
br av
fé li
budg étaires</w>
nord- est</w>
banc aires</w>
len tement</w>
amen é</w>
flo t
hor reur</w>
ga me</w>
a la</w>
inspec tion</w>
conç ue</w>
par k</w>
pro ph
chré tienne</w>
bl eue</w>
valoris ation</w>
circu its</w>
chev alier</w>
aé ron
camp ing</w>
au ré
privi lè
tr au
aban donné</w>
continu ité</w>
acti ver</w>
dé montrer</w>
lon gi
au rai</w>
pu its</w>
c r</w>
techn ologiques</w>
por tées</w>
cou teau</w>
ju gés</w>
favor ables</w>
é mis</w>
im mer
remon te</w>
proté ines</w>
ad missi
form ée</w>
gen res</w>
fréqu emment</w>
prim aires</w>
do c</w>
2, 5</w>
travaill ant</w>
prom et</w>
ran gs</w>
w es
jé ru
san gu
initi al</w>
im précisions</w>
poign ée</w>
pro jection</w>
oi rement</w>
oeu fs</w>
re connue</w>
au da
conseill é</w>
habi tant</w>
plu ralité</w>
chan ter</w>
retrai tes</w>
pa vill
numé ros</w>
puiss ants</w>
per cevoir</w>
é pan
exam ens</w>
réper cu
impor tation</w>
lumi ères</w>
signal er</w>
bas ti
lati n</w>
eu rement</w>
ra bilité</w>
na m</w>
issu es</w>
adres ses</w>
débu te</w>
mo t
ver sée</w>
produ isent</w>
all ée</w>
par tant</w>
évolu tions</w>
pren ons</w>
produc tivité</w>
compagn on</w>
og ène</w>
gratu its</w>
prési dents</w>
au ber
oubli e</w>
boi te</w>
révoluti onnaire</w>
i en</w>
contempor aine</w>
gl y
trav ail
proch ainement</w>
20 20</w>
flo tte</w>
eng end
in e-
rel â
b n
monu ment</w>
inqui étude</w>
réussi t</w>
concentr er</w>
fil et</w>
sauv ages</w>
all ah</w>
dou cement</w>
mo dul
hu iles</w>
assu rée</w>
des ign
dr ome</w>
m aill
ti mes</w>
remar qué</w>
p ent</w>
val able</w>
sh er
donn a</w>
anci ers</w>
s wi
i ie</w>
man quer</w>
élé men
gi r
au dit</w>
cu mul
euro pe
mes -
té .
per a</w>
immédi at</w>
décé dé</w>
b ant</w>
hoc key</w>
sin is
lo w</w>
x i</w>
blan ches</w>
tr ès-
visi blement</w>
gu e
im pl
ul tra</w>
ro s
s pl
viol ation</w>
autor oute</w>
b d</w>
sec tions</w>
hon te</w>
ab bé</w>
12 .
dra peau</w>
r ise</w>
nord- ouest</w>
accompli r</w>
dis e</w>
inform atiques</w>
employ eurs</w>
suffis ante</w>
gn ons</w>
bénéfici aires</w>
réalis te</w>
républic ains</w>
ph i
assur ant</w>
handica p</w>
coll er</w>
conserv ateur</w>
vé tér
ét an
incontourn able</w>
fi able</w>
fer mée</w>
pla çant</w>
surveill er</w>
indi ces</w>
pha ses</w>
ad el
égyp te</w>
ar t.</w>
rési de</w>
exempl aire</w>
inst an
ri ve</w>
car ton</w>
inter val
vic tor</w>
sui cide</w>
mé trage</w>
par ent</w>
co ach</w>
évèn ements</w>
de- france</w>
w all
s ale</w>
ck s</w>
délégu é</w>
pour vu</w>
sani taires</w>
rivi ères</w>
pronon cer</w>
bou tiques</w>
can on</w>
décri re</w>
inqui ète</w>
voy ons</w>
is tiques</w>
judici aires</w>
ag grav
appli qué</w>
hygi ène</w>
ex pi
renseign er</w>
ca lité</w>
st an
pros titu
mol écu
vaiss elle</w>
r endant</w>
ri ra</w>
dépl or
opé rer</w>
imagin aire</w>
ordin ateurs</w>
i tions</w>
bou ill
merveill eux</w>
viend ront</w>
ra t</w>
rac isme</w>
197 7</w>
poi trine</w>
i p</w>
résis ter</w>
ju li
aéri en</w>
espé rance</w>
bénévo les</w>
détaill ée</w>
systé matiquement</w>
ay s</w>
comp table</w>
fi eld</w>
li ons</w>
té l</w>
si enne</w>
ju ni
compagn ons</w>
exist ants</w>
ho p</w>
h end
con soli
démon stration</w>
mati née</w>
go s
rappel ant</w>
p tions</w>
o les</w>
ai les</w>
ec ole</w>
av al
gé o
indi quant</w>
interpr ète</w>
sol dat</w>
ri gi
r era</w>
gravi té</w>
jui f</w>
te- t-il</w>
y ant</w>
aler tes</w>
atten due</w>
mix te</w>
fati gue</w>
chois it</w>
sensibil isation</w>
correspond ance</w>
de vis</w>
organis ées</w>
install és</w>
pré nom</w>
tourn age</w>
o tan</w>
ab ou
inci dence</w>
conn aitre</w>
con gé</w>
pronon cé</w>
di rait</w>
ps g</w>
cou pl
norman die</w>
ac ou
hal l</w>
n ath
entraî né</w>
ci tron</w>
pres ta
re i
tr é</w>
minist ères</w>
ag ro
re z-vous</w>
hôpi taux</w>
acti ves</w>
est- elle</w>
mill én
gran deur</w>
d ou</w>
pou le</w>
12 ,
ou se</w>
on cle</w>
démocra te</w>
adé qua
d ru
mé mor
ca sse</w>
maj es
mat hi
h d</w>
li ques</w>
plate- forme</w>
débu té</w>
ab onnés</w>
ab baye</w>
déclar er</w>
19 45</w>
occup ent</w>
mon t-
anim é</w>
h aut
supéri eures</w>
re tourne</w>
4 0
des -
o gne</w>
pi res</w>
bo issons</w>
magis tra
écr ans</w>
intégra lité</w>
connec ter</w>
mon as
napolé on</w>
recen sement</w>
aff lu
pe ines</w>
mi er</w>
introdu ire</w>
perf ectionn
amend ements</w>
annu lation</w>
c m
indi ens</w>
exploi ter</w>
scan dale</w>
avanc ées</w>
diffus ée</w>
r ô
sa x
camer ou
photo graphe</w>
o tique</w>
vall s</w>
s is
glo be</w>
re groupe</w>
op pose</w>
de viendra</w>
sui tes</w>
combu sti
sa m</w>
tr ous</w>
fre d</w>
hu man
197 6</w>
in évi
s ain</w>
interro gé</w>
ri ch</w>
domin ation</w>
é min
ab onnement</w>
hi bi
log istique</w>
s prin
orient ations</w>
im ent</w>
ch aise</w>
mou sse</w>
char man
trou ble</w>
bou lang
partenari ats</w>
y en</w>
sil en
c isme</w>
b ée</w>
favor is</w>
ren tre</w>
pos és</w>
faci les</w>
modes te</w>
acti vement</w>
formid able</w>
enne té</w>
pu rement</w>
pri ori</w>
l isi
assis té</w>
dé ni
s ki
provo que</w>
ca sin
tr y</w>
em brass
ha d</w>
z o</w>
direc teurs</w>
hen ry</w>
gl ori
cour ts</w>
vag ues</w>
du n
sk y</w>
mar ne</w>
con cevoir</w>
atten ds</w>
d entaux</w>
neu tr
enti té</w>
distin guer</w>
ar ch
accélé rer</w>
nouveau tés</w>
compos ant</w>
intéres ser</w>
quar ante</w>
a e</w>
t- ce</w>
démar rage</w>
fabric ant</w>
as tr
ni en</w>
traver ser</w>
observ atoire</w>
s ois</w>
t p</w>
occi dentaux</w>
regre tte</w>
prom esses</w>
son dages</w>
renseign ement</w>
z i</w>
perpé tu
end a</w>
. en</w>
bét on</w>
br onze</w>
sem estre</w>
co ck
mon tants</w>
co te</w>
spé cul
res sorti
pu b</w>
enti n</w>
sol e
egyp te</w>
en ver
plu s
pro li
esca lier</w>
mail lot</w>
ser ai
na ï
tomb ée</w>
meur tri
sub ti
19 50</w>
18 0</w>
re vi
appréci e</w>
mou le</w>
des cente</w>
éli te</w>
québé co
porte feuille</w>
li eue</w>
man ager</w>
lar ges</w>
mini -
ci o</w>
es pi
organ ique</w>
sél ecti
cap tu
di able</w>
ste ph
o ver</w>
tionn aire</w>
a f</w>
re faire</w>
ins ec
land aise</w>
appréci erez</w>
trans forme</w>
g g
wi fi</w>
indi en</w>
an o
constitu tionnel</w>
cr ises</w>
cas que</w>
pos ent</w>
si ens</w>
el la</w>
accep tez</w>
wil l</w>
frau de</w>
individu elles</w>
nég atif</w>
récupé ration</w>
obsta cle</w>
collè gue</w>
pharma cie</w>
ré veill
rh in</w>
ten tatives</w>
v ents</w>
d ante</w>
in c</w>
j ou</w>
chap eau</w>
tr en
tran d</w>
ru n
indi cations</w>
étudi é</w>
ré solutions</w>
no tre-
rou e</w>
consac rer</w>
uni forme</w>
le çons</w>
lou p</w>
réc ents</w>
onn ée</w>
lour ds</w>
con cré
graph es</w>
adé qu
distin gu
s cho
c alement</w>
accompagn ée</w>
territori ale</w>
noti ce</w>
an é
m aires</w>
am o
on a</w>
quin zaine</w>
élar g
médi atique</w>
concep ts</w>
ce v
1 40</w>
ten eur</w>
oli ve</w>
exist antes</w>
bi li
re tte</w>
ré els</w>
cime tière</w>
fl eur
collecti vité</w>
op p
gagn ant</w>
es que</w>
entreten ir</w>
ge ons</w>
h is</w>
t èrent</w>
hospi t
cann es</w>
em porter</w>
cré ant</w>
boulev ard</w>
algé ri
con joint</w>
mu n
suppl ément</w>
vou drait</w>
voy ager</w>
nor v
républic ain</w>
di dier</w>
psych ologique</w>
re al</w>
musi ques</w>
commerci alisation</w>
souverain eté</w>
sn cf</w>
cli mati
sor tent</w>
catholi ques</w>
as té
touris tiques</w>
fi bre</w>
maj eurs</w>
réuni t</w>
mi el</w>
esti mation</w>
in capable</w>
éch o</w>
respec te</w>
audi o
ad n</w>
bou l
a b</w>
des crip
6 e</w>
éle v
pa l</w>
mil an</w>
plu me</w>
évèn ement</w>
tu des</w>
champa gne</w>
pier re-
équi lib
ca ta
per cu
ins tar</w>
ser ons</w>
ar om
mém oires</w>
exis ter</w>
révél er</w>
fl ash</w>
alph ab
mar gin
soph ie</w>
enti tés</w>
correspon dent</w>
bru n
bel ges</w>
end et
sou viens</w>
pé ren
197 3</w>
hong rie</w>
con jon
in jec
termin ée</w>
imprim er</w>
expos és</w>
gar dé</w>
con tenir</w>
no ble</w>
ci bles</w>
organis ateurs</w>
é met
diffu ser</w>
attribu tion</w>
l aine</w>
lin é
regar ds</w>
cou pé</w>
éventu elle</w>
enf er</w>
g orge</w>
adap tées</w>
d et
ren aiss
norv ège</w>
famili ales</w>
pré limin
impli cation</w>
pu t</w>
goû ts</w>
. je</w>
rel è
se a</w>
her be</w>
pa n</w>
dévelop pés</w>
ani me</w>
accu sations</w>
val ence</w>
ita liens</w>
tro pi
réfl exions</w>
ois eau</w>
gram mes</w>
install ée</w>
promen ade</w>
m our
invi tons</w>
in com
se y</w>
t n
médi év
lib rai
rem et
pe int</w>
mar cel</w>
pom me</w>
bl i</w>
bri ga
rou ss
termin al</w>
quar ts</w>
am ène</w>
soi rées</w>
gueu le</w>
o x
diri gée</w>
tec h</w>
doubl é</w>
tre i
ch rom
inf li
avanc é</w>
acc rue</w>
dou leurs</w>
t oir</w>
col le</w>
m t</w>
ben jam
g ains</w>
interro ger</w>
fé minis
lead ers</w>
assu mer</w>
chré tien</w>
es ti</w>
mu sées</w>
2 ème</w>
établi s</w>
re construction</w>
o ff</w>
bul aire</w>
arrê tés</w>
1 30</w>
occa sionn
col onnes</w>
d f</w>
vo û
lu ci
clin iques</w>
ban c</w>
col lo
si en</w>
sembl ables</w>
réalis ations</w>
né o-
conti ennent</w>
sé bastien</w>
administr ateur</w>
sexu elles</w>
op poser</w>
in time</w>
exam iné</w>
statu ts</w>
sau t</w>
arbi tr
comi tés</w>
en di
arti sans</w>
aci des</w>
appro ches</w>
co que</w>
fantas tique</w>
cri s</w>
signi fi
tou ff
qui ert</w>
am ateur</w>
e va</w>
am ont</w>
fis cales</w>
cherch eur</w>
situ ées</w>
toil ettes</w>
lo go</w>
ky o</w>
ve -
form és</w>
ill ard</w>
régu lier</w>
équi page</w>
us ines</w>
nau d</w>
no tions</w>
c tur
con te</w>
ar mé</w>
n oires</w>
continu é</w>
ci ère</w>
inten si
bar be
rom aine</w>
inven taire</w>
ré un
go gne</w>
pré ven
k az
mis ère</w>
vo tes</w>
certi fication</w>
te am</w>
mu scul
fidé lité</w>
201 9</w>
cap teur</w>
ai le</w>
9 00</w>
thé â
potenti els</w>
sè che</w>
dom esti
exécu ter</w>
éle vées</w>
métalli que</w>
tor al</w>
hor ri
ax es</w>
offer ts</w>
inst ances</w>
da r</w>
ach em
b .
grec s</w>
automati que
fabri quer</w>
orien tale</w>
ron d</w>
w est</w>
or lé
co ï
sign ée</w>
vi et
rou x</w>
ab onnements</w>
sexu alité</w>
concer né</w>
mal heureux</w>
r ationn
bar ack</w>
specta teur</w>
observ é</w>
contrain t</w>
m û
bud gets</w>
po is
im position</w>
pd g</w>
ai sément</w>
appuy ant</w>
fau ts</w>
â t</w>
ciné mat
fron ta
jau nes</w>
mass age</w>
ar mé
dis sements</w>
197 4</w>
ra -
accep tation</w>
str at</w>
décen nie</w>
g era</w>
camar ades</w>
mobi lier</w>
préjudi ce</w>
tun isi
di es
mutu elle</w>
inf ection</w>
ori que</w>
inter locu
cré és</w>
e ine</w>
h ave</w>
du rer</w>
gar des</w>
ari tés</w>
p n
mon aco</w>
h ait</w>
garanti t</w>
municipa le</w>
extéri eures</w>
curi osité</w>
automatique oui</w>
ef for
é lo
comp tent</w>
sen i
dégu station</w>
espa gn
vi ce</w>
anten ne</w>
territori ales</w>
r ôme</w>
end om
habi te</w>
méditerran é
conserv é</w>
sh ei
ki m</w>
an droi
k el</w>
li tres</w>
opportu nités</w>
ca ché</w>
rhô ne</w>
tch èque</w>
ga r</w>
tr ol
dénon cer</w>
signific ative</w>
im pré
quasi -
aisi e</w>
pouss ée</w>
annu ler</w>
ai re
gend ar
mou ss
plu ri
rap porté</w>
conclu t</w>
gé omé
confi e</w>
con fusion</w>
gu il
ro ses</w>
appar tements</w>
ro ch
clou d</w>
plom b</w>
z a
l -
ce aux</w>
dé montré</w>
b av
ré tabl
bénéfici é</w>
rapproch ement</w>
économ iser</w>
ag isse</w>
you tube</w>
boî tier</w>
japon aise</w>
dé mission</w>
municipa les</w>
célè bres</w>
ap proch
vari ables</w>
dou ard</w>
blo quer</w>
jou ant</w>
brill ant</w>
gol fe</w>
dro gues</w>
mul titude</w>
empl oie</w>
var ie</w>
pl ati
cohé sion</w>
géné tique</w>
er o</w>
équi table</w>
ass ise</w>
huiti ème</w>
cré ativité</w>
sol de</w>
mondi aux</w>
franch ise</w>
jéru salem</w>
en tique</w>
rej oign
mou lin</w>
ara bie</w>
pro pi
fre e</w>
circons cription</w>
puiss ances</w>
trou pe</w>
inté gri
quel que
all aient</w>
car bon
renon cer</w>
atta che</w>
ban lieue</w>
ven aient</w>
l ave</w>
tr ône</w>
cr i</w>
ma h
lég al</w>
bur g</w>
anim ations</w>
reç oivent</w>
auth entique</w>
a- t-on</w>
fu mée</w>
appropri é</w>
sag esse</w>
all ou
pi t
bre ve
- d'</w>
modifi ée</w>
dép ôts</w>
sau ter</w>
igno re</w>
consul tatif</w>
pha re</w>
le çon</w>
rat trap
can aux</w>
statu e</w>
maîtr iser</w>
ter aient</w>
s ants</w>
vois ine</w>
dis simul
jé rôme</w>
ar sen
intégri té</w>
anc é</w>
indispens ables</w>
mal heur</w>
cy clo
su le</w>
ri ght</w>
uni ted</w>
on t-ils</w>
vou s-
intitu lée</w>
mis s</w>
circul aire</w>
x avier</w>
vie illes</w>
pour suiv
hél as</w>
fra gi
vac cin
im muni
pi x
é mor
f ère</w>
carol ine</w>
met tez</w>
dat a</w>
ple ins</w>
a se</w>
ga za</w>
si vité</w>
tor ture</w>
las er</w>
gn y</w>
franco phone</w>
mondi alisation</w>
posi tifs</w>
co équi
dis ney</w>
le e</w>
dé fauts</w>
in o
commer çants</w>
3 50</w>
k é
indi quent</w>
négoci er</w>
inég alités</w>
optimis er</w>
n oix</w>
sub strat</w>
a trices</w>
dra matique</w>
agglomé ration</w>
dégra dation</w>
or t</w>
h ari
tan ée</w>
exist ait</w>
196 8</w>
jar din
r w
es e</w>
temp ête</w>
d able</w>
fin lande</w>
re jet</w>
char gement</w>
si li
tou chant</w>
tam p
rem porter</w>
ser ge</w>
récom pense</w>
1 60</w>
jean- luc</w>
spor tives</w>
ll on</w>
plan che</w>
lib ye</w>
isab elle</w>
inclu re</w>
sé mi
moyen- orient</w>
gé no
rich esses</w>
è ches</w>
ber trand</w>
wal l</w>
a tar</w>
ro bu
fir me</w>
gendar merie</w>
agres sion</w>
androi d</w>
absol u</w>
mariti mes</w>
tri o</w>
uk rai
favor ise</w>
in don
y n
appel lent</w>
ois elle</w>
dé passé</w>
fin ition</w>
bom be</w>
prouv e</w>
pein tures</w>
ins iste</w>
revê tement</w>
préc ises</w>
suppor ters</w>
défin ie</w>
demand eurs</w>
g me</w>
par courir</w>
an y</w>
l eu
hé téro
o ble</w>
atti re</w>
specta culaire</w>
évalu ations</w>
atta ché</w>
faut euil</w>
e z
téléchar gement</w>
cha r</w>
associ er</w>
ch ê
inclu t</w>
associ ées</w>
serv eurs</w>
pon dé
individu els</w>
assur ent</w>
t ain
transfé rer</w>
men és</w>
to kyo</w>
tes ses</w>
des ser
g eurs</w>
hom e</w>
ga y</w>
transfer ts</w>
noy au</w>
qu ai</w>
hor aire</w>
gas tronom
ex pul
vé né
chris tine</w>
compa rable</w>
i ers</w>
fois -ci</w>
1 10</w>
for fait</w>
cher ché</w>
pos ées</w>
b ts</w>
explor ation</w>
rappel ons</w>
convi ction</w>
rê ver</w>
h im
fin ales</w>
arna que</w>
pro -
ti mi
197 2</w>
fi abilité</w>
qualifi és</w>
financ ements</w>
ab sur
viol ent</w>
répon dent</w>
environnemen tale</w>
pé kin</w>
infra ction</w>
jo sé</w>
ss é</w>
ren tes</w>
ar a</w>
solid aire</w>
signi fication</w>
dau ph
c aill
cri tère</w>
trag édi
attr ap
mor talité</w>
réci ts</w>
z en
palestini en</w>
équi libr
is s</w>
fourni ture</w>
pro ba
s li
renaiss ance</w>
nettoy er</w>
jean- françois</w>
fau ne</w>
mani ères</w>
parl ait</w>
fran cis
asté roï
pd f</w>
cour u</w>
transform é</w>
en cre</w>
an isme</w>
ba y</w>
enseign ements</w>
lav er</w>
arres tation</w>
inst ants</w>
en courage</w>
ad am</w>
an ec
fi er
bou tons</w>
1. 1</w>
céré ales</w>
in tu
dev oirs</w>
soud ain</w>
pa ttes</w>
héli cop
s tiques</w>
jean ne</w>
opérationn el</w>
fo x</w>
ori tairement</w>
trans action</w>
élabor é</w>
re jeté</w>
chem inée</w>
ag ra</w>
refu ge</w>
dis t
cr ou
résu me</w>
urban isme</w>
h s</w>
j ones</w>
pay sans</w>
bre vet</w>
épau les</w>
canap é</w>
w ag
or a</w>
val ent</w>
fix és</w>
corri ger</w>
pré venu</w>
fondamen tale</w>
mobil iser</w>
é normes</w>
para î
comp il
élector al</w>
industri elles</w>
es cal
maîtr esse</w>
con su
assi ette</w>
er es</w>
trib une</w>
pens ait</w>
f .
incon véni
st op
aris to
pl aine</w>
inscri ptions</w>
mari o</w>
se ins</w>
iss é</w>
ss ant</w>
bou le</w>
dés espé
chauff er</w>
propr ement</w>
administr ations</w>
qu eurs</w>
désol é</w>
polé mique</w>
pass e
dom ini
cor rection</w>
f el
évo quer</w>
accro issement</w>
éta ges</w>
f res
an gu
cli c</w>
refl ète</w>
tu euse</w>
doc trine</w>
cro issant</w>
fi gar
regar dez</w>
sév ère</w>
sex es</w>
moham ed</w>
inv ali
i d
h ad
g at
lour des</w>
r t
f ill
j an</w>
contribu ent</w>
res source</w>
simul tanément</w>
po ts</w>
pyré nées</w>
fi ches</w>
command é</w>
re z-
endom mag
sou hait</w>
e fs</w>
m ecs</w>
ré ti
im provis
mar éch
écl at</w>
ad mission</w>
plain tes</w>
révol te</w>
échantill ons</w>
met tra</w>
n è
administr atifs</w>
enquê teurs</w>
ra b
.. ...</w>
distin c
per due</w>
réser voir</w>
phra ses</w>
f mi</w>
a a</w>
répon dant</w>
cri ts</w>
immeu bles</w>
es co</w>
honn ête</w>
attribu é</w>
volon tiers</w>
g él
car rés</w>
ist ent</w>
cu ba</w>
fam euse</w>
vis ent</w>
cy lin
concer tation</w>
sépar er</w>
fu r
s aine</w>
condam nation</w>
parti el</w>
cr oient</w>
consis tant</w>
juridi ction</w>
dis ons</w>
im mi
reç us</w>
entre pris</w>
assis tant</w>
op us</w>
l ène</w>
anec do
gî te</w>
scé nar
tex ture</w>
stric tement</w>
mét aux</w>
r ation
classi fication</w>
cul pa
oxy de</w>
tradu ire</w>
prot ège</w>
or di
déli cieux</w>
th aï
ray onnement</w>
rom ains</w>
déri vés</w>
pou let</w>
ge able</w>
indi cation</w>
ass aut</w>
rem et</w>
cess er</w>
cré ateurs</w>
ré uni</w>
du el</w>
thé matiques</w>
ran d</w>
commiss ariat</w>
ferrovi aire</w>
propa g
cl and
bai ser</w>
dénon cé</w>
vis a</w>
inter dire</w>
con join
fab rique</w>
ra mi
grec que</w>
ab sen
offer te</w>
smi th</w>
re y</w>
boute illes</w>
ti rage</w>
épan ou
b u</w>
entr ain
se d</w>
pl éni
â ne</w>
bul l</w>
o ises</w>
prê tres</w>
souff rir</w>
emball age</w>
ches ter</w>
ass ou
cland esti
œu f</w>
origin alité</w>
observ ateurs</w>
occup ée</w>
p et
vaiss eau</w>
quelque fois</w>
arri ère-
sou tenue</w>
visu elle</w>
sau ra</w>
rou manie</w>
k el
th is</w>
dang ers</w>
ge a</w>
popul arité</w>
exi gence</w>
éle ver</w>
construc tions</w>
ap portent</w>
14 ,
souver ain</w>
ab aiss
le i
dé lin
di a
sty les</w>
pay és</w>
ap pren
émer gence</w>
pré co
s at
al p
proté gé</w>
ol d</w>
sug gère</w>
quelques- uns</w>
en com
pi er</w>
y ou</w>
3 ème</w>
am bul
or ale</w>
march and</w>
trouv ant</w>
f m</w>
édi tori
fi a</w>
sen tent</w>
lo int
indon é
nu ages</w>
systé matique</w>
sur prises</w>
diffici lement</w>
qui er</w>
métro poli
ther mo
résul tant</w>
entrepren eur</w>
atta qué</w>
ré gn
ssi s</w>
réci pi
in gue</w>
détec ter</w>
comp tabilité</w>
rem u
sélectionn és</w>
implan tation</w>
inv esti</w>
anc y</w>
e ch
polon ais</w>
es poi
en visage</w>
voul ant</w>
des sert</w>
ab e
humi dité</w>
bou dd
ten tent</w>
ver rou
au be</w>
ro ss
stati onnement</w>
sus cité</w>
mou l
fraî che</w>
bri s</w>
mas sive</w>
soign er</w>
au té</w>
idé alement</w>
choisi e</w>
cli cs</w>
passi ons</w>
dic ta
cr eux</w>
s cor
and er</w>
ai es</w>
dé montre</w>
c ave</w>
man ge</w>
ra chat</w>
religi ons</w>
trim ent</w>
wor k</w>
196 7</w>
spati ale</w>
rac cour
gu ise</w>
pass era</w>
néer landais</w>
dé men
magis tr
lac s</w>
accu sation</w>
cad av
cli chés</w>
ade p
bou ger</w>
po dium</w>
ab ra
ris quent</w>
fon de</w>
défen d</w>
pen ses</w>
au tru
fon te</w>
pré para
costu me</w>
compens ation</w>
publi ées</w>
r â
avan tag
res tée</w>
dénon ce</w>
es tom
libér aux</w>
co ol</w>
c ède</w>
reli ef</w>
pré occupation</w>
pour suivant</w>
po ta
ck et</w>
rap procher</w>
s ph
hâ te</w>
éché ance</w>
vo ca
fis calité</w>
cy ber
bil l</w>
neu ve</w>
n ag
ver be</w>
fra gile</w>
con cessi
crain dre</w>
é pon
fol le</w>
volon tairement</w>
dé vou
s ati
démar rer</w>
soign eusement</w>
estim ations</w>
pi le</w>
cardin al</w>
é gi
caiss es</w>
blo cage</w>
fl an
reti ré</w>
chirur gie</w>
réfrigé rateur</w>
conduc teurs</w>
indica teur</w>
arbi tre</w>
lu t
blo cs</w>
bi ble</w>
manu factu
y le</w>
s- de-
dérou lement</w>
b ce</w>
restri ctions</w>
terres tre</w>
fourni es</w>
lam pe</w>
v u
hu go</w>
mar tin
dé pou
origin aires</w>
vari és</w>
o v</w>
unanim ité</w>
in dex</w>
patri e</w>
accompl i</w>
di ques</w>
ti er
e go</w>
demeu rent</w>
rassembl er</w>
tionn é</w>
slo va
dé pression</w>
gra m</w>
tolé rance</w>
conç us</w>
cou rante</w>
b ou</w>
fondamen tal</w>
el les-
construc teurs</w>
is ti
ca st
po êle</w>
formu la</w>
occu r
ar i</w>
em ens</w>
av oit</w>
avou er</w>
em ble</w>
em bra
gu y
évolu é</w>
pos téri
manipul ation</w>
ci r</w>
s ali
éti quette</w>
k en</w>
affec té</w>
rou ler</w>
for cé</w>
pré déc
composi teur</w>
cro issante</w>
pou tine</w>
regar dant</w>
k ab
pos tu
vers ailles</w>
sta te</w>
pro vient</w>
aéri ennes</w>
agré ables</w>
cli p</w>
t euses</w>
ch è
diminu é</w>
vrai sembl
alli é</w>
bas -
cre ts</w>
correc t</w>
do tée</w>
soi -même</w>
robo t</w>
ist an
d j</w>
goû ter</w>
cor des</w>
enca drement</w>
artis tiques</w>
en sem
sym bol
é pu
argu men
cé li
récol te</w>
is h
19 40</w>
sus p
ju les</w>
embl é
gouvernemen tale</w>
s essions</w>
labor atoires</w>
lo b
se z-
3 60</w>
sta ges</w>
b arrière</w>
oxy gène</w>
fin es</w>
edu cation</w>
dis pers
fi ants</w>
sén ateur</w>
chô meurs</w>
com prise</w>
thé matique</w>
tou ts</w>
hé site</w>
chi cag
mess ag
appréci ation</w>
gesti onnaire</w>
élar gir</w>
poé tique</w>
r en</w>
d ations</w>
cardi aque</w>
ru re</w>
pè ler
s œurs</w>
al ex</w>
franco phones</w>
ach ète</w>
crip t</w>
en er
fo yers</w>
sur vivre</w>
annon cée</w>
c ain</w>
f oie</w>
on é
recue illir</w>
k -
étroi tement</w>
ay a</w>
pé nal</w>
al location</w>
orlé ans</w>
1 1.
char lie</w>
cam ion</w>
aim ez</w>
cl an</w>
amour euse</w>
per s</w>
is ait</w>
altern ance</w>
entre prendre</w>
adhé rents</w>
portug ais</w>
sen sations</w>
l ave
ton y</w>
avi ation</w>
lég ale</w>
di vin
connec té</w>
ter ez</w>
man quent</w>
ter rass
amélior ations</w>
recor ds</w>
pu ri
bal con</w>
ty pique</w>
espoi rs</w>
ex hau
cour be</w>
ins pire</w>
paro isse</w>
ch ir</w>
x xe</w>
m iss
dynam iques</w>
ass e
at tar
sé né
prim ordi
le ague</w>
discipl ines</w>
7 e</w>
organis és</w>
k ong</w>
cli quer</w>
autor ise</w>
tom ates</w>
pe p
2 8
parisi ens</w>
di ra</w>
éven tail</w>
t f1</w>
failli te</w>
ez- moi</w>
re connus</w>
rem or
te int</w>
k al
fer n
tch ou
oi es</w>
chapi tres</w>
c l</w>
tou chés</w>
reç ues</w>
ill és</w>
tem pl
bi ologiques</w>
conserv ateurs</w>
ch ris</w>
sol aires</w>
modu les</w>
c teur</w>
li m
œu v
annu els</w>
fondamen tales</w>
ins tin
cal ais</w>
spécifi quement</w>
sa chez</w>
intermédi aires</w>
dou tes</w>
cri re</w>
benjam in</w>
qu era</w>
v la
di vine</w>
appropri ée</w>
dé triment</w>
13 ,
aiss ait</w>
développ ée</w>
parta gent</w>
al ter
nouv eau-
no ctur
anony me</w>
orien ter</w>
ta ï
fran cis</w>
lor raine</w>
v ez</w>
exter nes</w>
photograph ies</w>
plon gée</w>
phon ie</w>
emi e</w>
mathi eu</w>
eff ray
ci ers</w>
par is-
poussi ère</w>
suspen du</w>
f ous</w>
ol et</w>
sa ï
fédé r
ré cur
plai gn
bl in
espagn ols</w>
identi ques</w>
hol ly
i di
ro bin
trans porter</w>
chan ce
enregistr és</w>
carre four</w>
o pa
all ais</w>
const ant</w>
profon des</w>
affir mant</w>
voul aient</w>
mo tion</w>
rel ance</w>
li o</w>
ve dette</w>
pavill on</w>
occu pés</w>
o sci
chicag o</w>
pak istan</w>
franch ir</w>
par aly
nu e</w>
op le</w>
ch rome</w>
ru meurs</w>
itinér aire</w>
ét hi
allu re</w>
il la</w>
pon ts</w>
jeux jeux
ambi tieux</w>
vari er</w>
10 -
ha w
compa tri
sy rien</w>
techni cien</w>
bour ses</w>
i z
c v</w>
avi ez</w>
rel ax
pr ou
im matri
pr ai
intri gue</w>
contr aste</w>
pan ne</w>
cg t</w>
sup pli
in flam
propag ande</w>
me aux</w>
sta t</w>
com poser</w>
écriv ains</w>
tes té</w>
poursui tes</w>
go th
rac ine</w>
gar der
al la</w>
possé dant</w>
dat ant</w>
c ouverts</w>
anti qui
camé ras</w>
challen ge</w>
mon ar
adres sée</w>
passi onné</w>
an or
cos mé
gu re</w>
â gée</w>
cui vre</w>
p ez</w>
chanti ers</w>
li ège</w>
entre tiens</w>
senti ers</w>
aff ection</w>
immatri cul
ag enda</w>
indi gn
éclai r
maj or
uni ques</w>
on ale</w>
in ter</w>
ré elles</w>
gal ax
na les</w>
dé pense</w>
effecti ve</w>
traver sée</w>
t ailles</w>
ven d</w>
pou ces</w>
fraî cheur</w>
littér alement</w>
con den
dra gon</w>
régim ent</w>
bar s</w>
s no
go t</w>
trim es
par oi</w>
mar ty
fabri qué</w>
fonctionn el</w>
1 ère</w>
jean- claude</w>
ang les</w>
légiti mité</w>
gren oble</w>
admi rer</w>
t ois</w>
194 4</w>
co t</w>
bu sh</w>
subst anti
vari ation</w>
col le
contin en
w ell</w>
assassin at</w>
anci er</w>
mas cu
arth ur</w>
ne ts</w>
ren voie</w>
0, 00</w>
dess inée</w>
s ég
ri té</w>
co in
t onne</w>
gu és</w>
pass ez</w>
ss on</w>
caracté rise</w>
mo derni
obs cu
abouti r</w>
k ar</w>
mi tés</w>
g all
p el</w>
civi les</w>
li bre
cou pes</w>
consom mer</w>
ch lor
cat aly
renouvel ables</w>
moder nisation</w>
ch u</w>
ci enne</w>
parado x
pi ét
a char
t atifs</w>
son y</w>
concr ètes</w>
fra g
ro che</w>
coura g
rétabli r</w>
com bler</w>
é mi
subi t</w>
quali fier</w>
libé ré</w>
chi c</w>
plon ger</w>
ta bil
c avi
arrê ts</w>
mira cle</w>
men a
dom es
pen sions</w>
appro xim
défin ies</w>
w er
m b
har ry</w>
calcul er</w>
noti fication</w>
quar antaine</w>
repor tage</w>
ral entiss
me e
hél ène</w>
réguli ers</w>
n .</w>
ris on</w>
géograph ie</w>
millén aire</w>
histori en</w>
vide o</w>
pan talon</w>
na ître</w>
path ie</w>
rd v
v ements</w>
jou ets</w>
joli es</w>
quat or
pertin ence</w>
ad ou
br un</w>
sai son
positionn ement</w>
bizar re</w>
b et</w>
appel ait</w>
ma xi
essay e</w>
re dev
ra ci
nd lr</w>
épau le</w>
ali s</w>
aven tu
mascu lin</w>
cho s</w>
197 1</w>
inter action</w>
mer veille</w>
e le</w>
w in</w>
cau sé</w>
par -
cha os</w>
indem nité</w>
onn ent</w>
lau ré
tren te-
évacu ation</w>
anti ques</w>
ste ve</w>
hi p
confir mation</w>
for tu
consi dèrent</w>
pai e</w>
com prim
détermin e</w>
inqui ét
lieu tenant</w>
ray mond</w>
marchan ds</w>
frap per</w>
re gi
domes tique</w>
pertin entes</w>
musul man</w>
mon des</w>
collecti fs</w>
ro ber
lingu istique</w>
intéres santes</w>
compa tibles</w>
identi fié</w>
rem place</w>
ar naud</w>
escl av
insis té</w>
en sole
cé ra
r hu
in oubli
co 2</w>
réserv ée</w>
escl aves</w>
symbo les</w>
cass er
automobi les</w>
cinqu antaine</w>
ass ain
g ps</w>
fer ai</w>
k es
char i
demand a</w>
tri ple</w>
rdv medi
lav al</w>
tu es</w>
su ng</w>
dy s
fabric ants</w>
fall oir</w>
pass es</w>
rési denti
nég ative</w>
lumin euse</w>
do m</w>
pres s</w>
ver tus</w>
m w</w>
ru t</w>
t ter
tu m</w>
tu bes</w>
ta y
cro isi
fonctionn aire</w>
ren tabilité</w>
figar o</w>
vi gno
dégag er</w>
médi cales</w>
magné tique</w>
restruc turation</w>
établi es</w>
he in</w>
re pli
étudi e</w>
tran ches</w>
nom mer</w>
her bes</w>
bal ay
mo z
viv ante</w>
illu sion</w>
re je
eu s</w>
15 ,
trac é</w>
stu pé
limi tation</w>
sou mises</w>
ai s-
gr ain</w>
mar ches</w>
v am
consac re</w>
prof ils</w>
octro i</w>
ver b
permet tait</w>
vari étés</w>
envoy és</w>
refroi dissement</w>
a qui
è lent</w>
ti bilité</w>
6 0
no stal
inté grés</w>
r ault</w>
harmon i
i d</w>
pe ople</w>
théori que</w>
hau tement</w>
limi tées</w>
péri mètre</w>
b -
v et
confor mes</w>
é touff
bour gogne</w>
pa ck</w>
h l</w>
o '</w>
par don</w>
char mant</w>
défin is</w>
jui ve</w>
un esco</w>
saou dite</w>
régl age</w>
gram me</w>
dé tient</w>
ver rez</w>
rac tions</w>
a xi
capit alisme</w>
abri te</w>
candi date</w>
ép ée</w>
s ine</w>
mo is
boî tes</w>
confi er</w>
mo in
soci o-
medi a</w>
gr aiss
atten dus</w>
vê tement</w>
tra jec
s phère</w>
poi l</w>
co gni
liv ret</w>
ou ld</w>
accu se</w>
par i</w>
s ori
hiérar chie</w>
trouv aient</w>
f ass
flor ence</w>
réci pro
or ches
ambi tions</w>
bé ni
f o</w>
insec tes</w>
des truc
3 5
ar bor
sué dois</w>
calcul s</w>
fi ables</w>
min orités</w>
trans vers
qui conque</w>
élég ance</w>
pl aisi
fond ement</w>
imprim é</w>
jor dan
desti nat
n ad
rédi gé</w>
ex il</w>
cass er</w>
adi s</w>
da d</w>
comm émor
j .
vi ons</w>
formu les</w>
consen tement</w>
ju pe</w>
pass er
casin o</w>
pl i</w>
re vers</w>
hu mili
pneu s</w>
tér aux</w>
cré tion</w>
mu le</w>
compos antes</w>
class és</w>
fl ag
con templ
te té</w>
men ant</w>
off rons</w>
évi te</w>
dé tourn
bat aill
ouv rant</w>
ru rales</w>
jam be</w>
n us</w>
a touts</w>
gu ée</w>
mé pris</w>
sou pl
clin ton</w>
i rait</w>
diplom atique</w>
maqu illage</w>
connaiss ait</w>
connaiss ez</w>
vie w</w>
i ront</w>
humi de</w>
c c
res tes</w>
ré clame</w>
ap pé
min é
atti ré</w>
astu ces</w>
po ches</w>
mystéri eux</w>
rel ancer</w>
f â
nour r
di oc
mu sc
oblig at
civi lis
idé ologie</w>
val ue</w>
cen ter</w>
colon ies</w>
éventu elles</w>
ul tra-
gen oux</w>
ab oli
ad mettre</w>
mété or
psych ologie</w>
dép ann
ridi cule</w>
ex poser</w>
dr er</w>
requé rant</w>
départemen tal</w>
autoris és</w>
représen tés</w>
blo gs</w>
n ais</w>
pi é
em par
gé or
cher chez</w>
progres sive</w>
adres sé</w>
recue ill
contes tation</w>
apparti ennent</w>
oppos ants</w>
téléphon ique</w>
dé faill
em a</w>
israéli ens</w>
ann es</w>
neu tre</w>
t cha
sédu ire</w>
du dit</w>
ajou t</w>
innov ations</w>
ç à</w>
lo ve</w>
briga de</w>
cl ari
ma de</w>
s pa</w>
en chan
1 1,
min orité</w>
israéli en</w>
prim iti
poi vre</w>
196 9</w>
sav oie</w>
cli p
titu laires</w>
philosoph e</w>
chron iques</w>
ré partis</w>
on al</w>
ob il
t- là</w>
possé der</w>
aim ait</w>
nouveau té</w>
re aux</w>
appel lation</w>
islam istes</w>
rom antique</w>
bru s
bul gar
assu ran
ge ance</w>
qualifi cations</w>
cy cles</w>
in contes
h ard</w>
ch aises</w>
gui des</w>
con solid
o ver
accompagn és</w>
e tienne</w>
ouv rier</w>
répar er</w>
vieill issement</w>
déc ors</w>
ay ez</w>
et ti</w>
ex pose</w>
l ing
mè nent</w>
gratu ites</w>
pro spec
discipl inaire</w>
shei m</w>
pi de</w>
cons ol
inf ractions</w>
domin ante</w>
fier té</w>
fauss es</w>
spéci alisées</w>
épi ces</w>
gi gan
bar rage</w>
parti elle</w>
multi -
trouv ée</w>
affec tation</w>
- de-
répé ter</w>
res tés</w>
dies el</w>
d s
pa tin
pédag ogiques</w>
sépa rés</w>
int olé
al arme</w>
vol é</w>
pro di
in jection</w>
si de</w>
in capacité</w>
pè se</w>
cour tes</w>
analy stes</w>
enver gure</w>
studi os</w>
génér eux</w>
ép in
mentionn és</w>
m ers</w>
8 0
di vul
se .
progres sé</w>
équi pés</w>
n ancy</w>
félici te</w>
sav eurs</w>
s cep
renouvel er</w>
por traits</w>
minim ale</w>
brav o</w>
colom bi
défen seurs</w>
ter ons</w>
débarrass er</w>
extr action</w>
illustr ation</w>
senti er</w>
écol ogie</w>
maj oritairement</w>
prim es</w>
w el
fu ri
re produire</w>
bo is
au rons</w>
co c
barbe cue</w>
vali dation</w>
célébr er</w>
av al</w>
gl isser</w>
v ar</w>
mu tation</w>
interro ge</w>
fre in</w>
élec trom
car aï
ely sée</w>
plan ches</w>
rédu ctions</w>
occur rence</w>
o per
assembl age</w>
o pe</w>
bal ade</w>
g ym
péri l</w>
2 9
an t-
eu ve</w>
t ler</w>
you gos
sén ateurs</w>
chev ê
cuis ini
télé communications</w>
publici taires</w>
revendi cations</w>
gui der</w>
mé len
succ esseur</w>
pê cheurs</w>
main tient</w>
o la</w>
main tenu</w>
l enti
vi agra</w>
an t
trau mati
soupl esse</w>
re d
démocra tes</w>
suspec t</w>
sta gi
polo gie</w>
ô tres</w>
sou vient</w>
ira ki
proph ète</w>
ameri can</w>
condam nés</w>
direc tions</w>
et t</w>
con venu</w>
origin aux</w>
am ing</w>
j .-
19 30</w>
considé rées</w>
poi v
é oli
habitu el</w>
musi cien</w>
n oi
li tion</w>
camp us</w>
ris ation</w>
ral enti
bo ard</w>
k es</w>
inv asion</w>
al té
alimen ter</w>
ven ise</w>
ar de</w>
cir que</w>
n at</w>
san ction</w>
tun nel</w>
om s</w>
ra p</w>
ad os</w>
ol o</w>
li fe</w>
séqu ences</w>
préten dre</w>
échap pe</w>
québéco ise</w>
mes- nous</w>
ambass ade</w>
ç aient</w>
spéci alité</w>
révél ation</w>
matu rité</w>
gr u
demand ait</w>
rend s</w>
su isses</w>
triom ph
assain issement</w>
pilo tage</w>
der ont</w>
et a</w>
fon dre</w>
no is
ci tation</w>
enregistr ée</w>
per sécu
l ations</w>
la me</w>
ss er</w>
discr et</w>
opti male</w>
délégu és</w>
vi tesses</w>
12 -
ca teurs</w>
inci dents</w>
orth odo
h exag
prê ter</w>
au xi
f le</w>
re porter</w>
lati tude</w>
fourni e</w>
lou ise</w>
soli tude</w>
te z-vous</w>
bibliothè ques</w>
domesti ques</w>
panor am
th y
divor ce</w>
isol ation</w>
amu ser</w>
r us</w>
mor ph
ob tenue</w>
compos ent</w>
car net</w>
sain ts</w>
attein ts</w>
gigan tes
environnemen tales</w>
appar u</w>
sin gle</w>
sé qui
délég ations</w>
fix ées</w>
collectionn eurs</w>
som mes-nous</w>
bio diversité</w>
di visions</w>
é cus</w>
10 0
ran ger</w>
sal ade</w>
at e
struc tur
ath lè
jean- paul</w>
c atif</w>
gran dis
donn ez</w>
8 e</w>
dégu ster</w>
fau tes</w>
soix ante-
z ac</w>
obten ez</w>
car to
ag issent</w>
a tout</w>
tragédi e</w>
dé pass
toil ette</w>
af ter</w>
bra cel
s- là</w>
o ke</w>
parta gée</w>
él an</w>
gé ri
lè vements</w>
sécuris é</w>
handica pées</w>
déci dent</w>
mon stre</w>
blu es</w>
occup ant</w>
a par
re port</w>
adop tées</w>
we ek</w>
coï n
oc de</w>
c ouverte</w>
éventu els</w>
fe der
pré s</w>
concr ètement</w>
jordan ie</w>
sil hou
to x
pi vo
196 2</w>
répé tition</w>
chil i</w>
pow er</w>
gran d
aveu gle</w>
mari ée</w>
bap tiste</w>
déc lin</w>
e h
1 1-
5 00
ex oné
préten d</w>
ex acte</w>
bi ographie</w>
min ce</w>
es car
suppl é
ra mass
ingéni erie</w>
i -
définiti f</w>
o che</w>
fourn issent</w>
terr eur</w>
intéres sants</w>
athlè tes</w>
gabri el</w>
séri euse</w>
manifes ter</w>
ad é</w>
particul arité</w>
entre vue</w>
es sor</w>
im per
gran dement</w>
i k
justi fie</w>
tr ist
mi ke</w>
g res</w>
new -
para graphes</w>
vend eurs</w>
cr yp
se ine-
défil é</w>
mélen chon</w>
2 7
fi ent</w>
a justement</w>
lu cr
iss aient</w>
s as</w>
econom ie</w>
franç oise</w>
enten ds</w>
autoris ée</w>
ges tions</w>
genti ll
au tique</w>
réserv ations</w>
ni enne</w>
bl on
g u</w>
déç u</w>
ali ce</w>
hydr au
grand- mère</w>
péri odi
cu its</w>
direc ts</w>
oblig atoires</w>
illu min
desti nations</w>
vi gnes</w>
pénétr er</w>
déli cat</w>
lo r</w>
po ème</w>
2 6
o w
bre ton</w>
bâti r</w>
iss antes</w>
ement .
dic tionnaire</w>
e as
rai l</w>
re vues</w>
par tent</w>
tes- vous</w>
pré vision</w>
saint- denis</w>
es ter</w>
c ez</w>
autru i</w>
neu vi
publici taire</w>
sub vention</w>
ét oit</w>
minu it</w>
po èmes</w>
visu els</w>
ca ban
syn chron
dé téri
opérationn elle</w>
dé mén
e es</w>
ti quement</w>
bien veill
empre inte</w>
appar tenance</w>
m s
grand- père</w>
inven ter</w>
acqu ise</w>
hadis tes</w>
trei ze</w>
expres sions</w>
sam sung</w>
ath ènes</w>
ed f</w>
al gori
théori es</w>
mer de</w>
danger euse</w>
financ é</w>
for mées</w>
ell i</w>
3, 5</w>
fond ateurs</w>
préfé rable</w>
p v
au cu
mor ales</w>
rem édi
on t
j im
étern el</w>
précis ant</w>
syn ony
re tours</w>
musc les</w>
auxi li
vis ages</w>
gé rant</w>
suiv ez</w>
écol og
ran données</w>
privilégi é</w>
algori th
is t</w>
ap pré
a ques</w>
ab î
anim ateur</w>
indépend amment</w>
invi ter</w>
dé cer
dé vas
tranqu il
liqui des</w>
contradi c
tou t-
achet eur</w>
pens ant</w>
problé matiques</w>
sti n</w>
rass emble</w>
mé tr
pen sons</w>
bé bés</w>
met tait</w>
conjoin tement</w>
a té</w>
al ban
mo ines</w>
chang ez</w>
ar c
cher chant</w>
re proche</w>
pos tal</w>
vi ves</w>
n in
de d</w>
sag a</w>
colon isation</w>
littér aires</w>
accélé ration</w>
pro viennent</w>
alis ations</w>
inter dite</w>
récep teur</w>
cor ré
souhai tons</w>
origin ales</w>
vers ées</w>
lave -
ensem bles</w>
fl at
racon té</w>
inter actions</w>
lit toral</w>
v ati
endr ons</w>
déc entr
c fa</w>
st and</w>
publi quement</w>
proc esseur</w>
f ed</w>
bapti sé</w>
o b</w>
cari ca
d al</w>
ré habili
gau lle</w>
th or
soulign ant</w>
séné gal
x v</w>
é -
ni k
élarg issement</w>
di d
men s</w>
sauve tage</w>
im pulsion</w>
ation .
const anti
gé ré</w>
passi onnés</w>
ré alités</w>
intéres sent</w>
asse oir</w>
fou lée</w>
éli gi
viol ente</w>
consolid ation</w>
poly mère</w>
genti l</w>
ju lie</w>
bou ff
eu d</w>
dé séqui
dis posé</w>
g s
jo e</w>
har c
deu xi
h r</w>
tranqu illement</w>
soix ante</w>
arti ll
bl ack
re courir</w>
cou ture</w>
concentr é</w>
plu ies</w>
bel l</w>
é pai
jean- marc</w>
sté ré
di rais</w>
di t-elle</w>
sk y
compéti tions</w>
él oi
pen di
é meu
produ ites</w>
régi e</w>
bass es</w>
renfor cé</w>
que- là</w>
relè vent</w>
l us</w>
fran k</w>
contre partie</w>
camerou n</w>
tur c</w>
mar ais</w>
con tes</w>
fis caux</w>
in certitude</w>
pa trons</w>
amen des</w>
cipa tion</w>
bi t</w>
l ente</w>
inci ter</w>
urb ains</w>
le vés</w>
- fi</w>
vou lu
sur prenant</w>
as tre</w>
croy ait</w>
ouv rent</w>
contempor ains</w>
bar be</w>
modifi ant</w>
pr é</w>
ch y</w>
palesti ne</w>
dévoi le</w>
perf ection</w>
az ur</w>
pol i</w>
pou les</w>
ter n</w>
on .
to t</w>
fai lle</w>
ég ales</w>
gî tes</w>
considé rables</w>
al ger</w>
g em
inspec teur</w>
vers ant</w>
pi c
pers o</w>
pro tagon
d un</w>
contr aign
pe dia</w>
entr ent</w>
k ers</w>
si ff
chass eurs</w>
h er</w>
vous- même</w>
as -
com penser</w>
anim ale</w>
plan cher</w>
em porte</w>
ta per</w>
ache vé</w>
an né
prolon ger</w>
cu e
délica te</w>
all y</w>
appropri ées</w>
danger euses</w>
appré hend
maï s</w>
espé rant</w>
alis ant</w>
vers és</w>
nom més</w>
dr o</w>
dé charge</w>
cou sin</w>
cl aires</w>
commun istes</w>
fer mes</w>
témoign ent</w>
oc s</w>
pos ter</w>
sau vé</w>
ob e</w>
shi rt</w>
cuill ère</w>
my the</w>
té -
ss ants</w>
hu mor
accu sés</w>
hypo thèses</w>
pan ique</w>
urb aines</w>
extrê mes</w>
lo w
remar ques</w>
an toni
dev rais</w>
champi gnons</w>
chi rac</w>
distribu er</w>
ve z-vous</w>
tranquil lité</w>
nath alie</w>
dé tenu</w>
pâ tes</w>
jo b</w>
cr é</w>
neuvi ème</w>
t els</w>
ajou tent</w>
proli fé
ge ot</w>
hu n
ci tement</w>
librai rie</w>
ang er</w>
195 8</w>
ca ou
piè ge</w>
è les</w>
ó n</w>
gu éri
3 3
nutri tion</w>
li on
fl èche</w>
on ique</w>
tal ons</w>
ton ie</w>
crain t</w>
jon ction</w>
li ban
plas tiques</w>
v este</w>
agré ment</w>
cl ef</w>
se curi
bo li
susci ter</w>
vigil ance</w>
bo w
z en</w>
ec o
collo que</w>
p aill
diplom atie</w>
moder n
zél ande</w>
altern atives</w>
ti ges</w>
j adis</w>
pl é
2. 0</w>
ber ger</w>
ré agi</w>
réchauff ement</w>
r ine</w>
s log
en caiss
impressionn ant</w>
hor mon
tabl ettes</w>
op ère</w>
bu le</w>
me .
gr ains</w>
z er</w>
municipa lités</w>
in visible</w>
lég ers</w>
susci te</w>
co effici
1 25</w>
dé tour</w>
bl ou
au ver
g èrent</w>
phéri que</w>
posi tives</w>
li r</w>
sco tt</w>
car s</w>
édi té</w>
v .
stand ards</w>
poin g</w>
proté gés</w>
ou ais</w>
ré no
de .
k ad
con fédération</w>
dé missionn
s tion</w>
si ro
n euro
no tation</w>
lé on</w>
i x</w>
mensu el</w>
a x</w>
iss ants</w>
crimin els</w>
invi té
ri gol
ch en</w>
menac é</w>
continu era</w>
engag ées</w>
employ er</w>
san ne</w>
0, 5</w>
ni ens</w>
favor i</w>
man dats</w>
mat er
ly cé
pour riez</w>
trag ique</w>
ll ement</w>
po table</w>
dési rs</w>
vulné rables</w>
pr oie</w>
plaisi rs</w>
h ill
défen du</w>
fonctionn elle</w>
mari é</w>
affir ment</w>
g .
bo ok</w>
physi quement</w>
gu inée</w>
dépos ée</w>
dép ê
réconci liation</w>
triom phe</w>
19 20</w>
renom mée</w>
et ant</w>
colon ie</w>
trou bl
ren force</w>
moderni té</w>
rés ine</w>
s cel
in forme</w>
francis co</w>
hi gh
c d
e o</w>
sé journ
t eur
appli quées</w>
ni ères</w>
le vant</w>
fo ssi
sol li
wh o</w>
fer més</w>
tu aire</w>
commen cement</w>
sé ré
deu il</w>
éventu el</w>
profi ts</w>
exclu sive</w>
rou en</w>
exac t</w>
conten ter</w>
ap h
mondi ales</w>
thérapeu tique</w>
travail leur</w>
histori ens</w>
marse ill
par ait</w>
ograph e</w>
autom obil
impli qués</w>
ir landais</w>
cé sar</w>
i o
démocr atiques</w>
atte intes</w>
maréch al</w>
appl au
er ship</w>
bo isson</w>
géni al</w>
gén ère</w>
municipa ux</w>
or donné</w>
z er
soi e</w>
rembour ser</w>
israéli enne</w>
lis ses</w>
ra ph
désign ation</w>
représen tée</w>
loca lité</w>
co co</w>
trim oni
régl ementaires</w>
cu it</w>
coll ine</w>
améli ore</w>
b êtes</w>
tes .
constitu tionnelle</w>
dimin ue</w>
ciné aste</w>
impos ent</w>
vé los</w>
ten si
re viennent</w>
anti sémi
questi onnaire</w>
capi tu
appar ente</w>
ango isse</w>
sav our
dom ine</w>
n ec
vari ées</w>
oppos ant</w>
spiritu el</w>
combu stion</w>
ver nis</w>
bon d</w>
déliv rance</w>
autoris er</w>
décl in
apr es</w>
impa cts</w>
occiden tal</w>
traver sé</w>
sho p</w>
étudi ante</w>
i ent</w>
ko so
o tte</w>
exi ger</w>
indem nisation</w>
ass ad</w>
métalli ques</w>
fonc é</w>
cré ent</w>
voca bulaire</w>
professi ons</w>
for cer</w>
li ght</w>
cen sé</w>
résis tant</w>
pro f</w>
réglemen taire</w>
arsen al</w>
o .
géné rique</w>
écou lement</w>
enregis tre</w>
troph ée</w>
banc s</w>
ca des</w>
regar dé</w>
ris te</w>
be i
i pad</w>
dimen sionn
rem ment</w>
humani taires</w>
environn ementaux</w>
ra m</w>
tro is-
baiss é</w>
co t
go s</w>
sen su
no blesse</w>
por tion</w>
ck er</w>
sensibil iser</w>
sou dan</w>
onn ant</w>
vi ers</w>
ru ines</w>
dev el
bo b</w>
détaill é</w>
sec tori
entou re</w>
stre aming</w>
anglo -
trai tant</w>
législ atif</w>
quotidi ennement</w>
bo ok
ju an</w>
facili te</w>
be y
inti mité</w>
res pira
to -
cré atures</w>
gend armes</w>
commun al</w>
sorti s</w>
v el</w>
affi ché</w>
impos ée</w>
lors qu</w>
comp tant</w>
caou tchou
rec ti
c ci</w>
mad ele
in connue</w>
vla di
g rég
on u
ci es</w>
signal é</w>
ca m</w>
sign és</w>
confron tés</w>
abor de</w>
éduc atif</w>
fi rent</w>
super bes</w>
ag en</w>
virtu elle</w>
handica pés</w>
confron tation</w>
ence intes</w>
pa ge
amaz on</w>
dou ani
flo re</w>
u. s.</w>
affi ches</w>
gr et</w>
inscri te</w>
per cent</w>
mi ers</w>
blu e</w>
tomb ent</w>
im mu
découv ri
k or
ver res</w>
z z</w>
fabri qués</w>
bri col
isol é</w>
16 ,
éta t-
déten dre</w>
rou tier</w>
spec tre</w>
du rables</w>
plac ées</w>
expli que-
l ou</w>
l n
polici ère</w>
interval le</w>
ro -
ke vin</w>
a g</w>
com modi
de venant</w>
accessi bilité</w>
rassur er</w>
19 ,
viol ations</w>
ta tou
mécan iques</w>
colom bie</w>
gu ay</w>
con gol
d elle</w>
souff rances</w>
wi ki</w>
dévoi lé</w>
dispos ant</w>
meu ble</w>
pe -
distribu teur</w>
che f-
ga te</w>
pho bie</w>
haï ti</w>
vi i</w>
multi média</w>
cro ît</w>
déploy és</w>
qualifi ée</w>
vali dité</w>
deu x-
n ex
ann eau</w>
ko v</w>
potenti ellement</w>
monta gn
steph en</w>
méthod ologie</w>
prin ces</w>
messag erie</w>
lo yer</w>
impos ant</w>
p ill
céli bat
visi té</w>
b ail</w>
éch ecs</w>
jean- marie</w>
sug gestions</w>
subli me</w>
enrich ir</w>
val s</w>
de vienne</w>
si di
min ér
chauff eur</w>
reç ue</w>
exclu sif</w>
ta sse</w>
rencontr ent</w>
hydro gène</w>
k ing
préal ablement</w>
sépa re</w>
pro pul
vin ai
amus ant</w>
arri ver
ac ca
eu ri
dev ais</w>
f la
beau x-
lég ères</w>
achet eurs</w>
pré lèvement</w>
val érie</w>
196 5</w>
tes ta
majeu res</w>
réserv és</w>
conju g
è mement</w>
elles- mêmes</w>
can c
in fini</w>
accue illis</w>
man teau</w>
gener al</w>
hav re</w>
t ou</w>
car am
rép ète</w>
fi cations</w>
for ums</w>
rou lant</w>
collecti ves</w>
musul mane</w>
f ren
trist esse</w>
sec s</w>
le z-vous</w>
mai tr
dou ter</w>
k om
int esti
lég ales</w>
complè tes</w>
copi es</w>
bi ologie</w>
ti rés</w>
flam me</w>
ju m
sacri fice</w>
viol ents</w>
erg onom
ma li
h t
v s</w>
ba ï
is o</w>
musi c</w>
vrai es</w>
ser i
vraisembl ablement</w>
magistra ts</w>
comp tables</w>
rapi dité</w>
jus que-là</w>
développ eurs</w>
ch èque</w>
trom per</w>
m ori
mem bran
au stéri
bénéfici aire</w>
combusti ble</w>
ang ers</w>
radi cal</w>
digi tal</w>
administr ateurs</w>
cam bri
souff rent</w>
au x-
w are</w>
esti mée</w>
répercu ssions</w>
optimis ation</w>
h re
cau ser</w>
spiritu elle</w>
éco sse</w>
ign on</w>
appor tées</w>
cou rent</w>
orbi te</w>
illustr ations</w>
y é
assuran ce-
min eur</w>
ép ais</w>
ass iste</w>
respec té</w>
res senti</w>
col légi
tu ré</w>
ass ises</w>
détéri or
dess iner</w>
ç age</w>
conf is
tax i</w>
vali der</w>
respecti fs</w>
rencontr és</w>
dési re</w>
lec tures</w>
consul tant</w>
ex .</w>
pris onnier</w>
pl u</w>
soli taire</w>
por tera</w>
mili tant</w>
ci ta
cu lo
seg ment</w>
caraï bes</w>
4 50</w>
man chester</w>
po te</w>
pal ette</w>
group ement</w>
past eur</w>
arri vant</w>
é tiques</w>
ne v
compos ante</w>
allem andes</w>
ma trice</w>
attribu er</w>
r ing</w>
anc êtres</w>
lead ership</w>
gn an</w>
sédu it</w>
lor d</w>
û ment</w>
vo s
blo qué</w>
sa che</w>
ris me</w>
gi en</w>
mâ le</w>
an xi
qua tre-
scénari os</w>
rou tière</w>
bou cli
médi ation</w>
j en
p esti
rai t-il</w>
po ol</w>
redres sement</w>
bo y</w>
doubl er</w>
envisag e
caractéris ée</w>
per dus</w>
compar é</w>
pl aire</w>
enseign er</w>
chau di
molécu les</w>
cau chem
ot tes</w>
massac re</w>
sei ze</w>
élég ant</w>
r ain</w>
sen tait</w>
vir gin
dép is
lan gu
juni or</w>
éten du</w>
ag o</w>
ras su
le .
doc torat</w>
is h</w>
d g
vi ti
f ères</w>
ham as</w>
kil os</w>
compli cité</w>
dépar ts</w>
som mets</w>
at h</w>
parfu ms</w>
transpar ent</w>
pou ce</w>
forma ts</w>
dis ais</w>
esclav age</w>
ma d</w>
rel ay
sub jecti
épi cer
atta chement</w>
expli quent</w>
im s</w>
jo yeux</w>
ci tes</w>
licen ces</w>
manifes tement</w>
stabil isation</w>
pa trou
maxi me</w>
ell o</w>
an om
illi es</w>
m -
ag as
ri te</w>
sé jours</w>
dé vi
rol and</w>
chem ise</w>
â ges</w>
vol ati
gardi ens</w>
nom bres</w>
b res
re jet
appro cher</w>
plate formes</w>
col ore</w>
désar mement</w>
harmon isation</w>
ti ser</w>
im passe</w>
euro pages</w>
at l
sav oirs</w>
pi tié</w>
ex o
direc trices</w>
sur pren
crimin alité</w>
techni ciens</w>
bat teries</w>
wiki pedia</w>
contr as
dynam isme</w>
bar on</w>
no tori
p ins</w>
prouv é</w>
tra me</w>
multipli cation</w>
clau se</w>
k u</w>
san s-
class ée</w>
cap ture</w>
l al
confron té</w>
super -
tionn er</w>
préf èrent</w>
breve ts</w>
vol ets</w>
dist ances</w>
fi èvre</w>
di vi
flexi ble</w>
ser ré</w>
sh am
èn ement</w>
ab str
hy per</w>
ré veil</w>
chu tes</w>
divis é</w>
instru men
énergé tiques</w>
défin itions</w>
amélior é</w>
dioc èse</w>
artill erie</w>
vas tes</w>
organ iques</w>
ins ta
o th
196 4</w>
con fé
inspi rée</w>
renfor cée</w>
sè ches</w>
mos quée</w>
ter ne</w>
syri enne</w>
gi o</w>
citoy enneté</w>
gre en</w>
rempli e</w>
mom en
diplô més</w>
habitu elle</w>
pho re</w>
peu geot</w>
ascen sion</w>
mo l</w>
man ne
ra té</w>
ce f</w>
diffé remment</w>
exag é
rév èlent</w>
ha y
1- 1</w>
poi ls</w>
gal eries</w>
s ms</w>
fes ses</w>
lis bonne</w>
bo x
constitu ant</w>
met z</w>
p m</w>
insuffis ance</w>
per les</w>
veu ve</w>
am ster
catastroph es</w>
vis eur</w>
willi ams</w>
le vier</w>
b and
17 ,
di lu
color is</w>
res sortir</w>
mons tres</w>
consac rés</w>
quator ze</w>
hor s-
crédi bilité</w>
pl ait</w>
ai dent</w>
dé coura
ro b
son t-ils</w>
répé ti
on ie</w>
impli qué</w>
ra fraî
fab ul
lin ux</w>
sav eur</w>
affai bli
avanc és</w>
co s</w>
an terie</w>
c f.</w>
chal et</w>
excell ents</w>
virtu el</w>
vi des</w>
car los</w>
rajou ter</w>
eth nique</w>
1, 2</w>
h p</w>
souff ert</w>
aver tissement</w>
céré bra
mi gra
écri tes</w>
christi anisme</w>
tar iste</w>
som bres</w>
den taire</w>
entou rée</w>
ath an</w>
cour eurs</w>
cam ions</w>
considé rations</w>
inspi rer</w>
harc èlement</w>
e bay
whi te</w>
196 6</w>
tradi tionnellement</w>
vi ol</w>
adop te</w>
illustr é</w>
oli que</w>
ca bine</w>
s bourg</w>
sa y</w>
adoles cent</w>
co sta</w>
car rément</w>
cellu laire</w>
pâ tiss
l la</w>
do wn</w>
ran gement</w>
pira tes</w>
charman te</w>
bâ ti</w>
hab il
prend ront</w>
sépar é</w>
esti mant</w>
le x</w>
accueill ant</w>
es h</w>
croy ances</w>
proté gée</w>
w n
na c</w>
fir st</w>
justi n</w>
retrouv és</w>
ss ement</w>
m u</w>
antoni o</w>
compéten ts</w>
dan ser</w>
assu rés</w>
lég end
chor ég
h in
réclam er</w>
to t
sur monter</w>
austéri té</w>
notre- dame</w>
n ale</w>
fu sionn
héroï ne</w>
fix es</w>
esti mer</w>
li aisons</w>
o ta</w>
ju gée</w>
si ers</w>
nég atifs</w>
endet tement</w>
interpré ter</w>
évo quant</w>
si r</w>
et ait</w>
em pi
bo ston</w>
i voi
pi an
actionn aire</w>
immobi liers</w>
bas cul
préserv ation</w>
conqu érir</w>
ju p
at or</w>
appel ant</w>
coff re</w>
ograph iques</w>
ressorti ssants</w>
grav ement</w>
k ay
associ e</w>
enregistr ées</w>
ger man
cro qu
ar ou
compl été</w>
lu dique</w>
compl ets</w>
dé ception</w>
figu rer</w>
vo le</w>
pes er</w>
access oire</w>
m org
brési lien</w>
mu re</w>
constru its</w>
cass ation</w>
l oi
propi ce</w>
déli t</w>
emprun t</w>
su bor
honn ê
i '</w>
com parti
détermin ant</w>
phili pp
observ ateur</w>
xvi iie</w>
ra f
ita li
po sera</w>
mar tine</w>
scol arité</w>
inqui études</w>
v anc
ca pri
tis ation</w>
in dési
f us</w>
sal ons</w>
pay e</w>
requ ises</w>
ré -
fonctionn ent</w>
exhau sti
an ts.
affec tés</w>
n ac
commen té</w>
juris prudence</w>
décal age</w>
pres criptions</w>
in nom
liné aire</w>
tend resse</w>
cl ément</w>
mari er</w>
circonst ance</w>
sh opp
st ore</w>
valoris er</w>
gesti onnaires</w>
sign at
hon g</w>
vou lez-vous</w>
adap te</w>
tr ad
dy nas
perç u</w>
cli n</w>
s ad
du rs</w>
t d</w>
mentionn ées</w>
respec tant</w>
ma ç
compéten tes</w>
chang ent</w>
fra ction</w>
par venu</w>
fin esse</w>
t su
conver tir</w>
fu mer</w>
dj an</w>
vois inage</w>
res sentir</w>
re partir</w>
chu re</w>
é numé
ssi n</w>
oblig és</w>
génér aliste</w>
rési dent</w>
majes té</w>
mac é
ven geance</w>
sui vis</w>
mi- temps</w>
gen te</w>
retrouv ée</w>
cli que</w>
em y</w>
indem nités</w>
ti ennes</w>
her vé</w>
repé rer</w>
réalis me</w>
essay ez</w>
notori été</w>
monas tère</w>
acc al
départemen tale</w>
ner veux</w>
ph al
gran di</w>
w an
196 3</w>
extré mis
aî né</w>
ationn el</w>
costu mes</w>
gi t</w>
au l
pai sible</w>
évê ques</w>
regroup ement</w>
g ad
bor ne</w>
ill y</w>
é mouv
ma sses</w>
jack son</w>
ori es</w>
casser ole</w>
stimul er</w>
ab ore</w>
dev rez</w>
t r</w>
spéci alités</w>
spl endi
mon te
sou mission</w>
suff rages</w>
mar bre</w>
archi t
trouv a</w>
clar té</w>
commen ça</w>
qu erait</w>
bru y
so s</w>
dou bles</w>
gre en
sou tiennent</w>
anim ée</w>
nou s-
ré i
all ai
dé place</w>
reconnaiss ant</w>
fran ck</w>
tr ain
ri val</w>
un d</w>
im pec
et ta</w>
affir mation</w>
z om
extré mités</w>
ren ou
ba les</w>
remédi er</w>
pass a</w>
hor mis</w>
pu le</w>
. --
pleu rer</w>
recher ché</w>
intéri eurs</w>
dés espoir</w>
g ali
tin t</w>
ex clu</w>
empê ché</w>
st one</w>
ar re</w>
dé vor
jour -là</w>
ly n
y am
do -
icô nes</w>
il e-
ca ï
rétabl issement</w>
mé ridi
légi on</w>
mai son
u to
connec tés</w>
sar ah</w>
réu ss
tin a</w>
impres sions</w>
bu lle</w>
bro oke</w>
archit ectu
3 000</w>
n el
ab il
influ ences</w>
ann e-
rédu its</w>
successi vement</w>
ar chevê
fon der</w>
transi t</w>
incar ne</w>
pharmaceu tiques</w>
on y</w>
répu té</w>
p air</w>
pan i
péri té</w>
trouver ont</w>
di ct</w>
tro t
ann i</w>
fa q</w>
pé ché</w>
fu sill
expos ées</w>
on gles</w>
lu ttes</w>
promo tions</w>
im patience</w>
ru rale</w>
é clip
7 0
ly onnais</w>
prolifé ration</w>
ador é</w>
compéten te</w>
com pression</w>
jou ir</w>
écol ogiques</w>
pa quets</w>
ru is
r s
ti nes</w>
vladi mir</w>
résol u</w>
b û
ro cher</w>
flu or
tur cs</w>
hom ogène</w>
myth ique</w>
confor tables</w>
9 e</w>
da e</w>
trai tées</w>
recycl age</w>
curi e</w>
o pi
par ois</w>
reti re</w>
dis posez</w>
soci ologie</w>
24 h</w>
dou zaine</w>
oppos és</w>
crimin el</w>
cop ains</w>
menson ge</w>
su n</w>
icô ne</w>
aff ecti
as tronom
is ez</w>
illi e</w>
bap t
eng ou
marqu is</w>
ta ches</w>
bactéri es</w>
inven té</w>
cotis ation</w>
isol ement</w>
don ateurs</w>
refu sent</w>
lu s
par aissent</w>
isab eth</w>
en ter</w>
libé rale</w>
pertin ents</w>
pri oritaires</w>
g lisse</w>
reli é</w>
rap proche</w>
ann exes</w>
prélimin aire</w>
smart phones</w>
jean- louis</w>
cal yp
caoutchou c</w>
agré men
dicta ture</w>
admi ration</w>
aimer ait</w>
in cul
flexi bilité</w>
prestigi eux</w>
fi fa</w>
nouvelle- zélande</w>
audi tion</w>
secrè te</w>
voy ance</w>
mo s</w>
gou ttes</w>
chron i
contrô lée</w>
man quait</w>
do ise</w>
rom pre</w>
char lotte</w>
mar y</w>
com ble</w>
nor vé
contrô leur</w>
ter ais</w>
dispu te</w>
co di
rez- de-
gar anti</w>
rem ents</w>
souhai tant</w>
développ ements</w>
vati can</w>
ger main</w>
ar che</w>
g ang
omè tre</w>
pa re</w>
si er
cen sure</w>
sav ou
sup porte</w>
ét off
and ais</w>
arbi trage</w>
ca te</w>
avanc ement</w>
m ec
concern ée</w>
outre- mer</w>
ni ck
tou chent</w>
jus tes</w>
excu se</w>
servi ra</w>
pu ce</w>
équi té</w>
en chères</w>
val u</w>
proba bilité</w>
héber gements</w>
pré férences</w>
abon dance</w>
ab sent</w>
imagin é</w>
télé spectateurs</w>
éri c</w>
assembl ées</w>
ru ss
madele ine</w>
domin é</w>
compl ét
ari o</w>
ins ol
du ré</w>
s chi
assu jet
terr oir</w>
mer kel</w>
poli s</w>
ak i</w>
mar ges</w>
tex as</w>
loisi r</w>
is ants</w>
ap titude</w>
gn ac</w>
couver cle</w>
épidé mie</w>
in u
fréqu ences</w>
e ws</w>
musi cales</w>
re ten
m aine</w>
qu aient</w>
am ies</w>
loca taire</w>
o .</w>
spe ci
fri go</w>
vill e
gentill esse</w>
hospita lier</w>
gar y</w>
cham p
al locations</w>
at terr
chê ne</w>
met tons</w>
scho ol</w>
né o
des quels</w>
vis tes</w>
nav al</w>
pe indre</w>
bou quet</w>
comp tabil
gen ou</w>
ni géri
séré nité</w>
pros périté</w>
gar de-
sou ten
impli quant</w>
bo t
salu é</w>
dé so
déf av
cré ez</w>
acou stique</w>
g ob
ten dant</w>
antiqui té</w>
serai t-ce</w>
soci o
circul er</w>
câ bles</w>
gé ants</w>
ch ocs</w>
n ôtre</w>
ralentiss ement</w>
soph isti
vaiss eaux</w>
diab ète</w>
mé chant</w>
proté ine</w>
fais ais</w>
médi tation</w>
demand eur</w>
sch u
c aine</w>
new s
sembl ant</w>
tomb ées</w>
di vin</w>
1. 3.
hom e
envoy ée</w>
amster dam</w>
br y
ass er
com prom
toi rs</w>
hi m</w>
h t</w>
le vées</w>
bi es</w>
amélior ée</w>
sti g
in utiles</w>
baign oire</w>
répli que</w>
identi fiés</w>
i de
tac tique</w>
bro wn</w>
intéri eures</w>
pare ille</w>
aw ay</w>
politi quement</w>
s ales</w>
ro bes</w>
ve illes</w>
ce d</w>
wi -fi</w>
tré sors</w>
tar de</w>
laté ral</w>
su s-
si mon
con cession</w>
bas que</w>
or al</w>
ch aine</w>
victori a</w>
f ris
en fu
inter ruption</w>
effon drement</w>
intégra le</w>
con centre</w>
ouv er</w>
in filtr
asi atique</w>
bat tant</w>
végét ation</w>
impos ées</w>
châ te
pens és</w>
dix- huit</w>
divi den
ignor er</w>
re prit</w>
fer mement</w>
châ teaux</w>
missi les</w>
s ages</w>
repos ant</w>
quotidi ens</w>
affron tements</w>
spaci eux</w>
multipli er</w>
rai ll
acti vation</w>
arri vait</w>
bou les</w>
mélan co
tr in
compa tibilité</w>
no bles</w>
ser ie</w>
rai lles</w>
st op</w>
gh ts</w>
longu ement</w>
cap teurs</w>
am ant</w>
montré al
vol .</w>
vita mine</w>
n age</w>
géné ro
dé gage</w>
re e</w>
expérimen tation</w>
ab c</w>
con vic
préfé rés</w>
mad agas
i ens</w>
instau rer</w>
fass ent</w>
18 ,
festi vals</w>
allu sion</w>
g ants</w>
exploi tations</w>
bel lion</w>
son ores</w>
ma y</w>
196 1</w>
lav age</w>
vi ces</w>
préco ce</w>
ai sée</w>
d et</w>
pouss ent</w>
dou ane</w>
tou lon</w>
vi eil</w>
fin issent</w>
en levé</w>
augu ste</w>
fê ter</w>
é lue</w>
sur prendre</w>
flori de</w>
h and
cré ées</w>
sculp ture</w>
is ations</w>
y é</w>
in er
s qua
tex tile</w>
indoné sie</w>
re donner</w>
précau tions</w>
bar res</w>
bag u
b oc
jou ait</w>
pédag ogie</w>
lan des</w>
emprun ter</w>
ber ry</w>
déf avor
x vi</w>
entr em
passe port</w>
chy pre</w>
obten ues</w>
pi ég
honor able</w>
ét hy
min us
renvoy er</w>
un der
es qu
coll ines</w>
pén in
che vel
uti li
radi o-
sembl erait</w>
er do
cam ille</w>
ég aux</w>
no r</w>
proc ède</w>
éco ss
immi grés</w>
né ment</w>
précau tion</w>
ex pulsion</w>
f oire</w>
privilè ge</w>
coul oir</w>
pri er</w>
conn exes</w>
fu l
em mener</w>
h ass
évi dente</w>
pré tend
mu ni</w>
gou tte</w>
trom pe</w>
p ts</w>
t g
mit terran
vol ée</w>
confidenti alité</w>
restau rer</w>
éloign er</w>
di jon</w>
embau che</w>
pâ ques</w>
sin ga
den se</w>
immobi lière</w>
vi gour
qu ais</w>
19 14</w>
s hu
bru its</w>
interro gation</w>
chau des</w>
bulgar ie</w>
beaux- arts</w>
pertin ent</w>
innom bra
s aient</w>
sépa rément</w>
xi v</w>
ba h</w>
on line</w>
p l</w>
jal ou
x é
fi ère</w>
éclai rer</w>
enregistr ements</w>
x box</w>
conjon c
char gées</w>
co pe</w>
loca taires</w>
4 5
réussi e</w>
bag ages</w>
in see</w>
inf anterie</w>
im pul
esti v
s as
thaï lande</w>
consci ents</w>
vill age
bl onde</w>
17 0</w>
sélectionn ez</w>
n 1</w>
ar man
dev riez</w>
con e</w>
hy p
déploy er</w>
z ab
las t</w>
john ny</w>
dis till
dam as</w>
témoign er</w>
lumin osité</w>
écar ts</w>
éti ez</w>
bris er</w>
n inten
sé cher
élector ales</w>
pai rs</w>
ou ra
sta n</w>
souff rant</w>
présen tera</w>
mad em
recru ter</w>
co tte</w>
pri oritaire</w>
on i</w>
dépend ent</w>
men tionne</w>
p g</w>
démo graphique</w>
prolong ez</w>
madagas car</w>
l ette</w>
bou illon</w>
ver sements</w>
é cor
propor tions</w>
et on</w>
ex u
généro sité</w>
du t</w>
can ons</w>
pr ag
per dent</w>
g ent
soy ons</w>
co ts</w>
ra ts</w>
domin ant</w>
ju re</w>
flam mes</w>
194 8</w>
confir mée</w>
offer tes</w>
détaill ées</w>
réserv ez</w>
pé tition</w>
rais onnement</w>
bo ttes</w>
gil bert</w>
accumul ation</w>
favoris ant</w>
ais ance</w>
m gr</w>
contradi ction</w>
vain cre</w>
prolong ation</w>
ver bal</w>
lâ che</w>
autonom es</w>
toxi ques</w>
archi pel</w>
compé tent</w>
remarqu ables</w>
nu llement</w>
ch ettes</w>
engag ent</w>
crain tes</w>
û te</w>
e ver
fa bi
re proch
q atar</w>
st ationn
syndi cale</w>
crimin elle</w>
lo ger</w>
cro atie</w>
trai tée</w>
nu ances</w>
fu sil</w>
coutu me</w>
so cle</w>
inqui é
aff ran
tan e</w>
sam uel</w>
appuy é</w>
koso vo</w>
testa ment</w>
gar d</w>
i do
par rain
b ent</w>
con cor
manus crit</w>
è reté</w>
fru str
par viennent</w>
évalu é</w>
gran dir</w>
fai bl
contribu ables</w>
pu ni
ou bli</w>
décor é</w>
na y</w>
chem in
so f
bu s
couv rant</w>
gu n
can ard</w>
cer titudes</w>
a che</w>
syn drome</w>
formul er</w>
m im
tré sor
soi rs</w>
fon dées</w>
distribu teurs</w>
gri ppe</w>
retrai tés</w>
t elle</w>
pa ck
john son</w>
alis es</w>
main -d'</w>
fréqu ente</w>
quar ante-
ser bie</w>
pénin sule</w>
pé nu
avan e</w>
maj oritaire</w>
r d</w>
pa la
tour nées</w>
demi- finale</w>
cal ci
tr ée</w>
confi ée</w>
célé bri
m ez</w>
ad r
ven e
comp any</w>
ma z
appuy ez</w>
cu ré</w>
voi la</w>
14 -
climati sation</w>
h -
fi re
souhai tait</w>
gam e
eu f</w>
ell y</w>
trib u</w>
3 2
distribu é</w>
un il
di l
in soli
s- tu</w>
f at
ser s</w>
rom an
ca c</w>
te c</w>
bâ ton</w>
ex hor
tri er</w>
dis per
minér aux</w>
moin dres</w>
personn alisé</w>
alis ent</w>
br ise</w>
dis su
expli quant</w>
tar te</w>
trajec toire</w>
sac rée</w>
magaz ines</w>
convic tions</w>
atten dez</w>
formul ation</w>
li mo
jon athan</w>
diplô mé</w>
dis crétion</w>
2- 1</w>
développ ent</w>
d av
initi ation</w>
rou lement</w>
do ses</w>
po sa</w>
viv ait</w>
gra du
déliv rer</w>
mater nité</w>
re tenus</w>
élé ph
i tés</w>
simul ation</w>
holly wood</w>
inféri eurs</w>
a ï</w>
excep tions</w>
sui ci
ouver tement</w>
aéro ports</w>
o ter</w>
insé rer</w>
po ki</w>
fonctionn alité</w>
col lier</w>
h .
oeu f</w>
réguli ères</w>
ninten do</w>
compor tent</w>
excu ses</w>
in hibi
madem oiselle</w>
fem elle</w>
pho s
aménag ements</w>
van ille</w>
st or
géno cide</w>
sou tiens</w>
factu res</w>
ci ca
si ez</w>
pri ères</w>
impér atif</w>
te m</w>
vi andes</w>
héri tier</w>
fais ceau</w>
aigu ille</w>
exi ge
géné ré</w>
pu e</w>
réd acteur</w>
soi f</w>
aperç oit</w>
î le-
ris tes</w>
lou is-
dé coll
re pères</w>
dipl ômes</w>
re fer
r u</w>
jac ob</w>
da les</w>
po pu
bulle tins</w>
5 000</w>
vanc ouver</w>
th an
î mes</w>
imagin ez</w>
ra che
s we
médi oc
gra ce</w>
sur ement</w>
dou ces</w>
rend ra</w>
compa rateur</w>
refroi dir</w>
fix ant</w>
chass er</w>
dispos és</w>
o tage</w>
15 00</w>
accompagn ent</w>
ter i
x it</w>
coor donn
fa y
po l</w>
tam bou
fondam ent
ur ss</w>
e ti
révél ations</w>
déliv ré</w>
inoubli able</w>
diver tissement</w>
p '</w>
décisi f</w>
cinqu ante-
ass er</w>
embl ée</w>
lâ cher</w>
ni ght</w>
conserv atoire</w>
n app
acadé mique</w>
approfon die</w>
sal v
ec ou
le on
abi s</w>
ob s</w>
co py
k ra
végét aux</w>
modes tes</w>
visi teur</w>
quin qu
ist a</w>
tis tes</w>
der ie</w>
mi en</w>
al- q
gâ teaux</w>
atom ique</w>
tex tu
eu rent</w>
regis tres</w>
ji m</w>
s v
sh e
po lar
é rable</w>
silhou ette</w>
ri ver
philosoph ique</w>
cri te</w>
cen ten
laiss ée</w>
nu age</w>
fil tres</w>
rez-de- chaussée</w>
20 ,
bat tus</w>
res semblent</w>
gri ff
w er</w>
terres tres</w>
em porté</w>
dres ser</w>
pal mar
per cep
mitterran d</w>
ti m</w>
épai sse</w>
muni tions</w>
o dique</w>
déri ve</w>
min uti
centi mètres</w>
crist all
châ ssis</w>
thérapeu te</w>
cigar ette</w>
conver gence</w>
enten dent</w>
étrang es</w>
certifi cats</w>
me tal</w>
concur rent</w>
écri s</w>
péren nité</w>
entr ant</w>
bi a</w>
nourri t</w>
dét es
pos ant</w>
s ables</w>
end s</w>
bo t</w>
moy enn
dor é</w>
g t</w>
6 9
lé on
laté rales</w>
habi tations</w>
correc te</w>
presti ge</w>
descen d</w>
qu ins</w>
licenci ement</w>
étr oit</w>
n ab
fil ets</w>
pour rons</w>
gu st
bom bes</w>
architec tes</w>
tr action</w>
di xième</w>
for ter
laï cité</w>
bo tan
lux u
ch ab
har per</w>
pré matu
is o
cu p</w>
fé ro
calcul é</w>
insta gram</w>
ré unies</w>
ch ou</w>
ti ses</w>
mal aise</w>
fro t
signific atif</w>
assu rément</w>
a percevoir</w>
tur que</w>
économ istes</w>
osci ll
psy chan
visi onn
lieu es</w>
m œurs</w>
is it</w>
panoram ique</w>
laiss ait</w>
transfé ré</w>
mar ines</w>
d p</w>
poursui vent</w>
pharmaceu tique</w>
interpré té</w>
di rent</w>
dis pari
senti s</w>
f lot</w>
bor nes</w>
cu t</w>
mari on</w>
b t</w>
at y
abou ti</w>
refl et</w>
muni ch</w>
chang e
bien faits</w>
expi ration</w>
échou é</w>
appréhend er</w>
plon ge</w>
recouv rement</w>
rem ises</w>
cri er</w>
sap in</w>
gr in
c œurs</w>
da tée</w>
rd c</w>
dé faites</w>
croy ez</w>
atten dais</w>
ar isation</w>
mê le</w>
tra his
pr es</w>
ex tin
célébr ation</w>
dor én
ignor ance</w>
7 50</w>
négli geable</w>
dépen ser</w>
man dat
eth niques</w>
sécuri taire</w>
accompli s</w>
procu re</w>
195 9</w>
pru dent</w>
fi cateur</w>
cou nt</w>
as s</w>
conf ère</w>
gouvern ementaux</w>
s per
s po
si a</w>
cre v
pay ant</w>
ra pha
al th</w>
acu te</w>
é tend
es a</w>
bon i
prom o</w>
ap i
présen tait</w>
orph el
dévoi ler</w>
réper tori
lo l</w>
atten tif</w>
sû rs</w>
agran dir</w>
appropri és</w>
ser be</w>
2. 1</w>
é phé
fo sse</w>
barri ères</w>
char ité</w>
privilégi er</w>
prati cien</w>
sol enn
he im
l ines</w>
d ers</w>
attr action</w>
absur de</w>
dorén avant</w>
comp teur</w>
psychan aly
ai t-elle</w>
san ta</w>
ré cession</w>
algé rien</w>
eur .
j oign
mar guer
anc ée</w>
la h</w>
lis ant</w>
cré ature</w>
proto coles</w>
provinci al</w>
candida tures</w>
por c</w>
inti mi
zu ela</w>
satis fais
ha chette</w>
en lèvement</w>
res sent</w>
gal li
spaci euse</w>
19 39</w>
chaleur euse</w>
dis paraît</w>
lion el</w>
inon dations</w>
restre int</w>
su m
infec tions</w>
céra mique</w>
mè n
boudd h
re ims</w>
va bilité</w>
m all
com ique</w>
bénéfici ant</w>
whi ch</w>
ver tes</w>
re gret</w>
te x</w>
fili ères</w>
pro posez</w>
ren voi</w>
océ ans</w>
br ève</w>
pa trice</w>
annu elles</w>
méd ailles</w>
ta i</w>
vali de</w>
cann abis</w>
n ait</w>
all és</w>
sign ale</w>
ni ck</w>
ac com
passionn ant</w>
exploi tant</w>
bou scul
prê té</w>
agres sions</w>
ambi gu
es su
employ ée</w>
k ina</w>
républic aine</w>
dial ogues</w>
195 6</w>
ch œur</w>
rédi ger</w>
viet nam</w>
transpar ente</w>
terrass es</w>
éloign é</w>
vesti ges</w>
y es</w>
ur gent</w>
bou cles</w>
aban donne</w>
gar dant</w>
pré lèvements</w>
éti enne</w>
bru te</w>
protagon istes</w>
l m</w>
ré gres
na ît</w>
préci euse</w>
h en</w>
plat eaux</w>
o dor
tis h</w>
indi enne</w>
radi cale</w>
ir o</w>
criti qué</w>
pl ann
li es</w>
pi liers</w>
va ches</w>
régl é</w>
pa t
intégr alement</w>
recommand er</w>
ouver tures</w>
innombra bles</w>
envisag é</w>
entam é</w>
l ard</w>
4, 5</w>
récipi ent</w>
yor k
d b</w>
lis t</w>
in connus</w>
détec teur</w>
pel ouse</w>
ni ers</w>
effac er</w>
brill ante</w>
bl e
escal ade</w>
instau ration</w>
ationn elle</w>
mot oris
institu tionnel</w>
ré bellion</w>
tan é</w>
trans met</w>
ing -
lign ée</w>
trésor erie</w>
b ati
alex is</w>
1. 2</w>
dis sou
fin ement</w>
sti ll
authenti cité</w>
référen cement</w>
n œu
empris onnement</w>
pres cription</w>
di tion</w>
p ant</w>
por ta</w>
dres se</w>
im possibilité</w>
indé ni
robo ts</w>
ab out</w>
ten tation</w>
croy ance</w>
fre inage</w>
ch lo
mentionn ée</w>
o pie</w>
expl oit</w>
marguer ite</w>
voyag eur</w>
faill i</w>
syn er
exam ine</w>
é pouv
e acute</w>
sinis tre</w>
et o
m euse</w>
i an</w>
in justice</w>
d ney</w>
débu ter</w>
noctur ne</w>
b aise</w>
ti des</w>
échapp é</w>
dev ise</w>
tu eur</w>
pa c</w>
présidenti el</w>
dé brou
ra patri
air bus</w>
gro tte</w>
lé o
adep tes</w>
gla s</w>
explo ser</w>
vi rage</w>
bi ts</w>
redou table</w>
momen t-là</w>
indi quée</w>
pâ le</w>
edi tion</w>
gu eil</w>
man œuvre</w>
tourn ent</w>
féli cité</w>
emblé matique</w>
son de</w>
palmar ès</w>
utilis ations</w>
ra fa
con gél
ange la</w>
sorti ra</w>
po ll
artisan at</w>
venti lation</w>
requ ise</w>
descrip tif</w>
bi om
indirec tement</w>
y ens</w>
iné dit</w>
ile- de-france</w>
w y
vi gne</w>
fonc er</w>
om bres</w>
man gé</w>
no tifi
tionn ée</w>
mascul ine</w>
alber ta</w>
com porter</w>
bask et</w>
mer cure</w>
b accal
ec t</w>
pla te</w>
magistr at</w>
aménag é</w>
périphéri que</w>
ci euses</w>
gre ffe</w>
politi ciens</w>
fl ou
mari ages</w>
aut eure</w>
15 -
chat te</w>
is a</w>
w om
étern elle</w>
coopér ative</w>
attr actions</w>
t v
chaus sure</w>
no bel</w>
champi onne</w>
ron ique</w>
hybri de</w>
ot h</w>
défav oris
antéri eure</w>
tra de</w>
cin es</w>
synony me</w>
absor ption</w>
ven ons</w>
longi tu
de venues</w>
cou le</w>
tr ale</w>
sh ang
coû té</w>
es cor
9 0
concr ète</w>
lis ez</w>
indi qués</w>
b b
we re</w>
inform és</w>
palestini enne</w>
mo to
gn e-
extr aire</w>
k ings</w>
m unis</w>
rempli t</w>
manifes té</w>
long -
combin é</w>
arrê tée</w>
z ou
déci deurs</w>
protec teur</w>
194 2</w>
ta g</w>
fra ternité</w>
au de</w>
bor dure</w>
cél ine</w>
laté rale</w>
ar ômes</w>
ré solument</w>
quotidi ennes</w>
généra teur</w>
coré en</w>
aqui taine</w>
adi eu</w>
can ton
vol ution</w>
anth ony</w>
adoles cence</w>
fav ori
commiss aires</w>
ave l</w>
hi gh</w>
te in
stock er</w>
panor ama</w>
trans mises</w>
cré anciers</w>
fl ash
bat tue</w>
men us</w>
w est
suspec ts</w>
ru de</w>
ham on</w>
révoluti onnaires</w>
i f</w>
in e
auber ge</w>
pronon cée</w>
yougos lav
ache ver</w>
exi gent</w>
gan g</w>
intéri m</w>
et y</w>
mé conten
gn er</w>
ro bin</w>
seign eurs</w>
parl ons</w>
d emie</w>
enti ers</w>
annu aire</w>
imag erie</w>
cen tri
dr ont</w>
pr or
prépa rés</w>
po ètes</w>
dé nu
mon tres</w>
p ôles</w>
ann y</w>
économ iste</w>
fréquen tation</w>
quoi qu'</w>
assu me</w>
bri èvement</w>
rati o</w>
mer veilles</w>
vari ent</w>
stabil iser</w>
état- major</w>
viv ons</w>
se ts</w>
- sur-
gigantes que</w>
mac ro
roul eau</w>
op er</w>
échel on</w>
no tez</w>
at i</w>
som p
ill égale</w>
ar gen
dom mag
destinat aire</w>
exprim és</w>
k un
cinémat ographique</w>
z za</w>
hydro carbu
déli ts</w>
profi tent</w>
er y</w>
3 4
recommand ons</w>
exi geant</w>
1, 3</w>
arri vera</w>
9, 00</w>
entre p
gam es</w>
inté gran
neu fs</w>
comp te-
franch i</w>
asi atiques</w>
mee ting</w>
intégr ant</w>
k no
produ isant</w>
hi tler</w>
immen ses</w>
m ap
p ois</w>
hypo thé
écr ou
ac quitter</w>
commun ale</w>
appr ête</w>
profi tant</w>
médi ateur</w>
g org
oign ons</w>
adéqua te</w>
comm ettre</w>
vill e-
cer ner</w>
es .</w>
dis solution</w>
év asion</w>
entraîn ant</w>
cav al
con jointe</w>
em pois
r ist
singu lier</w>
fant aisie</w>
rési dences</w>
consécu tive</w>
libre -
ec clé
ra te</w>
sous- sol</w>
str at
moti v
é mettre</w>
cr âne</w>
ta -
indépend antes</w>
amo vi
sépa rée</w>
ath l
prési dé</w>
démocr ati
perman ents</w>
aéri ens</w>
os car</w>
dé sen
établ issant</w>
mu tations</w>
spati al</w>
194 6</w>
enn al</w>
ser ment</w>
lad y</w>
mar ée</w>
au rions</w>
manu elle</w>
n b</w>
tou chées</w>
s- nous</w>
bapt ême</w>
f un</w>
b mw</w>
mé trique</w>
ri deau</w>
o a</w>
couv ent</w>
in sécurité</w>
atta chés</w>
exer cé</w>
bal ades</w>
syri ens</w>
do tés</w>
consci ente</w>
st atique</w>
méri tent</w>
ve y</w>
élég ante</w>
logi quement</w>
croisi ère</w>
sup poser</w>
men tions</w>
environnemen tal</w>
na tale</w>
doulour eux</w>
contamin ation</w>
sembl e-t-il</w>
détr esse</w>
cher ie</w>
compa ct</w>
tal en
coupa bles</w>
di en</w>
arran gements</w>
rappel lent</w>
ni ger
cass é</w>
th ey</w>
ol i</w>
h ai</w>
re prenant</w>
mé pris
baccal auré
deman dée</w>
pa trimoni
mar d</w>
bl as
ent .
ra dar
compa re</w>
ta li
ab del
entam er</w>
coéqui piers</w>
par- dessus</w>
dou anes</w>
zz i</w>
nécessi tent</w>
ex cur
o y</w>
pro vi
cle fs</w>
sau mon</w>
augmen tent</w>
préc ède</w>
dé man
ré my</w>
coû teux</w>
excessi ve</w>
vac cin</w>
o sti
cons ist
il er</w>
he ad</w>
onn ées</w>
im mobil
inédi te</w>
correspond ants</w>
cy l
en zy
r ho
o o
caf és</w>
diffu se</w>
con voi
projec tions</w>
per formant</w>
disci ples</w>
limi tés</w>
fon du</w>
aver ti</w>
représen tait</w>
exist ante</w>
ologi quement</w>
ac t</w>
excep tionnelles</w>
silen cieux</w>
ryth mes</w>
cl a
orien té</w>
ré prim
fédér aux</w>
onn erie</w>
par ty</w>
cro ise</w>
individu ellement</w>
da kar</w>
194 7</w>
proc ès-
législ ative</w>
am phi
tour men
en gr
ac cru</w>
syst em</w>
comédi ens</w>
gr ise</w>
entr aide</w>
anti sme</w>
rédu isant</w>
cl émen
ri ves</w>
pil u
habitu és</w>
crédi ble</w>
incorpor er</w>
u ru
py rami
mi es</w>
ch o</w>
a just
collabor er</w>
av ignon</w>
pun k</w>
bou e</w>
peu t-il</w>
shopp ing</w>
o tages</w>
rend ait</w>
sci en
fou et</w>
colombi e-
har a</w>
nu ire</w>
coor donner</w>
cas ting</w>
commen ter</w>
pesti cides</w>
gê ne</w>
détermin és</w>
simpli fier</w>
v œu
compl ot</w>
slova quie</w>
copi er</w>
j as
chi enne</w>
afric aines</w>
cor t
racin g</w>
lis er</w>
moyenn ant</w>
cuis iner</w>
justi fié</w>
re lier</w>
19 18</w>
logi ques</w>
convers ations</w>
transform ations</w>
coïn ci
travaill ait</w>
combin aisons</w>
or g</w>
justi fication</w>
ca pu
dépl ore</w>
jo l</w>
bil até
affec ter</w>
hor loge</w>
recomman dée</w>
athl ète</w>
pi les</w>
v én
préfé rée</w>
re quiert</w>
é té
an t.
ser ies</w>
cosmé tiques</w>
i con
étan ché
lac unes</w>
on gl
synthé tique</w>
contes ter</w>
i c
194 3</w>
ran donn
elec tri
1, 6</w>
collè ges</w>
ache vée</w>
trouv és</w>
e- t-elle</w>
qu o</w>
rw anda</w>
pré cur
g ères</w>
flu ctu
ré veiller</w>
ven due</w>
con gés</w>
vœu x</w>
syndi c
ouv rière</w>
ath on</w>
cour bes</w>
inévi table</w>
br est</w>
sta ff</w>
verti cale</w>
k ol
cons or
ministéri el</w>
ari a</w>
pê ches</w>
tra h
intéres sées</w>
ad ri
v aill
équilib rée</w>
mé fi
décri te</w>
émer gents</w>
ca hi
li e
illustr er</w>
ca en</w>
xi ii</w>
parall èles</w>
exécu té</w>
ry an</w>
ay e</w>
ang el
hydrau lique</w>
uni cef</w>
dévelop pées</w>
fu si
mer ce
s che</w>
3 6
w .</w>
lu cas</w>
d antes</w>
cor an</w>
li tige</w>
pos ture</w>
rigi de</w>
h at
servi ettes</w>
rap porter</w>
impéri ale</w>
intégran te</w>
salu er</w>
tu me</w>
australi en</w>
si ég
enf lam
2 20</w>
ham eau</w>
vi tal</w>
car tons</w>
ég oï
mar qués</w>
b bc</w>
ai -je</w>
and y</w>
pertur b
sou cieux</w>
ye ar</w>
195 7</w>
colombie- britannique</w>
dépis tage</w>
ry p
co st</w>
tex tiles</w>
pare -
ac es</w>
dé pendant</w>
jé sus-
aéron autique</w>
pris ons</w>
ajus ter</w>
él y
tr ans</w>
al ky
celui -là</w>
ap portant</w>
vene zuela</w>
jan e</w>
ci eusement</w>
connaiss ons</w>
demand ons</w>
gouvernemen tal</w>
4 8
ori e</w>
pré jugés</w>
cruci al</w>
contrô lé</w>
w ould</w>
seni ors</w>
ab ro
euro stat</w>
dép ens</w>
bre ak</w>
g ati
g us</w>
tionn és</w>
mono pole</w>
coff ret</w>
or n
and o</w>
institu ts</w>
ty po
re pli</w>
archevê que</w>
demeu rer</w>
cr ê
li tu
star t-
bu il
quo t</w>
légen des</w>
recueill i</w>
no tons</w>
humi des</w>
horiz ons</w>
ge on</w>
cop ine</w>
navi guer</w>
interro gations</w>
rem plaçant</w>
ex al
por taient</w>
vi en
bo ss</w>
désor dre</w>
ni d</w>
dépu tée</w>
fer rar
mol é
ma chin
corpor ation</w>
documen taires</w>
align ement</w>
financi èrement</w>
mi gnon</w>
décro cher</w>
den rées</w>
enten dus</w>
sal ope</w>
te inte</w>
cr us</w>
frag ments</w>
souhai ter</w>
spéci fici
tor y</w>
mor tes</w>
il y</w>
discr ète</w>
h n</w>
antici per</w>
expos ée</w>
da té</w>
collectionn ent</w>
alph a</w>
supprim é</w>
va che</w>
ge aient</w>
analy ste</w>
trimes tri
dis count</w>
désign és</w>
om c</w>
is ons</w>
chin oises</w>
w he
four chette</w>
demeu rant</w>
il l</w>
bou cl
ci ls</w>
conten ues</w>
l ouv
in fr
fré quent</w>
bri ques</w>
pro jet
quali fie</w>
bou cher</w>
tay lor</w>
ten du</w>
m us</w>
op ter</w>
ur gences</w>
s angl
c eurs</w>
promen er</w>
do t</w>
bas és</w>
cahi ers</w>
hab iller</w>
o si
trans mise</w>
gu ar
prépar ations</w>
baccalauré at</w>
ma te</w>
mo ell
bag ue</w>
bass ins</w>
jo lis</w>
i p
cata wiki</w>
ascen seur</w>
oppos ée</w>
obligat oirement</w>
exclu re</w>
déci dément</w>
min g</w>
se y
cycl iste</w>
horri ble</w>
cn rs</w>
inno cence</w>
r eurs</w>
so eurs</w>
spécifici tés</w>
qu et
publi cités</w>
tri bus</w>
plain dre</w>
w ar</w>
épicer ie</w>
habitu é</w>
par aissait</w>
pu res</w>
curi té</w>
connaiss ais</w>
entre tient</w>
pé rou</w>
bel le-
en cyclo
p aille</w>
ru meur</w>
hélicop tère</w>
réclam ent</w>
presta taire</w>
positionn er</w>
syl vie</w>
commen çait</w>
bar o
sinc ère</w>
délica tement</w>
presta taires</w>
hexag one</w>
n em
gol d
sk a</w>
mat thi
ro t</w>
respec tueux</w>
just esse</w>
nap les</w>
ten dent</w>
sur sis</w>
vita mines</w>
refu sant</w>
3 00
in ta
si dé
g ai
con crets</w>
gar onne</w>
trans porteur</w>
x ie</w>
at ed</w>
impressionn ante</w>
is ter</w>
réhabili tation</w>
news let
jup pé</w>
caractéris é</w>
sc ann
enta me</w>
fragi les</w>
musi caux</w>
agi ra</w>
s y</w>
la y</w>
morg an</w>
mi enne</w>
cohé rent</w>
t ang
bou ts</w>
i de</w>
op tiques</w>
serv ait</w>
dan ois</w>
chan teurs</w>
be en</w>
tuy au</w>
bli n</w>
gra sse</w>
onn aise</w>
cur sus</w>
copy right</w>
in suppor
ser rer</w>
té nè
isol és</w>
sculp tures</w>
cé cile</w>
pli er</w>
ta che</w>
cou ler</w>
émet teur</w>
sur vivants</w>
ta pe</w>
195 4</w>
mentionn er</w>
rdvmedi caux</w>
li c</w>
b p</w>
diplom atiques</w>
hau teurs</w>
concentr ations</w>
adi er</w>
prédéc esseur</w>
éli tes</w>
tr il
comédi en</w>
cor rom
évol uti
discu té</w>
é radi
our t</w>
vétér inaire</w>
abor ds</w>
prolong ée</w>
sur plus</w>
lec ler
re lie</w>
reconnaiss ent</w>
mou les</w>
ba d</w>
dé ménag
ultéri eurement</w>
progres se</w>
élas tique</w>
cyl indre</w>
intéres sée</w>
lucr atif</w>
v tt</w>
dispu té</w>
pers ist
évi tant</w>
suc com
siro p</w>
laiss és</w>
abat tu</w>
islam iste</w>
appé tit</w>
estom ac</w>
de la</w>
écar ter</w>
mat t</w>
sher brooke</w>
k im
géor gie</w>
or gueil</w>
bro sse</w>
es cence</w>
arri va</w>
culpa bilité</w>
annu lé</w>
az er
pecti ve</w>
op té</w>
jésus- christ</w>
sou terr
oign on</w>
descend ants</w>
y an
plan ter</w>
ci alis</w>
monar chie</w>
dis co
cer cles</w>
chauff e</w>
di tés</w>
matéri elle</w>
u se</w>
ori al</w>
ré sur
eur s-
co ach
loca lités</w>
des quelles</w>
no u</w>
bur kina</w>
li tre</w>
per sé
inter dits</w>
croy ais</w>
coloni ale</w>
maxim al</w>
sur croît</w>
194 9</w>
concessi ons</w>
- 1</w>
condu ites</w>
eu l</w>
conqu is</w>
pen cher</w>
contr er</w>
ai sé</w>
ru ban</w>
plu mes</w>
ad met</w>
il ée</w>
g ain
pas s</w>
wal ter</w>
p nu
ac cé
sympath ie</w>
rembour sements</w>
in capables</w>
fond ations</w>
hy m
multipli ent</w>
gué rison</w>
lingu istiques</w>
interlocu teur</w>
compréhen sible</w>
par d</w>
ill ons</w>
imprim és</w>
prostitu tion</w>
sénégal ais</w>
a '</w>
respecti ves</w>
t el
robu ste</w>
citoy enne</w>
prati qué</w>
3 7
ti de</w>
tourn ois</w>
inter venant</w>
anti n</w>
cris tal</w>
or gue</w>
dé bris</w>
ap ports</w>
reç ut</w>
exer cent</w>
ch aient</w>
intég rées</w>
w en
organis ateur</w>
4 ème</w>
loc alement</w>
décou page</w>
tr al</w>
yougoslav ie</w>
m el</w>
we en</w>
cigar ettes</w>
audio visuel</w>
ass om
inquié ter</w>
al e
ar mement</w>
sav on</w>
v acc
coun try</w>
restitu tion</w>
per mission</w>
incar cé
bapti sée</w>
hu ss
man ga</w>
philipp ines</w>
ti a</w>
remplac ée</w>
tou chée</w>
noi r
brun swi
an arch
vul g
bracel et</w>
transform ée</w>
bi ères</w>
parti t</w>
re fait</w>
successi ves</w>
trac er</w>
beau -
er i</w>
fé con
pré car
bi t
ro chers</w>
car rières</w>
reli és</w>
195 5</w>
lap in</w>
onn ette</w>
pi lier</w>
pr ô
at o</w>
hé sité</w>
10 5</w>
hô tel</w>
is- je</w>
fourn issant</w>
super marché</w>
em mène</w>
rentr é</w>
isl ande</w>
antéri eures</w>
en cad
for tifi
sécher esse</w>
fer ons</w>
fili ales</w>
sub ven
toi les</w>
op en
nég atives</w>
dra g
figu r
sub issent</w>
dial ec
é pa
gla ci
wo o
équilibr é</w>
ni cole</w>
ren table</w>
for fai
nous- mêmes</w>
ai dant</w>
cal mer</w>
ra ces</w>
gastronom ie</w>
o sé</w>
bi jou</w>
dérou lée</w>
re pousser</w>
suc cé
cor ro
dess ine</w>
re belle</w>
exprim ent</w>
dérou lent</w>
m bo
vi trine</w>
gr aisse</w>
pein tres</w>
a pa
chev aliers</w>
no -
k le
fi quement</w>
mer a</w>
hil l</w>
194 1</w>
migr ations</w>
bri an</w>
meur tres</w>
habi ter</w>
ami ral</w>
no table</w>
quo tas</w>
rhô ne-
ne aux</w>
anc es
cend res</w>
ab ré
ath lé
e lin</w>
né fas
g mt</w>
a ou
3 8
ti rent</w>
fon dements</w>
cam bo
excé dent</w>
fourni tures</w>
ri ll
d avis</w>
coiff ure</w>
pou l
ar do</w>
mor pho
pertin ente</w>
hu bert</w>
ritu el</w>
gen tes</w>
cl airs</w>
vinai gre</w>
affron tement</w>
pléni ère</w>
ét ang</w>
com .</w>
ver dict</w>
h app
ã o</w>
démar re</w>
ind ex
the ir</w>
cou rantes</w>
d g</w>
vi ii</w>
oc cul
s quel
condu isent</w>
épou ser</w>
approfon dir</w>
persu adé</w>
niger ia</w>
chau ds</w>
concr et</w>
mystéri euse</w>
regroup ant</w>
po ké
mâ les</w>
propr eté</w>
susp endre</w>
t ans</w>
théori ques</w>
lo yers</w>
hiérar ch
ali én
déci dée</w>
lég èreté</w>
auto bus</w>
criti quer</w>
di rai</w>
dra ps</w>
boulang erie</w>
br une</w>
r au
cohé rente</w>
at er
la w
s ing</w>
clau ses</w>
vidé o
sor ts</w>
bonn et</w>
abor dé</w>
consoli der</w>
th on</w>
métropoli taine</w>
ténè bres</w>
ad jac
mis te</w>
ré acteur</w>
19 36</w>
propa gation</w>
og ènes</w>
for ti
lev ure</w>
convivi alité</w>
ad s</w>
re viendra</w>
1- 0</w>
atta cher</w>
rai d</w>
a tro
tomb és</w>
al .</w>
pel o
atten tivement</w>
la téraux</w>
accep tent</w>
n b
expérimen té</w>
e cu
op port
1 e</w>
habi tent</w>
conn exions</w>
chass eur</w>
ég ar
der ait</w>
observ ée</w>
cro ss</w>
conseill ère</w>
1, 4</w>
virgin ie</w>
fant ôme</w>
fond ant</w>
demi- heure</w>
con citoyens</w>
le w
micro- ondes</w>
sur f</w>
tr op
ira q</w>
dent aires</w>
. a</w>
idé ologique</w>
mar quant</w>
bl a
convain cus</w>
é tin
im migrants</w>
jou era</w>
derni èrement</w>
étanché ité</w>
suggé ré</w>
eng ins</w>
naz is</w>
at titudes</w>
éti quettes</w>
légend aire</w>
bu lles</w>
cau tion</w>
u sure</w>
fer men
conç ues</w>
premi èrement</w>
an té
excell entes</w>
mis éri
b b</w>
habi ts</w>
su pers
impec cable</w>
res ta</w>
escl ave</w>
vois ines</w>
déclar ée</w>
en dé
intégra l</w>
di m</w>
atten daient</w>
précipi tations</w>
ple ines</w>
boucli er</w>
in hé
ou l
év a
tan a</w>
dé passant</w>
lu bri
cr euse</w>
ni ger</w>
brû ler</w>
électro de</w>
bou ge</w>
p illage</w>
è ves</w>
ke y
indési rables</w>
k us
distinc tes</w>
extra -
b la</w>
dé sh
inscri vant</w>
ai res
sta des</w>
in gé
singa pour</w>
extra ordinaires</w>
ed ward</w>
so bre</w>
l erie</w>
gre ff
am bule</w>
consul té</w>
rattrap er</w>
f p</w>
s avant</w>
saint- jean</w>
innov antes</w>
a per
propo sera</w>
dr on</w>
é douard</w>
thérapeu tiques</w>
thé ologie</w>
po ker</w>
pro fil
r all
occup ait</w>
ap pari
compa rables</w>
syl vain</w>
ach ève</w>
arra cher</w>
fra gil
modé lisation</w>
vin tage</w>
sépa rées</w>
m ph
fi ers</w>
pass ager</w>
manipul er</w>
indi gènes</w>
ca chée</w>
accor dés</w>
por t-
re jeter</w>
ill égal</w>
infirmi ère</w>
ongl et</w>
assur eur</w>
rele vés</w>
restri ction</w>
termin ale</w>
men u
dispu ter</w>
fou et
proté gées</w>
né sie</w>
abs tention</w>
différen ci
vill en
in cess
inaugu ration</w>
dé nomination</w>
oeu v
cro iser</w>
sou pi
cro isé</w>
jun gle</w>
radi caux</w>
cou lisses</w>
atten dons</w>
vieill esse</w>
h 45</w>
k as
requ êtes</w>
dé passent</w>
ten aient</w>
col ons</w>
liv rés</w>
accor dent</w>
oi l</w>
sh i</w>
ac crédi
spa ce</w>
bai es</w>
communi qués</w>
syndi cales</w>
ac qué
2 40</w>
pré voient</w>
pol aire</w>
assi n</w>
do g
périphéri ques</w>
de venait</w>
irani en</w>
ak s</w>
ga la</w>
bri tish</w>
consac rées</w>
ken ya</w>
organis ent</w>
mon tés</w>
iss able</w>
e- et-
périphéri e</w>
allég ations</w>
v eur</w>
initi é</w>
re construire</w>
appli qués</w>
tar ds</w>
dérou lera</w>
pe re</w>
privilè ges</w>
c all
mar athon</w>
ch ec
mark et</w>
r h</w>
ha r</w>
bn p</w>
i dent</w>
con signes</w>
ins tabilité</w>
respi ration</w>
dé battre</w>
s q
pix els</w>
ici en</w>
jean- michel</w>
dic tions</w>
pul vé
hal lu
sé cher</w>
mon té
c di</w>
spécifi cité</w>
manu els</w>
chirurgi en</w>
occiden tales</w>
ré son
ln h</w>
divis ée</w>
le g
p d</w>
ty pi
respec tent</w>
d ûment</w>
entreten u</w>
découv rent</w>
cr atie</w>
dé sin
lu is</w>
élémen taire</w>
do page</w>
renouv eau</w>
ra k
di gnes</w>
canc ers</w>
rou tine</w>
plon gé</w>
gu ez</w>
longu eurs</w>
esca liers</w>
tw o</w>
ess er</w>
salari ale</w>
ag n
li ce</w>
visu aliser</w>
croy ant</w>
m illes</w>
stéré o
ad h
bri n</w>
bat ailles</w>
ag a</w>
institu tionnels</w>
br é</w>
v om
squa re</w>
pit tor
rés iste</w>
opé ré</w>
is on</w>
solli cité</w>
im min
wes tern</w>
hyp no
par couru</w>
ol o
ren fer
plat es-
re p
al fred</w>
tri angle</w>
commen te</w>
thè que</w>
ch oir</w>
ver ses</w>
c b</w>
inten ses</w>
re connues</w>
blo gu
st o
ch and
ex clus</w>
moti vé</w>
an y
vigno ble</w>
confon dre</w>
raci ale</w>
i os</w>
en lève</w>
l ouvre</w>
acti vé</w>
satis faits</w>
condam ner</w>
ti cket</w>
séri euses</w>
phon ique</w>
0, 1</w>
hosti le</w>
ron des</w>
moham med</w>
tan ie</w>
occup ants</w>
do ter</w>
remon tée</w>
dynas tie</w>
conten tieux</w>
préci euses</w>
journ alisme</w>
vaccin ation</w>
sul fu
bou lo
aw a</w>
rem ani
y enne</w>
grim per</w>
ad or</w>
ab us
ség ol
is sion</w>
ni a</w>
tiss ements</w>
s d</w>
communi que</w>
épo ques</w>
valu ation</w>
ré f
rav i</w>
s ains</w>
ro ches</w>
ba se
pro ché</w>
re pouss
son ge</w>
conjonc ture</w>
er ron
plan tation</w>
entou rant</w>
faibl esses</w>
z el
artis an</w>
chu té</w>
rè se</w>
195 3</w>
le va</w>
énon cés</w>
class er</w>
nu ls</w>
hom ologue</w>
ch an</w>
fo od</w>
ré gal
avé rer</w>
kar l</w>
au ras</w>
é bran
cor ne</w>
ti rant</w>
sanc tuaire</w>
scénar iste</w>
auda ce</w>
m lle</w>
par ution</w>
19 00</w>
amu se</w>
can cé
az ote</w>
aî nés</w>
méri té</w>
reven ue</w>
évolu ent</w>
ra mené</w>
financ és</w>
inci tation</w>
bu l</w>
annon çant</w>
tac tile</w>
s onne</w>
m d</w>
anim és</w>
10 1</w>
w ars</w>
expres sément</w>
x y</w>
201 6-
dr ain
fai tes-
h all
you ng</w>
reli ant</w>
galax y</w>
ti l
petit- déjeuner</w>
écl air</w>
saint- laurent</w>
c eux-
menson ges</w>
dr y</w>
cr èches</w>
vol k
voulu t</w>
jean- baptiste</w>
déc ré
instin ct</w>
al lier</w>
végéta le</w>
sur venue</w>
b n</w>
régul arité</w>
mi ck
dés accord</w>
bac k
mou rut</w>
monn aies</w>
stri ct</w>
nev eu</w>
formul ées</w>
affec te</w>
bos ni
manus crits</w>
bi te</w>
péni tenti
h 15</w>
pu reté</w>
ener gie</w>
accro cher</w>
inscri tes</w>
direc tes</w>
2 .</w>
saisi t</w>
d ables</w>
ci l</w>
gu i</w>
gen èse</w>
13 .
ségol ène</w>
photograph es</w>
con frères</w>
avor tement</w>
compatri otes</w>
pa d
inconvéni ents</w>
rai lle</w>
pour rai
remplac és</w>
cock tail</w>
sign atures</w>
en gin</w>
parta gés</w>
affi chent</w>
franc fort</w>
timi de</w>
tempor airement</w>
parl ez</w>
pren aient</w>
s m</w>
1, 8</w>
condu its</w>
invi tée</w>
forter esse</w>
fossi les</w>
comp té</w>
ra trice</w>
cap ti
passi f</w>
recev ez</w>
chel sea</w>
por no
i enne</w>
commen çant</w>
éte int</w>
cré atif</w>
gag nent</w>
mai ls</w>
ri a</w>
main tes</w>
cou ché</w>
commodi tés</w>
sinc èrement</w>
argenti n</w>
internau te</w>
mon ts</w>
at hé
répé té</w>
hydrocarbu res</w>
. et</w>
en fon
col mar</w>
tr ê
20 h</w>
de al</w>
vingt- cinq</w>
al er</w>
concep tu
longi tude</w>
vacc ins</w>
. c'</w>
bou chon</w>
rec ouvert</w>
gu érir</w>
fu nt</w>
cour eur</w>
promo teur</w>
com o
articul ation</w>
viol emment</w>
mélang ez</w>
sand wi
fer ais</w>
ren verser</w>
re vu</w>
cu be</w>
i bra
cr èmes</w>
fol k
7, 5</w>
in différence</w>
assass iné</w>
inf anti
interro g
offen sif</w>
atténu er</w>
n ol
ball ons</w>
we i
primordi al</w>
al ou
cor di
félici ter</w>
grand- chose</w>
engr ais</w>
entou rent</w>
réalis tes</w>
cop ain</w>
impli quer</w>
ra yer</w>
possé dait</w>
se aux</w>
atta chée</w>
déc ryp
vel é</w>
signat aires</w>
continu ant</w>
sélectionn eur</w>
xvi ie</w>
compli ce</w>
bis cuits</w>
é c
brunswi ck</w>
press é</w>
t et</w>
contes te</w>
val entin</w>
ci t</w>
trahis on</w>
h ague</w>
ess ayant</w>
obs curité</w>
comp toir</w>
soul ager</w>
excep tionnels</w>
éti que
sco pe</w>
th u
énon cé</w>
vari ante</w>
creu ser</w>
am er
entr av
lam pes</w>
é si
ci ennes</w>
sol des</w>
coeffici ent</w>
di -
sem elle</w>
g c</w>
in juste</w>
é bul
tamp on</w>
ni co
prom p
l également</w>
modi fie</w>
prom ul
ari um</w>
pré voyant</w>
retar ds</w>
astéroï des</w>
échapp ement</w>
ministéri elle</w>
bourge oise</w>
ex ten
raisonn ables</w>
décisi ve</w>
pari té</w>
cro isés</w>
wat er
ann ex
tu rer</w>
am ours</w>
dev ises</w>
lon don</w>
exclu sivité</w>
situ er</w>
écou té</w>
em bel
aim able</w>
con former</w>
ba z
rem pla
vec teur</w>
courag eux</w>
com prenait</w>
car ter</w>
ov ine</w>
en gl
du ch
phar es</w>
maroc ain</w>
sal ue</w>
autoris ations</w>
lau rence</w>
wat ch</w>
cro ître</w>
ur l</w>
ah med</w>
expli cite</w>
tr is
az i
ca sier</w>
all è
persé vé
pati ente</w>
géomé trie</w>
anglo- sax
em prise</w>
jean- jacques</w>
por to</w>
prom u</w>
puiss antes</w>
b roy
am p</w>
min a</w>
tempor aires</w>
port euse</w>
accompl issement</w>
gou t</w>
bas ées</w>
rol l</w>
pro phé
anony mat</w>
investi gation</w>
iron ie</w>
lanc és</w>
ph ine</w>
rav ag
buff et</w>
mari és</w>
ro g
longitu din
ri ens</w>
mp ing</w>
inter cep
sélectionn ées</w>
form elle</w>
promen ades</w>
étonn ante</w>
pren antes</w>
bar th
k .</w>
permet tons</w>
kar a</w>
tiss eur</w>
s cin
mas sivement</w>
pom pes</w>
isl and</w>
ex po</w>
ra d</w>
environn ements</w>
plac ements</w>
sa h
ad d.
ne y
can tons</w>
te e</w>
pi toy
fer ti
soul ève</w>
am er</w>
vérifi ez</w>
e g</w>
por no</w>
dérou lé</w>
compli quée</w>
tu ber
é mul
inféri eures</w>
décou lant</w>
pour rions</w>
n ai
om in
rempli s</w>
com e</w>
provo quant</w>
éli re</w>
géné tiques</w>
m 3</w>
bat tent</w>
régl ages</w>
g e-
li ver
nor th</w>
prolon gement</w>
nan o
alp es-
promo teurs</w>
be ach</w>
mam mi
éco système</w>
super vision</w>
re commencer</w>
nor males</w>
o dy
merveill euse</w>
cherch ait</w>
hési ter</w>
élar gie</w>
s. le</w>
mar re</w>
recul er</w>
nostal gie</w>
chev au
ch ements</w>
aigu illes</w>
sembl aient</w>
défici ts</w>
ez- le</w>
po chette</w>
av ènement</w>
sier ra</w>
zo om</w>
équi pées</w>
bou gies</w>
fraî ches</w>
v ette</w>
au ff
cérémon ies</w>
kad ha
végéta les</w>
d rez</w>
mal te</w>
pi car
suffis antes</w>
trom p
dépos ées</w>
ag r
attribu ée</w>
récupé ré</w>
emprun ts</w>
am al
pin ceau</w>
olym pi
19 0</w>
sa tur
sou ci
rach eter</w>
là- dessus</w>
rou le</w>
mor bi
d son</w>
ti um</w>
e tude</w>
ver sez</w>
addi tion</w>
péri odique</w>
cl ai
apo calyp
imprim ante</w>
tg v</w>
respi rer</w>
m ment</w>
ri ck</w>
em s</w>
alé atoire</w>
déclen cher</w>
dispar us</w>
déci da</w>
bé mol</w>
déplac és</w>
agi tation</w>
cra yon</w>
lo ise</w>
od eurs</w>
auver gne</w>
rem ède</w>
dé funt</w>
inter viennent</w>
blan chim
dépos és</w>
ti rée</w>
aspi rations</w>
appar ait</w>
ement ations</w>
dé mons</w>
éte indre</w>
capit aliste</w>
reven ant</w>
ameri ca</w>
can te</w>
éri té</w>
15 .
adhé rer</w>
ap préhen
mar ron</w>
mi ami</w>
ru ine</w>
inter -
constitu és</w>
y n</w>
ill ages</w>
class ées</w>
clo che</w>
continu ez</w>
modé ration</w>
condam née</w>
b ang
ac quit
vari antes</w>
incen dies</w>
pénu rie</w>
bourge o
du rablement</w>
u su
re père</w>
om ar</w>
atten dues</w>
k ari
débu tants</w>
et c.
e tu
pron osti
pe y
enseign es</w>
gab on</w>
fou illes</w>
w w
ent i</w>
s cha
ren dit</w>
accou chement</w>
re tient</w>
2. 2</w>
opérationn els</w>
atteign ent</w>
plu s-
ki a</w>
elec tron
correspond ante</w>
opérationn elles</w>
desc endant</w>
mo del
pnu d</w>
re pen
195 2</w>
d une</w>
i f
ca dence</w>
ag né
exac titude</w>
recul é</w>
sélec tions</w>
du rent</w>
croi x-
attribu e</w>
pel li
souhai table</w>
dji hadistes</w>
tn ess</w>
senti e</w>
ly cées</w>
décl ine</w>
ferrar i</w>
culti ver</w>
audi ences</w>
bure au
sémin aires</w>
am ar
alex ander</w>
s aut
c ains</w>
lu m</w>
immatricul ation</w>
ser pent</w>
anim er</w>
z im
inclu ent</w>
f û
rati fication</w>
ass ai
ap portée</w>
diam ant</w>
reven dique</w>
élev eurs</w>
ro ad</w>
ot tom
x .
mul house</w>
oppos ent</w>
dépann age</w>
gran di
ap prê
ven dues</w>
législ ations</w>
install ées</w>
blanchim ent</w>
déri vé</w>
cac ao</w>
commis es</w>
loint ain</w>
expli citement</w>
menac ée</w>
andre w</w>
h eurs</w>
motiv ations</w>
em ma</w>
démén agement</w>
péni ble</w>
membran e</w>
génér euse</w>
ham il
premi um</w>
lou ps</w>
ni che</w>
ter o</w>
s pin
pré vient</w>
marchandis e</w>
mesu rée</w>
l ét
rhône- alpes</w>
go vern
illi cite</w>
équ ation</w>
débu tant</w>
jer sey</w>
bri gi
situ ent</w>
alco ol
ill ées</w>
dédi és</w>
vis me</w>
contr aires</w>
lam es</w>
l c</w>
g ant</w>
éman ant</w>
p n</w>
il -
anti bio
béné fique</w>
accep tée</w>
li te</w>
pénétr ation</w>
fas t</w>
ébul lition</w>
té les
re tourné</w>
rou tiers</w>
seg ments</w>
re trouvera</w>
ven ger</w>
onn a</w>
jav as
pos tale</w>
sé isme</w>
inclin aison</w>
lecler c</w>
r p</w>
ec tions</w>
li mou
met teur</w>
li gh
f u</w>
si g
rouss eau</w>
vi ez</w>
acquisi tions</w>
ha z
do tation</w>
cau sés</w>
opé ra
irré proch
voy ais</w>
ver dure</w>
bel le
progres sif</w>
chou ette</w>
exclu t</w>
twe et</w>
ter re-
rh ét
4 4
pronon ce</w>
présen tations</w>
pen sionn
fra gmen
e douard</w>
inci te</w>
fas o</w>
re viens</w>
béni n</w>
res ear
techni quement</w>
facul tés</w>
vos ges</w>
tor sion</w>
psych ologiques</w>
civilis ations</w>
mesu ré</w>
m ba</w>
substitu tion</w>
alli ances</w>
sauv eur</w>
accor dées</w>
myst ères</w>
ri res</w>
cal v
sembl é</w>
orien tée</w>
éten dant</w>
flan c</w>
nomin ations</w>
ai x-
h d
su z
eu h</w>
rel ati
ck y</w>
b est</w>
sign alisation</w>
a z</w>
utilis able</w>
juridi ctions</w>
hallu cin
t ors</w>
dé vo
pi des</w>
er son</w>
mobil isés</w>
7 5
admissi ble</w>
doc tor
mar co</w>
18 h</w>
trans porté</w>
ceux- là</w>
ang él
car ross
ach èvement</w>
soci alisme</w>
emplac ements</w>
influen cer</w>
ar es</w>
radi os</w>
hen ri
repor ting</w>
char s</w>
répu tée</w>
ad judi
pa lier</w>
célé b
diff er
her z
iss eur</w>
e- commerce</w>
et es</w>
pa s-de-
si bles</w>
liqui dation</w>
foc us</w>
equi p
v m</w>
ou pe</w>
val en
ra mène</w>
no taire</w>
appr enti
u ser</w>
al do</w>
livrai sons</w>
matern elles</w>
fin an
evi demment</w>
ti lle</w>
constru ites</w>
pa tern
tuy aux</w>
pu s
e ing</w>
ax ée</w>
av ait-il</w>
ak a</w>
ren dez</w>
rel é
su pr
bu zz</w>
cavi té</w>
viol entes</w>
splendi de</w>
l at</w>
xé no
déclar ant</w>
in c
ca str
ob jec
e. le</w>
to pru
som e</w>
topru ral</w>
o to</w>
succ ède</w>
t ati
j.- c.</w>
slog an</w>
empre intes</w>
annon cent</w>
kadha fi</w>
composi te</w>
14 .
personn aliser</w>
rigour eux</w>
v and
nécessi tant</w>
ti en
ac p</w>
combat tant</w>
mo u</w>
tr aient</w>
ca ke</w>
chang es</w>
qu age</w>
gui tariste</w>
ro dri
as- tu</w>
bay rou</w>
g li
f l</w>
terri bles</w>
prof ess
compa ssion</w>
e -</w>
fo ssé</w>
astéroï de</w>
poin tes</w>
inter rup
gr is
télé com</w>
encoura gé</w>
arri vées</w>
ci tro
liv rée</w>
répar ations</w>
enten dait</w>
carbu rants</w>
ca chés</w>
adop tés</w>
gr ois</w>
rai ls</w>
édi fices</w>
ju ra</w>
m m.</w>
in acceptable</w>
ar n
réi té
écriv ait</w>
home away</w>
mê lée</w>
bris é</w>
conf ectionn
co tation</w>
mou che</w>
congol ais</w>
évacu er</w>
orien tal</w>
distin cts</w>
gol d</w>
dési rez</w>
s car
fémin ines</w>
wor d</w>
communi on</w>
i eur</w>
élémen taires</w>
itinér aires</w>
ruis seau</w>
é veill
immer sion</w>
vend ent</w>
ki ev</w>
cycl istes</w>
ann eaux</w>
ner v
loc aliser</w>
milli ard
p aires</w>
bataill on</w>
élimin é</w>
vall ées</w>
c teurs</w>
para mètre</w>
plan té</w>
acqu ises</w>
cler gé</w>
ver rons</w>
scan din
é .
empr ess
adéqu at</w>
ho t</w>
ag re
fa r</w>
exhausti ve</w>
oubli ons</w>
ci re</w>
camer on</w>
g y</w>
sympath iques</w>
cou ssin</w>
convivi al</w>
ne f</w>
mili tar
fédé rations</w>
anni ck</w>
dra peaux</w>
g ho
val ait</w>
sta bles</w>
condam ne</w>
w ski</w>
orth ographe</w>
rési dus</w>
prend rait</w>
éni g
dev in
agri n</w>
dev rions</w>
plates- formes</w>
renouvel able</w>
milli er</w>
dis me</w>
télé visée</w>
s -</w>
aban donnée</w>
to wn</w>
pon t-
infirmi ères</w>
téléphon iques</w>
appor tera</w>
appli quant</w>
from ages</w>
5, 5</w>
prend rez</w>
ét onne</w>
bourgeo isie</w>
renon cé</w>
li tur
prai ries</w>
gu adel
mi les</w>
f ü
cess eurs</w>
supéri orité</w>
n eur
frac ture</w>
ssi er</w>
k ah
distribu és</w>
m ations</w>
1 15</w>
k ai
ten tes</w>
appar tenait</w>
ser e
exem p
fas c
glac es</w>
diversi fication</w>
eu gène</w>
b eu
start- up</w>
ez- les</w>
bo os
bon té</w>
europe an</w>
ch agrin</w>
ecclé sias
interpel lé</w>
goth ique</w>
chorég raph
eu ils</w>
lit tle</w>
ber cy</w>
cadav re</w>
mas ters</w>
c est</w>
é met</w>
par sem
mos elle</w>
t ê
par ut</w>
appréci able</w>
modifi és</w>
avo is
re produit</w>
rap portant</w>
sui vies</w>
pari bas</w>
sécuris er</w>
laiss a</w>
bau lt</w>
travaill ons</w>
re tenues</w>
w ade</w>
195 1</w>
par venus</w>
mes dames</w>
e tr
hon grois</w>
im parti
appel ées</w>
1 .</w>
éco -
isol ée</w>
radi c
con tours</w>
sou lever</w>
0, 000</w>
car ottes</w>
19 38</w>
philosoph es</w>
sy no
légiti mes</w>
b ines</w>
sév ères</w>
sim pl
abe illes</w>
interro gés</w>
javas cript</w>
atmos phérique</w>
aujour d</w>
téléphon ie</w>
autoris ées</w>
en e</w>
rap portent</w>
pollu ants</w>
sur venu</w>
mou tons</w>
p elle</w>
prépara toire</w>
la ke</w>
for cée</w>
coopér atives</w>
précé dé</w>
conditionn ement</w>
histori quement</w>
stagi aires</w>
sem ences</w>
d m</w>
universi ty</w>
fac ettes</w>
ap prennent</w>
diffus ées</w>
pa ta
ané anti
sau ve</w>
c aires</w>
envisag ée</w>
tan gu
délin qu
co opérer</w>
attes tation</w>
détermin ées</w>
territori al</w>
présen tement</w>
fin is</w>
cess ent</w>
color é</w>
cro chet</w>
wil son</w>
contribu able</w>
p sa</w>
vain queurs</w>
sollici ter</w>
re hauss
typi quement</w>
s tro
ci ères</w>
th an</w>
satisfais ante</w>
po les</w>
venti l
la te</w>
li bel
jav a</w>
mê ler</w>
optimis te</w>
ou g
form ellement</w>
form ateur</w>
in tru
vis ait</w>
inti mes</w>
ca ses</w>
ê tes-vous</w>
res teront</w>
h ain
tri pl
cou ss
ré parties</w>
sur vient</w>
quelques- unes</w>
extr a</w>
rec ouvre</w>
us ées</w>
z on</w>
résu mer</w>
e b</w>
dan seu
3 9
dét este</w>
per cer</w>
an ton
bour g
évan gile</w>
ay -
honor er</w>
bon homme</w>
gir l</w>
pu rée</w>
13 -
og m</w>
vali dé</w>
sacri fices</w>
re passer</w>
per quisi
empê chent</w>
je ff</w>
automobil istes</w>
dé posez</w>
décri ts</w>
la w</w>
plai san
annon çait</w>
contin ents</w>
embrass er</w>
exi gé</w>
mas car
bro ok
vi able</w>
a chev
sti pul
ti rées</w>
méta morpho
istan bul</w>
con viennent</w>
3 20</w>
déc el
rec tifi
ball et</w>
traver sant</w>
in ois</w>
ai re.
0, 2</w>
dési reux</w>
insuffis ant</w>
20 .
end ra</w>
ou f</w>
habitu els</w>
correspon dre</w>
hol m</w>
ini ère</w>
dé ter
soi -
famili aux</w>
li ant</w>
di ego</w>
w iller</w>
muscul aire</w>
gar ni
[...]
