{
  "": 50590,
  "!": 55175,
  "!</w>": 82,
  "\"": 56013,
  "\"</w>": 30,
  "#": 51006,
  "#</w>": 1224,
  "$": 56014,
  "$</w>": 855,
  "%": 52653,
  "%</w>": 103,
  "&": 51027,
  "&</w>": 294,
  "'": 15354,
  "'</w>": 69,
  "(": 57345,
  "(</w>": 41,
  ")": 58776,
  ")</w>": 40,
  "*": 51636,
  "*</w>": 634,
  "+</w>": 433,
  ",": 28996,
  ",</w>": 14,
  "-": 200,
  "--": 2128,
  "---</w>": 33179,
  "--</w>": 2913,
  "--c'</w>": 27329,
  "--et</w>": 23798,
  "--il</w>": 28260,
  "--j'</w>": 44280,
  "--je</w>": 17539,
  "--la</w>": 45512,
  "--le</w>": 26174,
  "--mais</w>": 30870,
  "--non</w>": 45081,
  "--oui</w>": 36038,
  "--vous</w>": 29850,
  "-0,": 25933,
  "-1,": 43563,
  "-10</w>": 32427,
  "-1</w>": 11775,
  "-20</w>": 35992,
  "-2</w>": 21341,
  "-30</w>": 44148,
  "-3</w>": 28862,
  "-4</w>": 32634,
  "-50</w>": 38606,
  "-5</w>": 25154,
  "-6</w>": 28533,
  "-</w>": 71,
  "-ce</w>": 36587,
  "-ci</w>": 15770,
  "-d'</w>": 28650,
  "-de-": 11273,
  "-e</w>": 45787,
  "-elle</w>": 29594,
  "-en-": 44838,
  "-en</w>": 44759,
  "-est</w>": 47118,
  "-et</w>": 27706,
  "-fi</w>": 36081,
  "-il</w>": 15798,
  "-ils</w>": 37591,
  "-je</w>": 15193,
  "-l'</w>": 39983,
  "-la</w>": 26177,
  "-le-": 27889,
  "-le</w>": 23096,
  "-les</w>": 30202,
  "-là</w>": 9209,
  "-man</w>": 49750,
  "-même</w>": 19286,
  "-on</w>": 29936,
  "-out</w>": 38449,
  "-qui</w>": 44193,
  "-sur-": 11128,
  "-t-elle</w>": 38979,
  "-t-il</w>": 20869,
  "-tu</w>": 40441,
  "-un</w>": 43929,
  "-up</w>": 33476,
  "-vous</w>": 24538,
  "-y</w>": 42791,
  "-à-": 26290,
  ".": 372,
  ".-": 8445,
  ".--": 9850,
  ".-</w>": 4737,
  ".-o.</w>": 44042,
  "..": 47842,
  "....": 47717,
  "......</w>": 35728,
  ".....</w>": 7414,
  "....</w>": 1397,
  "...</w>": 75,
  "..</w>": 1278,
  ".000</w>": 6044,
  ".1</w>": 28353,
  ".2</w>": 22058,
  ".3</w>": 28094,
  ".</w>": 16,
  ".a</w>": 12044,
  ".alors</w>": 38935,
  ".après</w>": 31950,
  ".au</w>": 22430,
  ".avec</w>": 38161,
  ".c'</w>": 12525,
  ".ca</w>": 40890,
  ".ce</w>": 13697,
  ".ces</w>": 38607,
  ".cette</w>": 17567,
  ".com": 44650,
  ".com</w>": 3544,
  ".comme</w>": 44558,
  ".d'</w>": 36778,
  ".dans</w>": 14439,
  ".de</w>": 22177,
  ".des</w>": 32556,
  ".elle</w>": 31003,
  ".en</w>": 6640,
  ".enfin</w>": 45755,
  ".et</w>": 12517,
  ".fr</w>": 5713,
  ".il</w>": 5684,
  ".j'</w>": 13891,
  ".je</w>": 6839,
  ".l'</w>": 5439,
  ".la</w>": 3320,
  ".le</w>": 2482,
  ".les</w>": 3893,
  ".mais</w>": 14676,
  ".merci</w>": 36469,
  ".météo</w>": 44725,
  ".net</w>": 30242,
  ".nous</w>": 14887,
  ".on</w>": 17875,
  ".org</w>": 31795,
  ".par</w>": 23639,
  ".pour</w>": 6224,
  ".si</w>": 16303,
  ".sur</w>": 35777,
  ".tout</w>": 43946,
  ".un</w>": 13505,
  ".une</w>": 14706,
  ".voir</w>": 19447,
  ".vous</w>": 5530,
  ".à</w>": 38368,
  "/": 50603,
  "/</w>": 89,
  "0": 1781,
  "0,": 2194,
  "0,0": 27977,
  "0,00": 42677,
  "0,000</w>": 13320,
  "0,00</w>": 7981,
  "0,01</w>": 38970,
  "0,05</w>": 36531,
  "0,0</w>": 44377,
  "0,15</w>": 41782,
  "0,1</w>": 12312,
  "0,25</w>": 34640,
  "0,2</w>": 13453,
  "0,3</w>": 14165,
  "0,4</w>": 16034,
  "0,50</w>": 42254,
  "0,5</w>": 8970,
  "0,6</w>": 16658,
  "0,75</w>": 43248,
  "0,7</w>": 16879,
  "0,8</w>": 17400,
  "0,9</w>": 20547,
  "0-": 6477,
  "0-0</w>": 20567,
  "0-1</w>": 23479,
  "0-2</w>": 32760,
  "0-3</w>": 46211,
  "0.": 4414,
  "0.000</w>": 11468,
  "0.00</w>": 37595,
  "0.1</w>": 39321,
  "0.2</w>": 46720,
  "0.5</w>": 39171,
  "00": 4790,
  "00-": 19071,
  "00.pour</w>": 22494,
  "000": 27167,
  "000</w>": 351,
  "001</w>": 18242,
  "002</w>": 39599,
  "007</w>": 38071,
  "00</w>": 1938,
  "00m</w>": 31279,
  "01": 43886,
  "01-": 17629,
  "01.": 15753,
  "01</w>": 2395,
  "02": 26041,
  "02-": 21980,
  "02.": 17594,
  "02</w>": 3060,
  "03": 22642,
  "03-": 21151,
  "03.": 15370,
  "03</w>": 2830,
  "04": 18371,
  "04-": 20860,
  "04.": 15924,
  "04</w>": 2778,
  "05": 24031,
  "05-": 27682,
  "05.": 19322,
  "05</w>": 3231,
  "06": 18935,
  "06-": 27103,
  "06.": 17221,
  "06</w>": 3019,
  "07": 19660,
  "07-": 26570,
  "07.": 18286,
  "07</w>": 3600,
  "08": 15700,
  "08-": 29194,
  "08.": 21175,
  "08</w>": 3597,
  "09": 17708,
  "09-": 30009,
  "09.": 21704,
  "09</w>": 3466,
  "0</w>": 704,
  "0c</w>": 39005,
  "0m</w>": 37076,
  "1": 1541,
  "1,": 1932,
  "1,000</w>": 42780,
  "1,00</w>": 32625,
  "1,0</w>": 32990,
  "1,1</w>": 14072,
  "1,25</w>": 35821,
  "1,2</w>": 9606,
  "1,3</w>": 11147,
  "1,4</w>": 12034,
  "1,50</w>": 33016,
  "1,5</w>": 5409,
  "1,6</w>": 11385,
  "1,7</w>": 13635,
  "1,8</w>": 12486,
  "1,9</w>": 17186,
  "1-": 3410,
  "1-0</w>": 12015,
  "1-1</w>": 9554,
  "1-2</w>": 15961,
  "1-3</w>": 27591,
  "1-4</w>": 40022,
  "1-6</w>": 41790,
  "1-</w>": 18986,
  "1.": 2239,
  "1.0": 42343,
  "1.000</w>": 14663,
  "1.0</w>": 27102,
  "1.1.": 44489,
  "1.1</w>": 7320,
  "1.2.": 16860,
  "1.200</w>": 43249,
  "1.2</w>": 10915,
  "1.3.": 10108,
  "1.3</w>": 17165,
  "1.4.": 16495,
  "1.4</w>": 19799,
  "1.500</w>": 29700,
  "1.5</w>": 18834,
  "1.6": 42602,
  "1.6.": 25998,
  "1.6</w>": 29157,
  "1.8</w>": 40500,
  "1.9": 44111,
  "1.</w>": 13316,
  "10": 1679,
  "10,": 6738,
  "10,5</w>": 36313,
  "10-": 7885,
  "10.": 6253,
  "10.000</w>": 14060,
  "100": 14351,
  "100.000</w>": 16909,
  "10000</w>": 36806,
  "1000</w>": 4344,
  "100</w>": 649,
  "100e</w>": 42522,
  "100g</w>": 38208,
  "100m</w>": 28300,
  "101</w>": 12406,
  "102</w>": 14712,
  "103</w>": 15594,
  "104</w>": 14642,
  "105</w>": 11880,
  "106</w>": 15950,
  "107</w>": 15945,
  "1080": 50034,
  "1080p</w>": 43170,
  "108</w>": 15456,
  "109</w>": 15547,
  "10</w>": 203,
  "10e</w>": 14301,
  "10h": 28146,
  "10h00</w>": 36714,
  "10h30</w>": 31000,
  "10h</w>": 15243,
  "10ème</w>": 33869,
  "11": 6938,
  "11,": 8317,
  "11,5</w>": 39794,
  "11-": 8591,
  "11.": 7767,
  "110": 41967,
  "1100</w>": 28376,
  "110</w>": 7266,
  "111</w>": 16888,
  "112</w>": 16281,
  "113</w>": 18642,
  "114</w>": 19172,
  "115</w>": 13264,
  "116</w>": 18619,
  "117</w>": 17923,
  "118</w>": 18702,
  "119</w>": 19689,
  "11</w>": 526,
  "11e</w>": 18235,
  "11h": 30842,
  "11h00</w>": 41601,
  "11h30</w>": 37998,
  "11h</w>": 23920,
  "11ème</w>": 40547,
  "12": 2153,
  "12,": 7629,
  "12,5</w>": 26675,
  "12-": 8505,
  "12.": 7174,
  "12.000</w>": 41059,
  "120": 15349,
  "1200</w>": 14667,
  "120</w>": 4306,
  "121</w>": 21038,
  "122</w>": 18544,
  "123</w>": 18368,
  "124</w>": 20091,
  "125</w>": 8946,
  "126</w>": 19681,
  "127</w>": 19740,
  "128</w>": 14877,
  "129</w>": 20611,
  "12</w>": 407,
  "12e</w>": 18105,
  "12h": 31568,
  "12h00</w>": 41836,
  "12h30</w>": 33638,
  "12h</w>": 20376,
  "12ème</w>": 39326,
  "13": 2253,
  "13,": 8700,
  "13,5</w>": 38853,
  "13-": 13421,
  "13.": 12455,
  "130": 43710,
  "1300</w>": 25335,
  "130</w>": 6896,
  "131</w>": 21759,
  "132</w>": 19479,
  "133</w>": 21514,
  "134</w>": 22329,
  "135</w>": 14681,
  "136</w>": 20956,
  "1373</w>": 42489,
  "137</w>": 21596,
  "138</w>": 20238,
  "139</w>": 23808,
  "13</w>": 637,
  "13e</w>": 18769,
  "13h": 33923,
  "13h30</w>": 33089,
  "13h</w>": 23984,
  "13ème</w>": 38300,
  "14": 2232,
  "14,": 8207,
  "14,5</w>": 41809,
  "14-": 14218,
  "14-18</w>": 45320,
  "14.": 13100,
  "1400</w>": 27728,
  "140</w>": 6739,
  "141</w>": 23776,
  "142</w>": 23990,
  "143</w>": 23369,
  "144</w>": 21071,
  "145</w>": 18337,
  "146</w>": 24022,
  "147</w>": 23818,
  "148</w>": 24227,
  "149</w>": 22469,
  "14</w>": 557,
  "14e</w>": 20225,
  "14h": 32247,
  "14h00</w>": 35074,
  "14h30</w>": 24568,
  "14h</w>": 14635,
  "14ème</w>": 46057,
  "15": 1669,
  "15,": 8909,
  "15,5</w>": 43812,
  "15-": 11014,
  "15.": 12806,
  "15.000</w>": 27376,
  "150": 19757,
  "150.000</w>": 38045,
  "1500</w>": 10574,
  "150</w>": 2774,
  "151</w>": 24623,
  "152</w>": 22503,
  "153</w>": 24341,
  "154</w>": 24725,
  "155</w>": 19760,
  "156</w>": 23373,
  "157</w>": 25135,
  "158</w>": 25729,
  "159</w>": 23846,
  "15</w>": 325,
  "15e</w>": 19755,
  "15h": 34160,
  "15h00</w>": 38250,
  "15h30</w>": 35989,
  "15h</w>": 20096,
  "15ème</w>": 41570,
  "16": 1300,
  "16,": 9207,
  "16-": 17720,
  "16.": 14494,
  "1600</w>": 21207,
  "160</w>": 7189,
  "161</w>": 26251,
  "162</w>": 25258,
  "163</w>": 26237,
  "164</w>": 27286,
  "165</w>": 19853,
  "166</w>": 25017,
  "167</w>": 25659,
  "168</w>": 24101,
  "169</w>": 25068,
  "16</w>": 635,
  "16e</w>": 19236,
  "16h": 29411,
  "16h00</w>": 29699,
  "16h30</w>": 30336,
  "16h</w>": 19046,
  "16ème</w>": 37740,
  "17": 1438,
  "17,": 10606,
  "17,5</w>": 45647,
  "17-": 19230,
  "17.": 15604,
  "1700</w>": 27704,
  "170</w>": 10317,
  "171</w>": 28120,
  "172</w>": 26580,
  "173</w>": 27179,
  "174</w>": 28252,
  "1750</w>": 38822,
  "175</w>": 16202,
  "1760</w>": 42600,
  "1763</w>": 45809,
  "176</w>": 26873,
  "1770</w>": 43457,
  "1775</w>": 45924,
  "1776</w>": 43825,
  "1778</w>": 46491,
  "177</w>": 25458,
  "1780</w>": 38670,
  "1782</w>": 44321,
  "1783</w>": 43921,
  "1784</w>": 42591,
  "1785</w>": 44467,
  "1787</w>": 43124,
  "1788</w>": 42596,
  "1789</w>": 15389,
  "178</w>": 27062,
  "179": 41621,
  "1790</w>": 23595,
  "1791</w>": 25378,
  "1792</w>": 20974,
  "1793</w>": 17862,
  "1794</w>": 28355,
  "1795</w>": 31653,
  "1796</w>": 39358,
  "1797</w>": 40480,
  "1798</w>": 37854,
  "1799</w>": 37502,
  "179</w>": 28890,
  "17</w>": 677,
  "17e</w>": 19812,
  "17h": 30390,
  "17h00</w>": 34058,
  "17h30</w>": 28670,
  "17h</w>": 16155,
  "17ème</w>": 37447,
  "18": 5362,
  "18,": 10192,
  "18-": 15023,
  "18.": 16291,
  "180": 27553,
  "1800</w>": 16454,
  "1801</w>": 32879,
  "1802</w>": 36198,
  "1803</w>": 36931,
  "1804</w>": 35031,
  "1805</w>": 40141,
  "1806</w>": 33379,
  "1807</w>": 35881,
  "1808</w>": 34785,
  "1809</w>": 35203,
  "180</w>": 6661,
  "180c</w>": 35840,
  "1810</w>": 31886,
  "1811</w>": 38370,
  "1812</w>": 29479,
  "1813</w>": 33724,
  "1814</w>": 24440,
  "1815</w>": 22120,
  "1816</w>": 36263,
  "1817</w>": 40210,
  "1818</w>": 38656,
  "1819</w>": 36816,
  "181</w>": 28170,
  "1820</w>": 29072,
  "1821</w>": 37331,
  "1822</w>": 38553,
  "1823</w>": 39834,
  "1824</w>": 38750,
  "1825</w>": 35391,
  "1826</w>": 40061,
  "1827</w>": 38066,
  "1828</w>": 37682,
  "1829</w>": 37140,
  "182</w>": 25431,
  "1830</w>": 16496,
  "1831</w>": 29284,
  "1832</w>": 30794,
  "1833</w>": 32410,
  "1834</w>": 33741,
  "1835</w>": 33309,
  "1836</w>": 32947,
  "1837</w>": 31206,
  "1838</w>": 32943,
  "1839</w>": 32913,
  "183</w>": 27824,
  "184": 37422,
  "1840</w>": 22468,
  "1841</w>": 33686,
  "1842</w>": 32592,
  "1843</w>": 33907,
  "1844</w>": 33925,
  "1845</w>": 31862,
  "1846</w>": 31755,
  "1847</w>": 32495,
  "1848</w>": 16657,
  "1849</w>": 28949,
  "184</w>": 28965,
  "185": 33197,
  "1850</w>": 19336,
  "1851</w>": 26598,
  "1852</w>": 28389,
  "1853</w>": 32552,
  "1854</w>": 30449,
  "1855</w>": 28017,
  "1856</w>": 31091,
  "1857</w>": 29983,
  "1858</w>": 30926,
  "1859</w>": 28979,
  "185</w>": 21164,
  "186": 28365,
  "1860</w>": 18638,
  "1861</w>": 27714,
  "1862</w>": 27701,
  "1863</w>": 26335,
  "1864</w>": 27154,
  "1865</w>": 26272,
  "1866</w>": 27299,
  "1867</w>": 22547,
  "1868</w>": 27697,
  "1869</w>": 28836,
  "186</w>": 28879,
  "187": 24734,
  "1870</w>": 14142,
  "1871</w>": 19788,
  "1872</w>": 27136,
  "1873</w>": 27210,
  "1874</w>": 27637,
  "1875</w>": 25564,
  "1876</w>": 26382,
  "1877</w>": 29053,
  "1878</w>": 25650,
  "1879</w>": 28692,
  "187</w>": 28211,
  "188": 25575,
  "1880</w>": 17843,
  "1881</w>": 23281,
  "1882</w>": 25288,
  "1883</w>": 27005,
  "1884</w>": 26235,
  "1885</w>": 23710,
  "1886</w>": 24630,
  "1887</w>": 27047,
  "1888</w>": 25848,
  "1889</w>": 22456,
  "188</w>": 28856,
  "189": 27900,
  "1890</w>": 19481,
  "1891</w>": 25987,
  "1892</w>": 25528,
  "1893</w>": 24629,
  "1894</w>": 24645,
  "1895</w>": 22669,
  "1896</w>": 22383,
  "1897</w>": 23851,
  "1898</w>": 21548,
  "1899</w>": 23721,
  "189</w>": 25114,
  "18</w>": 570,
  "18e</w>": 17642,
  "18h": 31399,
  "18h00</w>": 30524,
  "18h30</w>": 23098,
  "18h</w>": 13038,
  "18ème</w>": 30610,
  "19": 5663,
  "19,": 9222,
  "19-": 17491,
  "19.": 15198,
  "1900</w>": 12388,
  "1901</w>": 14952,
  "1902</w>": 21927,
  "1903</w>": 21931,
  "1904</w>": 20646,
  "1905</w>": 15150,
  "1906</w>": 19671,
  "1907</w>": 19378,
  "1908</w>": 19461,
  "1909</w>": 21120,
  "190</w>": 12766,
  "1910</w>": 15707,
  "1911</w>": 18478,
  "1912</w>": 16455,
  "1913</w>": 17381,
  "1914-": 38519,
  "1914</w>": 10284,
  "1915</w>": 15930,
  "1916</w>": 17430,
  "1917</w>": 13813,
  "1918</w>": 11354,
  "1919</w>": 14516,
  "191</w>": 27840,
  "1920</w>": 8999,
  "1921</w>": 17089,
  "1922</w>": 17384,
  "1923</w>": 17477,
  "1924</w>": 16251,
  "1925</w>": 16156,
  "1926</w>": 17317,
  "1927</w>": 17212,
  "1928</w>": 16142,
  "1929</w>": 13937,
  "192</w>": 23820,
  "193": 22949,
  "1930</w>": 8462,
  "1931</w>": 16847,
  "1932</w>": 15530,
  "1933</w>": 14162,
  "1934</w>": 15113,
  "1935</w>": 14966,
  "1936</w>": 12007,
  "1937</w>": 14183,
  "1938</w>": 13323,
  "1939</w>": 10801,
  "193</w>": 28546,
  "194": 16340,
  "1940</w>": 7718,
  "1941</w>": 11925,
  "1942</w>": 11058,
  "1943</w>": 11384,
  "1944</w>": 7970,
  "1945</w>": 6548,
  "1946</w>": 11201,
  "1947</w>": 11306,
  "1948</w>": 10367,
  "1949</w>": 11770,
  "194</w>": 29563,
  "195": 16683,
  "1950</w>": 6660,
  "1951</w>": 13306,
  "1952</w>": 12854,
  "1953</w>": 12360,
  "1954</w>": 11691,
  "1955</w>": 11875,
  "1956</w>": 10848,
  "1957</w>": 11475,
  "1958</w>": 8905,
  "1959</w>": 10740,
  "195</w>": 23344,
  "196": 13498,
  "1960</w>": 5097,
  "1961</w>": 10204,
  "1962</w>": 8580,
  "1963</w>": 9799,
  "1964</w>": 9533,
  "1965</w>": 9294,
  "1966</w>": 9625,
  "1967</w>": 7575,
  "1968</w>": 7179,
  "1969</w>": 8324,
  "196</w>": 29326,
  "197": 10941,
  "1970</w>": 4093,
  "1971</w>": 8054,
  "1972</w>": 7276,
  "1973</w>": 6811,
  "1974</w>": 7001,
  "1975</w>": 5978,
  "1976</w>": 6582,
  "1977</w>": 6466,
  "1978</w>": 5949,
  "1979</w>": 5929,
  "197</w>": 30666,
  "198": 8365,
  "1980</w>": 3257,
  "1981</w>": 5563,
  "1982</w>": 5372,
  "1983</w>": 5466,
  "1984</w>": 4976,
  "1985</w>": 4717,
  "1986</w>": 4334,
  "1987</w>": 4436,
  "1988</w>": 4060,
  "1989</w>": 3746,
  "198</w>": 29333,
  "199": 11488,
  "1990-": 38096,
  "1990</w>": 2278,
  "1991</w>": 3318,
  "1992-": 44654,
  "1992</w>": 2962,
  "1993-": 42518,
  "1993</w>": 3046,
  "1994-": 37053,
  "1994</w>": 2876,
  "1995-": 36994,
  "1995</w>": 2584,
  "1996-": 35683,
  "1996</w>": 2687,
  "1997-": 32834,
  "1997</w>": 2518,
  "1998-": 29739,
  "1998</w>": 2245,
  "1999-": 29943,
  "1999</w>": 1757,
  "199</w>": 23621,
  "19</w>": 830,
  "19e</w>": 16773,
  "19h": 30716,
  "19h00</w>": 35558,
  "19h30</w>": 27250,
  "19h</w>": 15842,
  "19ème</w>": 24668,
  "1</w>": 125,
  "1a</w>": 24930,
  "1b</w>": 37430,
  "1c</w>": 44470,
  "1e</w>": 12027,
  "1er": 38132,
  "1er</w>": 950,
  "1ere</w>": 28358,
  "1h": 22510,
  "1h30</w>": 23227,
  "1h</w>": 17710,
  "1m": 26168,
  "1m</w>": 34918,
  "1n2</w>": 38018,
  "1re</w>": 17694,
  "1ère</w>": 7963,
  "2": 1364,
  "2,": 3009,
  "2,00</w>": 32719,
  "2,0</w>": 36000,
  "2,1</w>": 18947,
  "2,2</w>": 15691,
  "2,3</w>": 15077,
  "2,4</w>": 15655,
  "2,50</w>": 28767,
  "2,5</w>": 6328,
  "2,6</w>": 17333,
  "2,7</w>": 17394,
  "2,8</w>": 17301,
  "2,9</w>": 21888,
  "2-": 3739,
  "2-0</w>": 13588,
  "2-1</w>": 10497,
  "2-2</w>": 20102,
  "2-3</w>": 17617,
  "2-4</w>": 42808,
  "2-6</w>": 43652,
  "2-</w>": 21093,
  "2.": 2723,
  "2.000</w>": 14871,
  "2.0</w>": 8933,
  "2.1.": 20620,
  "2.1</w>": 10766,
  "2.2.": 31043,
  "2.2</w>": 12845,
  "2.3</w>": 20229,
  "2.4</w>": 27485,
  "2.500</w>": 40317,
  "2.5</w>": 21262,
  "2.6</w>": 43306,
  "2.8</w>": 43397,
  "2.</w>": 12450,
  "20": 3379,
  "20,": 10620,
  "20-": 13597,
  "20.": 13458,
  "20.000</w>": 20054,
  "200": 5851,
  "200.000</w>": 26654,
  "2000-": 26916,
  "2000-2001</w>": 36561,
  "2000</w>": 1011,
  "2001-": 30191,
  "2001-2002</w>": 41086,
  "2001</w>": 1402,
  "2002-": 31687,
  "2002-2003</w>": 27014,
  "2002</w>": 1401,
  "2003-": 33883,
  "2003-2004</w>": 33163,
  "2003</w>": 1366,
  "2004-": 26057,
  "2004-2005</w>": 23214,
  "2004</w>": 1244,
  "2005-": 25256,
  "2005-2006</w>": 28613,
  "2005</w>": 1114,
  "2006-": 25321,
  "2006-2007</w>": 21834,
  "2006</w>": 1042,
  "2007-": 20210,
  "2007-2008</w>": 28896,
  "2007</w>": 926,
  "2008-": 25516,
  "2008-2009</w>": 22766,
  "2008</w>": 854,
  "2009-": 28368,
  "2009-2010</w>": 33383,
  "2009</w>": 902,
  "200</w>": 1392,
  "200m</w>": 33009,
  "201": 7691,
  "2010-": 29505,
  "2010-2011</w>": 28424,
  "2010</w>": 817,
  "2011-": 30303,
  "2011-2012</w>": 29687,
  "2011</w>": 793,
  "2012-": 33429,
  "2012-2013</w>": 28564,
  "2012</w>": 661,
  "2013-": 30252,
  "2013-2014</w>": 26605,
  "2013</w>": 716,
  "2014-": 24118,
  "2014-2015</w>": 23655,
  "2014</w>": 710,
  "2015-": 20551,
  "2015-2016</w>": 26262,
  "2015.": 45245,
  "2015</w>": 702,
  "2016-": 16304,
  "2016-2017</w>": 31500,
  "2016.": 35287,
  "2016</w>": 819,
  "2017-": 24897,
  "2017-2018</w>": 42797,
  "2017.": 46543,
  "2017</w>": 909,
  "2018</w>": 3214,
  "2019</w>": 6955,
  "201</w>": 24932,
  "2020</w>": 6371,
  "2021</w>": 29916,
  "2022</w>": 25099,
  "2024</w>": 35471,
  "2025</w>": 24056,
  "202</w>": 25966,
  "2030</w>": 18303,
  "203</w>": 28002,
  "204</w>": 27676,
  "2050</w>": 22735,
  "205</w>": 22810,
  "206</w>": 23452,
  "207</w>": 27825,
  "208</w>": 24180,
  "209</w>": 30776,
  "20</w>": 287,
  "20e</w>": 17371,
  "20h": 26137,
  "20h00</w>": 32786,
  "20h30</w>": 20233,
  "20h</w>": 12520,
  "20m</w>": 42980,
  "20ème</w>": 29521,
  "21": 13123,
  "21,": 20071,
  "21-": 19440,
  "21.": 17460,
  "2100</w>": 39395,
  "210</w>": 14705,
  "211</w>": 29302,
  "212</w>": 20271,
  "213</w>": 30589,
  "214</w>": 28635,
  "215</w>": 25591,
  "216</w>": 31803,
  "217</w>": 28521,
  "218</w>": 33451,
  "219</w>": 36193,
  "21</w>": 831,
  "21e</w>": 24317,
  "21h": 34555,
  "21h00</w>": 38886,
  "21h30</w>": 45402,
  "21h</w>": 23880,
  "21ème</w>": 40093,
  "22": 5914,
  "22,": 14088,
  "22-": 21847,
  "22.": 18524,
  "2200</w>": 45015,
  "220</w>": 11463,
  "221</w>": 32013,
  "222</w>": 31098,
  "223</w>": 33864,
  "224</w>": 31094,
  "225</w>": 19320,
  "226</w>": 32284,
  "227</w>": 34443,
  "228</w>": 31828,
  "229</w>": 37403,
  "22</w>": 872,
  "22e</w>": 35816,
  "22h": 32229,
  "22h</w>": 29491,
  "23": 6499,
  "23,": 16024,
  "23-": 21811,
  "23.": 19965,
  "230</w>": 13903,
  "231</w>": 33731,
  "232</w>": 30545,
  "233</w>": 27673,
  "234</w>": 35386,
  "235</w>": 24917,
  "236</w>": 36645,
  "237</w>": 36602,
  "238</w>": 34346,
  "239</w>": 33582,
  "23</w>": 927,
  "23e</w>": 38555,
  "23h": 39285,
  "23h</w>": 36800,
  "24": 6667,
  "24,": 14573,
  "24-": 19993,
  "24.": 18489,
  "240</w>": 12188,
  "241</w>": 36603,
  "242</w>": 33881,
  "243</w>": 38433,
  "244</w>": 33813,
  "245</w>": 31976,
  "246</w>": 40031,
  "247</w>": 39457,
  "248</w>": 37006,
  "249</w>": 34526,
  "24</w>": 693,
  "24e</w>": 38699,
  "24h</w>": 9927,
  "25": 6052,
  "25,": 14670,
  "25-": 14938,
  "25.": 19428,
  "25.000</w>": 35058,
  "250": 27982,
  "250.000</w>": 44620,
  "2500</w>": 20163,
  "250</w>": 3820,
  "251</w>": 35250,
  "252</w>": 36649,
  "253</w>": 34534,
  "254</w>": 36048,
  "255</w>": 30742,
  "256</w>": 24532,
  "257</w>": 36359,
  "258</w>": 39210,
  "259</w>": 40613,
  "25</w>": 538,
  "25e</w>": 30370,
  "26": 8653,
  "26,": 17803,
  "26-": 24024,
  "26.": 21624,
  "260</w>": 16884,
  "261</w>": 39699,
  "262</w>": 38916,
  "263</w>": 42081,
  "264</w>": 33517,
  "265</w>": 29336,
  "266</w>": 40246,
  "267</w>": 42079,
  "268</w>": 35137,
  "269</w>": 41755,
  "26</w>": 1089,
  "26e</w>": 43151,
  "27": 8623,
  "27,": 18177,
  "27-": 25379,
  "27.": 20408,
  "270</w>": 16790,
  "271</w>": 41602,
  "272</w>": 38343,
  "273</w>": 42395,
  "274</w>": 43599,
  "275</w>": 27585,
  "276</w>": 40544,
  "277</w>": 44244,
  "278</w>": 43725,
  "279</w>": 43295,
  "27</w>": 1098,
  "27e</w>": 42798,
  "28": 8542,
  "28,": 18021,
  "28-": 25822,
  "28.": 20106,
  "280</w>": 17287,
  "281</w>": 43138,
  "282</w>": 43930,
  "283</w>": 42896,
  "284</w>": 44453,
  "285</w>": 34687,
  "286</w>": 42198,
  "287</w>": 44074,
  "288</w>": 38520,
  "289</w>": 44508,
  "28</w>": 1065,
  "28e</w>": 42183,
  "29": 9202,
  "29,": 14608,
  "29-": 28615,
  "29.": 18484,
  "290</w>": 24730,
  "291</w>": 45100,
  "292</w>": 45145,
  "293</w>": 43708,
  "295</w>": 37187,
  "296</w>": 44294,
  "297</w>": 43801,
  "298</w>": 42065,
  "299</w>": 35805,
  "29</w>": 1216,
  "29e</w>": 45839,
  "2</w>": 122,
  "2a</w>": 28681,
  "2b</w>": 27991,
  "2c</w>": 27865,
  "2d</w>": 19191,
  "2e</w>": 4329,
  "2eme</w>": 34088,
  "2h": 38540,
  "2h</w>": 15296,
  "2m</w>": 27478,
  "2nd</w>": 38876,
  "2o</w>": 36285,
  "2p</w>": 45848,
  "2r</w>": 42814,
  "2s</w>": 43762,
  "2ème</w>": 6888,
  "3": 797,
  "3,": 3787,
  "3,00</w>": 42899,
  "3,0</w>": 46090,
  "3,1</w>": 24067,
  "3,2</w>": 18684,
  "3,3</w>": 18663,
  "3,4</w>": 19911,
  "3,50</w>": 40808,
  "3,5</w>": 8685,
  "3,6</w>": 19565,
  "3,7</w>": 20931,
  "3,8</w>": 20526,
  "3,9</w>": 24765,
  "3-": 3975,
  "3-0</w>": 17913,
  "3-1</w>": 14457,
  "3-2</w>": 19173,
  "3-3</w>": 32685,
  "3-4</w>": 25245,
  "3-6</w>": 32772,
  "3-</w>": 27134,
  "3.": 2967,
  "3.000</w>": 18987,
  "3.0</w>": 19318,
  "3.1</w>": 15187,
  "3.2</w>": 19507,
  "3.3</w>": 24783,
  "3.4</w>": 32628,
  "3.5</w>": 23592,
  "3.</w>": 15663,
  "30": 5457,
  "30,": 35770,
  "30-": 15986,
  "30.": 15022,
  "30.000</w>": 22368,
  "300": 15291,
  "300.000</w>": 30418,
  "3000</w>": 9873,
  "300</w>": 1933,
  "301</w>": 36715,
  "302</w>": 38042,
  "303</w>": 39255,
  "304</w>": 38218,
  "305</w>": 34372,
  "306</w>": 39365,
  "307</w>": 40732,
  "308</w>": 30087,
  "309</w>": 44801,
  "30</w>": 316,
  "30e</w>": 34010,
  "31": 39566,
  "31,": 38575,
  "31-": 34660,
  "31.": 24128,
  "31.12.": 31672,
  "310</w>": 23548,
  "311</w>": 43056,
  "312</w>": 39700,
  "313</w>": 42172,
  "314</w>": 43312,
  "315</w>": 34873,
  "316</w>": 39962,
  "317</w>": 43077,
  "318</w>": 42021,
  "319</w>": 41757,
  "31</w>": 1130,
  "32": 10468,
  "32,": 38134,
  "32-": 36913,
  "32.": 36650,
  "320</w>": 15915,
  "321</w>": 35666,
  "322</w>": 44518,
  "323</w>": 41498,
  "325</w>": 29912,
  "326</w>": 46512,
  "327</w>": 45812,
  "329</w>": 46588,
  "32</w>": 2100,
  "32e</w>": 44008,
  "33": 9150,
  "33,": 34228,
  "33-": 37170,
  "33.": 44162,
  "330</w>": 18227,
  "333</w>": 40423,
  "335</w>": 39988,
  "336</w>": 46691,
  "337</w>": 42985,
  "338</w>": 40541,
  "33</w>": 2412,
  "34": 11144,
  "34,": 21329,
  "34-": 40142,
  "34.": 44123,
  "340</w>": 22144,
  "343</w>": 40850,
  "345</w>": 41649,
  "349</w>": 45976,
  "34</w>": 2507,
  "35": 8215,
  "35,": 23887,
  "35-": 33618,
  "35.": 42943,
  "3500</w>": 32867,
  "350</w>": 7165,
  "352</w>": 41217,
  "354</w>": 46024,
  "355</w>": 37568,
  "357</w>": 46705,
  "35</w>": 1457,
  "35e</w>": 43659,
  "36": 11442,
  "36,": 24288,
  "360</w>": 7729,
  "365</w>": 21845,
  "36</w>": 2469,
  "37": 11818,
  "37,": 24183,
  "37-": 43322,
  "370</w>": 23711,
  "375</w>": 28784,
  "37</w>": 3005,
  "38": 11942,
  "38,": 24775,
  "380</w>": 21644,
  "384</w>": 45618,
  "385</w>": 45602,
  "388</w>": 43641,
  "38</w>": 2911,
  "39": 13410,
  "39,": 21223,
  "39-": 41760,
  "39.": 41481,
  "390</w>": 31437,
  "39</w>": 2922,
  "3</w>": 145,
  "3a</w>": 39969,
  "3c</w>": 36379,
  "3d</w>": 4386,
  "3ds</w>": 26617,
  "3e</w>": 4440,
  "3eme</w>": 41409,
  "3g</w>": 19139,
  "3h</w>": 28490,
  "3m</w>": 34018,
  "3ème</w>": 7527,
  "4": 700,
  "4,": 4419,
  "4,00</w>": 37083,
  "4,1</w>": 27766,
  "4,2</w>": 24136,
  "4,3</w>": 23476,
  "4,4</w>": 24411,
  "4,5</w>": 10890,
  "4,6</w>": 24114,
  "4,7</w>": 24639,
  "4,8</w>": 25076,
  "4,9</w>": 28683,
  "4-": 4490,
  "4-0</w>": 28392,
  "4-1</w>": 22643,
  "4-2</w>": 26717,
  "4-3</w>": 35449,
  "4-5</w>": 34361,
  "4-6</w>": 31407,
  "4-</w>": 34430,
  "4.": 3764,
  "4.000</w>": 25619,
  "4.0</w>": 28341,
  "4.1</w>": 19074,
  "4.2</w>": 22314,
  "4.3</w>": 23684,
  "4.4</w>": 33425,
  "4.5</w>": 28104,
  "4.6</w>": 41654,
  "4.7</w>": 46483,
  "4.</w>": 20053,
  "40": 7145,
  "40,": 46730,
  "40-": 29110,
  "40.": 31241,
  "40.000</w>": 33664,
  "400": 21568,
  "400.000</w>": 40234,
  "4000</w>": 14265,
  "400</w>": 2505,
  "400m</w>": 41181,
  "401</w>": 45810,
  "403</w>": 46841,
  "404</w>": 39846,
  "405</w>": 44087,
  "40</w>": 740,
  "40e</w>": 38730,
  "41,": 45836,
  "410</w>": 31953,
  "414</w>": 43038,
  "415</w>": 46168,
  "41</w>": 3188,
  "42": 26430,
  "42,": 42889,
  "420</w>": 25067,
  "425</w>": 39103,
  "42</w>": 2819,
  "43": 16799,
  "430</w>": 27417,
  "435</w>": 45461,
  "43</w>": 3172,
  "44": 13195,
  "44,": 40405,
  "440</w>": 25897,
  "44</w>": 2970,
  "45": 10305,
  "45,": 43416,
  "45-": 33811,
  "45.": 44441,
  "4500</w>": 46672,
  "450</w>": 9399,
  "45</w>": 1587,
  "45e</w>": 43879,
  "46": 17620,
  "46,": 46359,
  "460</w>": 29887,
  "46</w>": 3433,
  "47": 17096,
  "47,": 30678,
  "470</w>": 33594,
  "47</w>": 3327,
  "48": 15853,
  "48,": 26621,
  "480</w>": 23614,
  "48</w>": 2594,
  "48h</w>": 27009,
  "49": 16195,
  "49,": 22730,
  "49-": 44567,
  "49.": 36216,
  "490</w>": 39126,
  "499</w>": 46518,
  "49</w>": 3291,
  "4</w>": 186,
  "4a</w>": 43061,
  "4e</w>": 5849,
  "4g</w>": 18005,
  "4h</w>": 33201,
  "4k</w>": 28652,
  "4s</w>": 42144,
  "4x": 35342,
  "4x4</w>": 21385,
  "4ème</w>": 11834,
  "5": 723,
  "5,": 5404,
  "5,000</w>": 46172,
  "5,00</w>": 19860,
  "5,1</w>": 30975,
  "5,2</w>": 26350,
  "5,3</w>": 27679,
  "5,4</w>": 28293,
  "5,5</w>": 13249,
  "5,6</w>": 25063,
  "5,7</w>": 27002,
  "5,8</w>": 28891,
  "5,9</w>": 32880,
  "5-": 4564,
  "5-0</w>": 41609,
  "5-1</w>": 31312,
  "5-2</w>": 38800,
  "5-6</w>": 41373,
  "5-</w>": 42146,
  "5.": 4426,
  "5.000</w>": 15949,
  "5.0</w>": 29984,
  "5.1</w>": 21419,
  "5.2</w>": 30536,
  "5.3</w>": 36950,
  "5.4</w>": 46687,
  "5.5</w>": 34956,
  "5.</w>": 26072,
  "50": 6619,
  "50,": 41341,
  "50-": 25231,
  "50.": 33968,
  "50.000</w>": 17296,
  "500": 16760,
  "500.000</w>": 26584,
  "5000</w>": 10557,
  "500</w>": 1342,
  "500m</w>": 46355,
  "50</w>": 536,
  "50e</w>": 32141,
  "50m</w>": 27850,
  "510</w>": 34536,
  "512</w>": 37023,
  "514</w>": 45262,
  "51</w>": 3496,
  "52": 26694,
  "52-": 44626,
  "520</w>": 32053,
  "525</w>": 45657,
  "52</w>": 3415,
  "53": 25919,
  "530</w>": 34543,
  "53</w>": 3589,
  "54": 20211,
  "54,": 45820,
  "540</w>": 33708,
  "54</w>": 3608,
  "55": 14076,
  "55-": 45059,
  "550</w>": 16768,
  "55</w>": 2409,
  "56": 18031,
  "560</w>": 33583,
  "56</w>": 3244,
  "57": 20516,
  "570</w>": 41089,
  "575</w>": 42236,
  "57</w>": 3660,
  "58": 21479,
  "580</w>": 39186,
  "58</w>": 3528,
  "59": 17090,
  "59,": 38772,
  "590</w>": 45684,
  "59</w>": 3628,
  "5</w>": 192,
  "5c</w>": 34357,
  "5cm</w>": 42848,
  "5e</w>": 6877,
  "5g</w>": 42456,
  "5h</w>": 37966,
  "5m</w>": 32347,
  "5mm</w>": 40010,
  "5mn</w>": 45893,
  "5s</w>": 38597,
  "5ème</w>": 15153,
  "6": 766,
  "6,": 5808,
  "6,00</w>": 37289,
  "6,1</w>": 34179,
  "6,2</w>": 29377,
  "6,3</w>": 29088,
  "6,4</w>": 29332,
  "6,5</w>": 14014,
  "6,6</w>": 29119,
  "6,7</w>": 28709,
  "6,8</w>": 30558,
  "6,9</w>": 33817,
  "6-": 5177,
  "6-0</w>": 34099,
  "6-1</w>": 17723,
  "6-2</w>": 15638,
  "6-3</w>": 14177,
  "6-4</w>": 14353,
  "6-7</w>": 31243,
  "6.": 4581,
  "6.000</w>": 29913,
  "6.1</w>": 33277,
  "6.2</w>": 36282,
  "6.3</w>": 46328,
  "6.5</w>": 44419,
  "6.</w>": 33494,
  "60": 8911,
  "60-": 34343,
  "60.000</w>": 40511,
  "600": 22087,
  "6000</w>": 19523,
  "600</w>": 3246,
  "60</w>": 1021,
  "60e</w>": 44428,
  "610</w>": 39192,
  "61</w>": 4078,
  "620</w>": 35796,
  "62</w>": 3827,
  "63": 31095,
  "630</w>": 37201,
  "63</w>": 4258,
  "64": 22092,
  "640</w>": 32280,
  "64</w>": 3458,
  "65": 20962,
  "650</w>": 15012,
  "65</w>": 2740,
  "66": 23973,
  "660</w>": 38811,
  "66</w>": 4056,
  "67": 23288,
  "670</w>": 46169,
  "67</w>": 4018,
  "68": 21906,
  "680</w>": 39068,
  "68</w>": 3843,
  "69": 10655,
  "690</w>": 45016,
  "69</w>": 4545,
  "6</w>": 286,
  "6e</w>": 7333,
  "6h</w>": 30509,
  "6s</w>": 32961,
  "6ème</w>": 17087,
  "7": 946,
  "7,": 6435,
  "7,1</w>": 37614,
  "7,2</w>": 32256,
  "7,3</w>": 34214,
  "7,4</w>": 33601,
  "7,50</w>": 43654,
  "7,5</w>": 12542,
  "7,6</w>": 32241,
  "7,7</w>": 34138,
  "7,8</w>": 32983,
  "7,9</w>": 38958,
  "7-": 5417,
  "7-5</w>": 27600,
  "7-6</w>": 22393,
  "7.": 4765,
  "7.000</w>": 37522,
  "7.1</w>": 32300,
  "7.2</w>": 41693,
  "7.5</w>": 43569,
  "7.</w>": 39217,
  "70": 11118,
  "70-": 33581,
  "700": 34849,
  "7000</w>": 26332,
  "700</w>": 4492,
  "70</w>": 1407,
  "70e</w>": 43260,
  "71</w>": 4543,
  "720</w>": 31394,
  "72</w>": 3679,
  "73": 29147,
  "730</w>": 44839,
  "737</w>": 44615,
  "73</w>": 4719,
  "74": 27074,
  "74</w>": 4572,
  "75": 13036,
  "75-": 46638,
  "750": 24037,
  "7500": 27522,
  "750</w>": 10732,
  "75</w>": 2207,
  "76": 18465,
  "760</w>": 44303,
  "76</w>": 4601,
  "77": 18509,
  "77-": 47718,
  "770</w>": 44765,
  "777</w>": 42385,
  "77</w>": 3884,
  "78": 20220,
  "78-": 35902,
  "780</w>": 40555,
  "787</w>": 43997,
  "78</w>": 4291,
  "79": 28675,
  "79</w>": 4783,
  "7</w>": 354,
  "7e</w>": 8513,
  "7h</w>": 33860,
  "7j</w>": 36763,
  "7ème</w>": 22043,
  "8": 938,
  "8,": 6981,
  "8,00</w>": 40632,
  "8,1</w>": 40766,
  "8,2</w>": 35867,
  "8,3</w>": 36286,
  "8,4</w>": 37100,
  "8,5</w>": 16747,
  "8,6</w>": 36482,
  "8,7</w>": 37278,
  "8,8</w>": 35823,
  "8,9</w>": 38438,
  "8-": 5038,
  "8.": 5045,
  "8.000</w>": 33103,
  "8.1</w>": 32472,
  "8.2</w>": 46494,
  "8.</w>": 43227,
  "80": 10456,
  "80-": 39809,
  "800": 24593,
  "8000</w>": 25299,
  "800</w>": 3644,
  "802.": 42957,
  "80</w>": 1124,
  "810</w>": 41923,
  "81</w>": 4620,
  "820</w>": 45670,
  "82</w>": 4674,
  "83</w>": 4582,
  "84": 24759,
  "840</w>": 42484,
  "84</w>": 5009,
  "85": 17443,
  "85-": 46140,
  "850</w>": 19887,
  "85</w>": 2959,
  "86": 28009,
  "86-": 44145,
  "86</w>": 4155,
  "87": 27809,
  "87</w>": 4575,
  "88": 22939,
  "88-": 42900,
  "88</w>": 3933,
  "89": 29881,
  "89-": 42099,
  "89</w>": 3958,
  "8</w>": 346,
  "8e</w>": 8551,
  "8h30</w>": 33024,
  "8h</w>": 22703,
  "8ème</w>": 28676,
  "9": 1132,
  "9,": 7235,
  "9,00</w>": 11149,
  "9,1</w>": 45058,
  "9,2</w>": 41905,
  "9,3</w>": 41638,
  "9,4</w>": 43279,
  "9,5</w>": 25990,
  "9,6</w>": 42799,
  "9,7</w>": 40893,
  "9,8</w>": 45071,
  "9,90</w>": 32799,
  "9,99</w>": 35537,
  "9-": 5957,
  "9.": 5285,
  "9.</w>": 45479,
  "90": 12885,
  "90-": 35478,
  "900": 44777,
  "9000</w>": 35978,
  "900</w>": 6958,
  "90</w>": 1169,
  "90e</w>": 41265,
  "91-": 46803,
  "910</w>": 44415,
  "911</w>": 30798,
  "91</w>": 4568,
  "92-": 21872,
  "92-77-": 38405,
  "92</w>": 3695,
  "93": 28237,
  "93</w>": 4114,
  "94": 23567,
  "94</w>": 4263,
  "95": 22319,
  "950</w>": 27765,
  "95</w>": 2636,
  "96": 30944,
  "960</w>": 44852,
  "963-": 42719,
  "96</w>": 4469,
  "97": 23872,
  "97-": 46013,
  "97</w>": 4921,
  "98": 35323,
  "98-": 46893,
  "98</w>": 4528,
  "99": 22793,
  "99,": 31252,
  "99-": 44962,
  "990</w>": 46634,
  "999</w>": 39534,
  "99</w>": 3031,
  "9</w>": 511,
  "9e</w>": 9917,
  "9h30</w>": 32152,
  "9h</w>": 18773,
  "9ème</w>": 32948,
  ":": 56874,
  ":</w>": 45,
  ";": 57346,
  ";</w>": 80,
  "<": 49891,
  "</s>": 1,
  "<</w>": 9266,
  "<pad>": 2,
  "<s>": 0,
  "<special0>": 4,
  "<special1>": 5,
  "<special2>": 6,
  "<special3>": 7,
  "<special4>": 8,
  "<special5>": 9,
  "<special6>": 10,
  "<special7>": 11,
  "<special8>": 12,
  "<special9>": 13,
  "<unk>": 3,
  "=</w>": 1139,
  ">": 52878,
  "></w>": 1014,
  "?": 56015,
  "?</w>": 88,
  "@": 53252,
  "@</w>": 2185,
  "A": 14911,
  "A</w>": 49687,
  "B": 28481,
  "B</w>": 50483,
  "C": 13056,
  "C</w>": 50175,
  "D": 19186,
  "D</w>": 50341,
  "E": 23258,
  "E</w>": 50297,
  "F": 21793,
  "F</w>": 50550,
  "G": 34641,
  "G</w>": 50774,
  "H": 44070,
  "H</w>": 50533,
  "I": 33317,
  "I</w>": 49845,
  "Il</w>": 34898,
  "J": 34498,
  "J</w>": 51489,
  "K": 49377,
  "K</w>": 51045,
  "L": 25160,
  "L</w>": 50613,
  "La</w>": 36091,
  "Le</w>": 32384,
  "Les</w>": 39189,
  "M": 18263,
  "M</w>": 50516,
  "N": 34737,
  "N</w>": 50378,
  "O": 33714,
  "O</w>": 50477,
  "P": 14216,
  "P</w>": 50390,
  "Q": 47450,
  "Q</w>": 51726,
  "Qui</w>": 42788,
  "R": 25033,
  "R</w>": 50551,
  "S": 17654,
  "S</w>": 50097,
  "T": 29446,
  "T</w>": 50446,
  "U": 38085,
  "U</w>": 50922,
  "V": 29327,
  "V</w>": 50367,
  "W": 49671,
  "W</w>": 51857,
  "X": 49211,
  "X</w>": 50654,
  "Y": 49986,
  "Y</w>": 50826,
  "Z": 49200,
  "Z</w>": 51490,
  "[": 63460,
  "[</w>": 9518,
  "\\": 50853,
  "\\</w>": 6475,
  "]": 55176,
  "]</w>": 9467,
  "^": 52879,
  "^</w>": 53179,
  "_": 51419,
  "_</w>": 432,
  "`": 54568,
  "`</w>": 58777,
  "a": 554,
  "a'</w>": 11810,
  "a-": 2886,
  "a-</w>": 24947,
  "a-t-elle</w>": 3640,
  "a-t-il</w>": 924,
  "a-t-on</w>": 7683,
  "a.": 3427,
  "a.</w>": 2975,
  "a.com</w>": 38271,
  "a1</w>": 22247,
  "a2</w>": 25882,
  "a320</w>": 44378,
  "a380</w>": 45344,
  "a3</w>": 30014,
  "a4</w>": 19990,
  "a5</w>": 44499,
  "a6</w>": 43372,
  "a</w>": 34,
  "aa": 20386,
  "aa</w>": 10225,
  "aaa</w>": 24994,
  "aac</w>": 44736,
  "aan</w>": 36875,
  "aar": 40415,
  "aar</w>": 39820,
  "aaron</w>": 22699,
  "ab": 1154,
  "ab</w>": 6791,
  "aba</w>": 18740,
  "abad</w>": 47782,
  "abaiss": 20744,
  "abaisse</w>": 31360,
  "abaissement</w>": 25138,
  "abaisser</w>": 18804,
  "abaissé</w>": 27674,
  "aban": 10141,
  "aband": 45365,
  "abandon</w>": 6138,
  "abandonna</w>": 41808,
  "abandonnant</w>": 28388,
  "abandonne</w>": 10861,
  "abandonnent</w>": 29961,
  "abandonner</w>": 6054,
  "abandonné</w>": 6312,
  "abandonnée</w>": 13240,
  "abandonnées</w>": 24524,
  "abandonnés</w>": 16128,
  "abas": 38245,
  "abat": 13852,
  "abat</w>": 26293,
  "abats</w>": 36407,
  "abattage</w>": 19930,
  "abattement</w>": 24610,
  "abattoir</w>": 31971,
  "abattoirs</w>": 35021,
  "abattre</w>": 14127,
  "abattu</w>": 11725,
  "abattue</w>": 37669,
  "abattus</w>": 23470,
  "abb": 35131,
  "abbas</w>": 19289,
  "abbati": 48839,
  "abbatiale</w>": 42209,
  "abbaye</w>": 6545,
  "abbayes</w>": 42255,
  "abbé</w>": 6409,
  "abc</w>": 10188,
  "abd": 48882,
  "abd</w>": 36764,
  "abdallah</w>": 24376,
  "abdel": 15334,
  "abdel</w>": 24145,
  "abdelaziz</w>": 42048,
  "abdelkader</w>": 45912,
  "abder": 45002,
  "abdes": 50499,
  "abdeslam</w>": 38362,
  "abdi": 25371,
  "abdom": 50402,
  "abdomen</w>": 27844,
  "abdomin": 28765,
  "abdominale</w>": 37676,
  "abdou": 45300,
  "abdou</w>": 43712,
  "abdoulaye</w>": 26298,
  "abdu": 33139,
  "abdullah</w>": 38107,
  "abe": 38794,
  "abe</w>": 16737,
  "abeba</w>": 39637,
  "abeille</w>": 21192,
  "abeilles</w>": 13327,
  "abel</w>": 18455,
  "aber": 18537,
  "aberration</w>": 38216,
  "abes</w>": 48949,
  "abi": 7065,
  "abi</w>": 21998,
  "abidjan</w>": 18292,
  "abil": 19718,
  "abilité</w>": 12052,
  "abis</w>": 49511,
  "abiti": 31654,
  "abjec": 40424,
  "ablation</w>": 36470,
  "able": 23245,
  "able.": 23977,
  "able</w>": 1559,
  "ablement</w>": 13068,
  "ables": 26383,
  "ables</w>": 1806,
  "abnégation</w>": 38011,
  "abo": 29032,
  "abo</w>": 28030,
  "abol": 35971,
  "aboli": 24968,
  "aboli</w>": 36954,
  "abolir</w>": 26079,
  "abolition</w>": 14007,
  "abomin": 31723,
  "abominable</w>": 35736,
  "abon": 16200,
  "abondamment</w>": 19716,
  "abondance</w>": 10019,
  "abondant</w>": 34043,
  "abondante</w>": 16528,
  "abondantes</w>": 26112,
  "abonde</w>": 32725,
  "abondent</w>": 39082,
  "abonn": 35959,
  "abonnement</w>": 6586,
  "abonnements</w>": 6978,
  "abonner</w>": 18084,
  "abonnez-vous</w>": 34113,
  "abonné</w>": 14084,
  "abonnés</w>": 6544,
  "abor": 10412,
  "abord</w>": 639,
  "abordable</w>": 13948,
  "abordables</w>": 18886,
  "abordant</w>": 30752,
  "aborde</w>": 9176,
  "abordent</w>": 28662,
  "aborder</w>": 5641,
  "abords</w>": 11705,
  "abordé</w>": 12002,
  "abordée</w>": 24559,
  "abordées</w>": 23651,
  "abordés</w>": 13652,
  "abore</w>": 50230,
  "aborig": 48233,
  "aborigènes</w>": 43796,
  "abos</w>": 45027,
  "abou": 17227,
  "abou</w>": 14723,
  "abour": 49940,
  "about</w>": 12492,
  "abouti": 15203,
  "abouti</w>": 10704,
  "aboutie</w>": 42860,
  "aboutir</w>": 7987,
  "aboutira</w>": 45473,
  "aboutissant</w>": 35698,
  "aboutissement</w>": 18372,
  "aboutissent</w>": 27188,
  "aboutit</w>": 14460,
  "abra": 14329,
  "abraham</w>": 14407,
  "abrasion</w>": 45994,
  "abre</w>": 29292,
  "abres</w>": 42523,
  "abreu": 24964,
  "abri": 14178,
  "abri</w>": 4877,
  "abricot</w>": 33767,
  "abricots</w>": 33177,
  "abris</w>": 16355,
  "abritait</w>": 40816,
  "abritant</w>": 26507,
  "abrite</w>": 8189,
  "abritent</w>": 29560,
  "abriter</w>": 21907,
  "abrité</w>": 38039,
  "abro": 20308,
  "abrogation</w>": 27796,
  "abroger</w>": 40178,
  "abrogé</w>": 38665,
  "abru": 20840,
  "abrup": 24474,
  "abré": 29097,
  "abrégé</w>": 29824,
  "abrévi": 50125,
  "abréviation</w>": 37409,
  "abréviations</w>": 46731,
  "abs": 20950,
  "abs</w>": 24003,
  "absen": 29569,
  "absence</w>": 1379,
  "absences</w>": 22776,
  "absent</w>": 10020,
  "absente</w>": 17790,
  "absentes</w>": 39464,
  "absents</w>": 15747,
  "absentéisme</w>": 35442,
  "abside</w>": 37712,
  "absol": 29827,
  "absolu</w>": 7212,
  "absolue</w>": 5324,
  "absolument</w>": 2336,
  "absolus</w>": 39888,
  "absor": 22599,
  "absorb": 24393,
  "absorbant</w>": 20819,
  "absorbe</w>": 24026,
  "absorbent</w>": 44263,
  "absorber</w>": 15678,
  "absorbé</w>": 22167,
  "absorbée</w>": 28636,
  "absorption</w>": 11026,
  "absten": 47146,
  "abstenir</w>": 18744,
  "abstention</w>": 12154,
  "abstentions</w>": 35288,
  "abstenus</w>": 21973,
  "absti": 28295,
  "abstin": 49421,
  "abstinence</w>": 43788,
  "abstr": 37793,
  "abstraction</w>": 16269,
  "abstrait</w>": 22926,
  "abstraite</w>": 28031,
  "abstraites</w>": 40535,
  "abstraits</w>": 45496,
  "absur": 47470,
  "absurde</w>": 10777,
  "absurdes</w>": 32380,
  "absurdité</w>": 28815,
  "abu": 11787,
  "abu</w>": 23039,
  "abus": 19616,
  "abus</w>": 4954,
  "abuse</w>": 29854,
  "abuser</w>": 23003,
  "abusif</w>": 31543,
  "abusive</w>": 27866,
  "abusives</w>": 41670,
  "abusé</w>": 23048,
  "aby": 32318,
  "abyss": 35201,
  "abé": 36951,
  "abî": 18896,
  "abîme</w>": 19939,
  "abîmer</w>": 37157,
  "abîmé</w>": 42633,
  "ac": 1147,
  "ac-": 26764,
  "ac.": 24105,
  "ac</w>": 2265,
  "aca": 37279,
  "aca</w>": 26154,
  "acacia</w>": 43951,
  "acad": 36327,
  "academy</w>": 20713,
  "acadi": 22947,
  "acadie</w>": 40644,
  "acadé": 48634,
  "académi": 29150,
  "académie</w>": 3686,
  "académies</w>": 28182,
  "académique</w>": 10597,
  "académiques</w>": 19269,
  "acc": 9192,
  "acc</w>": 44046,
  "acca": 17174,
  "acca</w>": 39997,
  "accabl": 18764,
  "accablé</w>": 44747,
  "accal": 50063,
  "accalmie</w>": 45190,
  "accen": 20150,
  "accent</w>": 3712,
  "accents</w>": 16813,
  "accentu": 32351,
  "accentue</w>": 24420,
  "accentuer</w>": 18607,
  "accentué</w>": 29543,
  "accentuée</w>": 35764,
  "accep": 9243,
  "accepta</w>": 29405,
  "acceptable</w>": 8978,
  "acceptables</w>": 19362,
  "acceptait</w>": 37690,
  "acceptant</w>": 19167,
  "acceptation</w>": 7002,
  "accepte</w>": 4462,
  "acceptent</w>": 12023,
  "accepter</w>": 2810,
  "acceptera</w>": 34988,
  "accepterait</w>": 46861,
  "acceptez</w>": 6696,
  "acception</w>": 38138,
  "acceptons</w>": 32849,
  "accepté</w>": 3682,
  "acceptée</w>": 12947,
  "acceptées</w>": 21023,
  "acceptés</w>": 17519,
  "acces</w>": 31772,
  "access": 48756,
  "access</w>": 21016,
  "accessi": 42418,
  "accessibilité</w>": 9220,
  "accessible</w>": 3013,
  "accessibles</w>": 4914,
  "accession</w>": 14038,
  "accessoi": 36691,
  "accessoire</w>": 9711,
  "accessoirement</w>": 28689,
  "accessoires</w>": 3182,
  "acci": 24173,
  "acciden": 31134,
  "accident": 42836,
  "accident</w>": 2554,
  "accidents</w>": 5804,
  "accidenté</w>": 42034,
  "accise</w>": 31511,
  "acclam": 19214,
  "acco": 29777,
  "acco</w>": 47051,
  "accol": 21552,
  "accom": 33804,
  "accommo": 22664,
  "accommod": 46348,
  "accommoder</w>": 31838,
  "accompa": 49356,
  "accompagn": 14385,
  "accompagnaient</w>": 42989,
  "accompagnait</w>": 26537,
  "accompagnant</w>": 16501,
  "accompagnateur</w>": 36669,
  "accompagnateurs</w>": 42579,
  "accompagne</w>": 4499,
  "accompagnement</w>": 4115,
  "accompagnent</w>": 10576,
  "accompagner</w>": 3380,
  "accompagnera</w>": 22764,
  "accompagneront</w>": 44754,
  "accompagnons</w>": 46723,
  "accompagné</w>": 3353,
  "accompagnée</w>": 6731,
  "accompagnées</w>": 15277,
  "accompagnés</w>": 8345,
  "accompl": 23672,
  "accompli": 46552,
  "accompli</w>": 7657,
  "accomplie</w>": 21101,
  "accomplies</w>": 34840,
  "accomplir</w>": 6414,
  "accomplis</w>": 10738,
  "accomplissement</w>": 12660,
  "accomplissent</w>": 42436,
  "accomplit</w>": 21891,
  "accor": 10203,
  "accord-": 50361,
  "accord-cadre</w>": 35746,
  "accord</w>": 476,
  "accorda</w>": 45886,
  "accordait</w>": 35884,
  "accordant</w>": 19536,
  "accorde</w>": 6070,
  "accordent</w>": 12180,
  "accorder</w>": 4617,
  "accordera</w>": 40927,
  "according</w>": 31904,
  "accords</w>": 2700,
  "accordé</w>": 5495,
  "accordée</w>": 6036,
  "accordées</w>": 13011,
  "accordéon</w>": 29028,
  "accordés</w>": 12139,
  "accos": 46041,
  "accou": 8822,
  "accouchement</w>": 12841,
  "accoucher</w>": 30717,
  "accouché</w>": 40019,
  "accoudoirs</w>": 43932,
  "accouplement</w>": 30104,
  "accoutu": 25165,
  "accoutumée</w>": 34627,
  "accro": 8000,
  "accro</w>": 25888,
  "accrochage</w>": 28390,
  "accroche</w>": 14112,
  "accrochent</w>": 40214,
  "accrocher</w>": 12445,
  "accroché</w>": 15845,
  "accrochée</w>": 34582,
  "accrochés</w>": 33970,
  "accroissement</w>": 7378,
  "accroissent</w>": 45722,
  "accroitre</w>": 46019,
  "accros</w>": 43747,
  "accrou": 36453,
  "accroît</w>": 17621,
  "accroître</w>": 4512,
  "accru</w>": 11308,
  "accrue</w>": 6873,
  "accrues</w>": 28551,
  "accrus</w>": 33219,
  "accrédi": 26930,
  "accréditation</w>": 21930,
  "accrédité</w>": 45825,
  "accrédités</w>": 44157,
  "accu": 13203,
  "accue": 32261,
  "accueil": 33829,
  "accueil</w>": 1077,
  "accueill": 23321,
  "accueillait</w>": 33046,
  "accueillant</w>": 9654,
  "accueillante</w>": 15613,
  "accueillants</w>": 18312,
  "accueille</w>": 4164,
  "accueillent</w>": 14343,
  "accueillera</w>": 15719,
  "accueilleront</w>": 39319,
  "accueilli</w>": 5206,
  "accueillie</w>": 18526,
  "accueillies</w>": 33296,
  "accueillir</w>": 2672,
  "accueillis</w>": 9302,
  "accueillit</w>": 41676,
  "accueillons</w>": 32921,
  "accumul": 22500,
  "accumulateur</w>": 41203,
  "accumulation</w>": 10380,
  "accumule</w>": 27967,
  "accumulent</w>": 25155,
  "accumuler</w>": 20628,
  "accumulé</w>": 21837,
  "accumulée</w>": 38328,
  "accumulées</w>": 33330,
  "accumulés</w>": 32616,
  "accus": 34594,
  "accusait</w>": 35106,
  "accusant</w>": 18424,
  "accusation</w>": 7583,
  "accusations</w>": 6847,
  "accuse</w>": 8203,
  "accusent</w>": 17763,
  "accuser</w>": 16347,
  "accusé</w>": 3469,
  "accusée</w>": 16573,
  "accusées</w>": 36946,
  "accusés</w>": 8885,
  "accè": 41126,
  "accède</w>": 15905,
  "accèdent</w>": 36195,
  "accès</w>": 426,
  "accé": 24884,
  "accédant</w>": 44210,
  "accéder</w>": 2545,
  "accédez</w>": 21948,
  "accédé</w>": 35307,
  "accél": 49387,
  "accélère</w>": 17666,
  "accélé": 16702,
  "accélérateur</w>": 22750,
  "accélération</w>": 8737,
  "accélérations</w>": 43298,
  "accélérer</w>": 6622,
  "accéléré</w>": 17709,
  "accélérée</w>": 21287,
  "accés</w>": 44124,
  "acdi</w>": 41477,
  "ace": 46988,
  "ace</w>": 11044,
  "aceae</w>": 31086,
  "acer": 34309,
  "acer</w>": 28956,
  "aces</w>": 16365,
  "ach": 5013,
  "ach</w>": 8411,
  "achal": 34205,
  "achar": 21168,
  "acharnement</w>": 22489,
  "acharné</w>": 29914,
  "acharnée</w>": 33221,
  "acharnés</w>": 46599,
  "achat": 42716,
  "achat</w>": 1303,
  "achats</w>": 3362,
  "ache": 23484,
  "ache</w>": 15867,
  "achem": 23377,
  "acheminement</w>": 18319,
  "acheminer</w>": 24858,
  "acheminé</w>": 42045,
  "acheminée</w>": 39956,
  "acheminés</w>": 43842,
  "acher</w>": 36402,
  "aches</w>": 31300,
  "achet": 14595,
  "achetant</w>": 20319,
  "acheter</w>": 1339,
  "acheteur</w>": 8715,
  "acheteurs</w>": 9291,
  "achetez</w>": 13563,
  "acheté</w>": 4200,
  "achetée</w>": 20696,
  "achetées</w>": 28621,
  "achetés</w>": 15039,
  "achev": 26998,
  "acheva</w>": 43265,
  "achever</w>": 11097,
  "achevé</w>": 10076,
  "achevée</w>": 11389,
  "achevées</w>": 38481,
  "achevés</w>": 29243,
  "achi": 29608,
  "achi</w>": 30067,
  "achie</w>": 43529,
  "achille</w>": 23804,
  "achim</w>": 49794,
  "achè": 18564,
  "achète</w>": 7756,
  "achètent</w>": 16819,
  "achève</w>": 12127,
  "achèvement</w>": 13041,
  "achèvera</w>": 40065,
  "aci": 8489,
  "aci</w>": 31606,
  "acia</w>": 45604,
  "acide</w>": 4058,
  "acides</w>": 6917,
  "acidité</w>": 21874,
  "acidul": 36688,
  "acier</w>": 3621,
  "aciers</w>": 27743,
  "acine</w>": 45276,
  "acio</w>": 42165,
  "acité</w>": 31454,
  "ack": 27451,
  "ack</w>": 13239,
  "acks</w>": 47429,
  "acle</w>": 40971,
  "acles</w>": 44701,
  "acné": 49502,
  "acné</w>": 27735,
  "acnéiques</w>": 22044,
  "aco": 31912,
  "aco</w>": 29188,
  "acoly": 47207,
  "acolytes</w>": 38524,
  "acom": 49572,
  "acom</w>": 44103,
  "acompte</w>": 36253,
  "acon</w>": 47515,
  "acou": 22241,
  "acoustique</w>": 10078,
  "acoustiques</w>": 23736,
  "acp-": 44996,
  "acp</w>": 13105,
  "acqu": 22948,
  "acqui": 41987,
  "acquiert</w>": 15051,
  "acquies": 39195,
  "acquis</w>": 2900,
  "acquise</w>": 8672,
  "acquises</w>": 13187,
  "acquisi": 49229,
  "acquisition</w>": 3432,
  "acquisitions</w>": 12970,
  "acquit": 19192,
  "acquit</w>": 44172,
  "acquitte</w>": 44125,
  "acquittement</w>": 37801,
  "acquitter</w>": 11162,
  "acquitté</w>": 26861,
  "acquittée</w>": 46266,
  "acquièrent</w>": 31894,
  "acqué": 46107,
  "acquéreur</w>": 19537,
  "acquéreurs</w>": 31258,
  "acquérir</w>": 4517,
  "acre</w>": 23787,
  "acres</w>": 25172,
  "acro": 19946,
  "acrob": 33242,
  "acrobatique</w>": 44445,
  "acron": 47783,
  "acronyme</w>": 31102,
  "acry": 27191,
  "acrylique</w>": 21700,
  "acs</w>": 15953,
  "act</w>": 11296,
  "acte</w>": 1535,
  "actes</w>": 1814,
  "acteur</w>": 2585,
  "acteurs.": 40770,
  "acteurs</w>": 1277,
  "acti": 6478,
  "actif</w>": 2647,
  "actifs</w>": 2653,
  "action": 28918,
  "action</w>": 421,
  "actionn": 20564,
  "actionnaire</w>": 11396,
  "actionnaires</w>": 6104,
  "actionnariat</w>": 43356,
  "actionnement</w>": 30173,
  "actionner</w>": 36629,
  "actionneur</w>": 31829,
  "actionné</w>": 42498,
  "actions</w>": 885,
  "actique</w>": 49010,
  "actiques</w>": 40123,
  "activ": 33827,
  "activant</w>": 43685,
  "activation</w>": 10169,
  "active</w>": 2651,
  "activement</w>": 6600,
  "activent</w>": 37251,
  "activer</w>": 7832,
  "actives</w>": 8093,
  "activez</w>": 37645,
  "activi": 16837,
  "activisme</w>": 39396,
  "activiste</w>": 34670,
  "activistes</w>": 22050,
  "activite</w>": 39535,
  "activites</w>": 41551,
  "activité</w>": 540,
  "activités</w>": 411,
  "activé</w>": 15180,
  "activée</w>": 21740,
  "activées</w>": 43338,
  "activés</w>": 33678,
  "actrice</w>": 4919,
  "actrices</w>": 19654,
  "actu": 7886,
  "actu</w>": 15528,
  "actualisation</w>": 18611,
  "actualiser</w>": 25295,
  "actualisé</w>": 31365,
  "actualisée</w>": 33584,
  "actualisées</w>": 41198,
  "actualité</w>": 2954,
  "actualités</w>": 6117,
  "actuel</w>": 1842,
  "actuelle</w>": 1743,
  "actuellement</w>": 913,
  "actuelles</w>": 5213,
  "actuels</w>": 5255,
  "actus</w>": 38227,
  "acu": 28309,
  "acuité</w>": 32030,
  "acul": 49290,
  "acupun": 40146,
  "acute</w>": 49732,
  "acy</w>": 38690,
  "acé": 32267,
  "acé</w>": 33805,
  "acée</w>": 34143,
  "acées</w>": 32636,
  "acés</w>": 37281,
  "acét": 46557,
  "acéta": 48873,
  "acétate</w>": 43171,
  "acéty": 41252,
  "ad": 862,
  "ad-": 38918,
  "ad</w>": 2638,
  "ada</w>": 5796,
  "adage</w>": 34702,
  "adam": 27209,
  "adam</w>": 7317,
  "adama</w>": 41852,
  "adams</w>": 24681,
  "adap": 9351,
  "adaptabilité</w>": 44509,
  "adaptable</w>": 37875,
  "adaptant</w>": 25643,
  "adaptateur</w>": 17200,
  "adaptation</w>": 3220,
  "adaptations</w>": 16326,
  "adapte</w>": 9757,
  "adaptent</w>": 23354,
  "adapter</w>": 3139,
  "adapté</w>": 3442,
  "adaptée</w>": 4629,
  "adaptées</w>": 6833,
  "adaptés</w>": 4807,
  "add.": 18911,
  "add.1</w>": 25627,
  "add</w>": 38172,
  "added</w>": 37112,
  "addi": 12644,
  "addic": 23366,
  "addict</w>": 41819,
  "addiction</w>": 24375,
  "additif</w>": 26832,
  "additifs</w>": 22369,
  "addition</w>": 12773,
  "additional</w>": 33619,
  "additionnel</w>": 17140,
  "additionnelle</w>": 25111,
  "additionnelles</w>": 26960,
  "additionnels</w>": 20733,
  "ade": 10092,
  "ade</w>": 3456,
  "adel": 27910,
  "adeline</w>": 46639,
  "ademe</w>": 33790,
  "aden</w>": 36138,
  "adep": 50151,
  "adepte</w>": 17193,
  "adeptes</w>": 10955,
  "ader</w>": 13002,
  "ades</w>": 6769,
  "adesh</w>": 47514,
  "adh": 40866,
  "adhère</w>": 19494,
  "adhèrent</w>": 34841,
  "adhé": 11864,
  "adhérence</w>": 22243,
  "adhérent</w>": 18887,
  "adhérents</w>": 7774,
  "adhérer</w>": 12807,
  "adhéré</w>": 24351,
  "adhésif</w>": 18057,
  "adhésifs</w>": 41230,
  "adhésion</w>": 3942,
  "adhésive</w>": 29227,
  "adi": 6675,
  "adi</w>": 13801,
  "adidas</w>": 22748,
  "adie</w>": 41663,
  "adier</w>": 44631,
  "adiers</w>": 40041,
  "adieu</w>": 11072,
  "adieux</w>": 26884,
  "adin</w>": 36102,
  "adio</w>": 40293,
  "adir</w>": 48541,
  "adis</w>": 46787,
  "adium</w>": 44642,
  "adjac": 50008,
  "adjacent</w>": 37692,
  "adjacente</w>": 31848,
  "adjacentes</w>": 31245,
  "adjacents</w>": 39190,
  "adjecti": 49722,
  "adjectif</w>": 24615,
  "adjectifs</w>": 39537,
  "adjoindre</w>": 46158,
  "adjoint</w>": 3969,
  "adjointe</w>": 15182,
  "adjoints</w>": 18329,
  "adjonction</w>": 33748,
  "adju": 16704,
  "adjudi": 30205,
  "adjudicateur</w>": 33283,
  "adjudication</w>": 27227,
  "admet</w>": 11785,
  "admettant</w>": 33866,
  "admettent</w>": 38989,
  "admettre</w>": 8278,
  "admi": 11257,
  "admin</w>": 29068,
  "adminis": 32726,
  "administr": 18504,
  "administrateur</w>": 6907,
  "administrateurs</w>": 9349,
  "administrati": 47753,
  "administratif": 49991,
  "administratif</w>": 4157,
  "administratifpay": 46223,
  "administratifs</w>": 7410,
  "administration</w>": 890,
  "administrations</w>": 7371,
  "administrative</w>": 4332,
  "administrativement</w>": 32745,
  "administratives</w>": 4614,
  "administre</w>": 35762,
  "administrer</w>": 15893,
  "administré</w>": 19499,
  "administrée</w>": 28412,
  "administrés</w>": 21981,
  "admir": 33542,
  "admirable</w>": 15371,
  "admirablement</w>": 30218,
  "admirables</w>": 34364,
  "admirateur</w>": 40774,
  "admirateurs</w>": 30309,
  "admiration</w>": 9967,
  "admire</w>": 17933,
  "admirer</w>": 7969,
  "admirez</w>": 43728,
  "admiré</w>": 35946,
  "admis</w>": 5770,
  "admise</w>": 21994,
  "admises</w>": 29597,
  "admissi": 49244,
  "admissibilité</w>": 22583,
  "admissible</w>": 18125,
  "admissibles</w>": 14252,
  "admission</w>": 7405,
  "adn</w>": 6790,
  "ado</w>": 7218,
  "adobe</w>": 20175,
  "adol": 45163,
  "adoles": 48818,
  "adolescence</w>": 11075,
  "adolescent</w>": 9638,
  "adolescente</w>": 15072,
  "adolescentes</w>": 25725,
  "adolescents</w>": 6267,
  "adolf</w>": 34494,
  "adolphe</w>": 29004,
  "adonner</w>": 30400,
  "adop": 8713,
  "adoptant</w>": 17492,
  "adopte</w>": 9632,
  "adoptent</w>": 20684,
  "adopter</w>": 3482,
  "adoption</w>": 2625,
  "adopté</w>": 2573,
  "adoptée</w>": 5280,
  "adoptées</w>": 8571,
  "adoptés</w>": 13138,
  "ador": 8522,
  "ador</w>": 27492,
  "adorable</w>": 14416,
  "adorables</w>": 25267,
  "adorait</w>": 40512,
  "adoration</w>": 25266,
  "adore</w>": 3039,
  "adorent</w>": 17145,
  "adorer</w>": 17912,
  "adoré</w>": 9901,
  "ados</w>": 10612,
  "adoss": 25749,
  "adossé</w>": 45654,
  "adou": 16372,
  "adou</w>": 45293,
  "adouc": 34198,
  "adoucir</w>": 32520,
  "adoucit</w>": 46571,
  "adougou</w>": 50340,
  "adour</w>": 33185,
  "adp</w>": 43146,
  "adr": 40350,
  "adres": 12391,
  "adressa</w>": 35109,
  "adressait</w>": 32401,
  "adressant</w>": 15017,
  "adresse</w>": 1061,
  "adressent</w>": 17332,
  "adresser</w>": 4742,
  "adresses</w>": 6351,
  "adressé</w>": 8298,
  "adressée</w>": 7916,
  "adressées</w>": 16006,
  "adressés</w>": 26264,
  "adri": 19051,
  "adrian</w>": 28868,
  "adriatique</w>": 41465,
  "adrien</w>": 16806,
  "adroi": 45178,
  "adrén": 50509,
  "adrénaline</w>": 27546,
  "ads</w>": 20275,
  "adsl</w>": 26336,
  "adsor": 35901,
  "adu": 30811,
  "adul": 22431,
  "adulte</w>": 4687,
  "adultes</w>": 2882,
  "adultère</w>": 26788,
  "advan": 47766,
  "advanced</w>": 36732,
  "adven": 38870,
  "adventure</w>": 46341,
  "adver": 30757,
  "adversaire</w>": 4059,
  "adversaires</w>": 5455,
  "adverse</w>": 13925,
  "adverses</w>": 26279,
  "adversité</w>": 36929,
  "adwords</w>": 45639,
  "ady</w>": 30602,
  "adèle</w>": 28777,
  "adé": 20409,
  "adé</w>": 20474,
  "adélaï": 50616,
  "adélaïde</w>": 44237,
  "adéqu": 48847,
  "adéqua": 52428,
  "adéquat</w>": 13197,
  "adéquate</w>": 11168,
  "adéquatement</w>": 34722,
  "adéquates</w>": 18836,
  "adéquation</w>": 13854,
  "adéquats</w>": 22474,
  "ae": 15666,
  "ae</w>": 7514,
  "aele</w>": 24516,
  "aen</w>": 38634,
  "aer": 19041,
  "aero": 36838,
  "aes</w>": 42199,
  "af": 3990,
  "af</w>": 8531,
  "afa</w>": 41046,
  "afd</w>": 34147,
  "afe</w>": 34805,
  "aff": 4405,
  "affai": 13550,
  "affaibl": 39132,
  "affaibli": 27723,
  "affaibli</w>": 22031,
  "affaiblie</w>": 33478,
  "affaiblir</w>": 20563,
  "affaiblissement</w>": 22022,
  "affaiblit</w>": 36652,
  "affaire</w>": 879,
  "affaires</w>": 465,
  "affaiss": 31390,
  "affam": 31506,
  "affamés</w>": 35172,
  "affe</w>": 42565,
  "affec": 12532,
  "affectant</w>": 21719,
  "affectation</w>": 8372,
  "affectations</w>": 38510,
  "affecte</w>": 12437,
  "affectent</w>": 19118,
  "affecter</w>": 11363,
  "affecti": 26742,
  "affectif</w>": 28672,
  "affection</w>": 7929,
  "affectionne</w>": 31387,
  "affections</w>": 15523,
  "affective</w>": 29374,
  "affectu": 34306,
  "affectueux</w>": 41549,
  "affecté</w>": 7685,
  "affectée</w>": 13543,
  "affectées</w>": 14286,
  "affectés</w>": 9739,
  "affer": 27757,
  "affi": 10964,
  "affichage</w>": 4434,
  "affichages</w>": 46626,
  "affichait</w>": 27852,
  "affichant</w>": 18088,
  "affiche</w>": 2836,
  "affichent</w>": 12475,
  "afficher</w>": 2557,
  "affichera</w>": 40747,
  "affiches</w>": 9193,
  "afficheur</w>": 42740,
  "affichons</w>": 38347,
  "affiché</w>": 9165,
  "affichée</w>": 15742,
  "affichées</w>": 19348,
  "affichés</w>": 16643,
  "affiliation</w>": 22051,
  "affilié</w>": 27281,
  "affiliée</w>": 37366,
  "affiliées</w>": 37165,
  "affiliés</w>": 21498,
  "affilée</w>": 16915,
  "affine</w>": 45570,
  "affiner</w>": 18926,
  "affini": 48049,
  "affinité</w>": 28427,
  "affinités</w>": 27294,
  "affir": 11632,
  "affirmait</w>": 17660,
  "affirmant</w>": 9250,
  "affirmati": 47962,
  "affirmation</w>": 9843,
  "affirmations</w>": 20559,
  "affirmative</w>": 33023,
  "affirme-t-il</w>": 32001,
  "affirme</w>": 2373,
  "affirment</w>": 8992,
  "affirmer</w>": 5958,
  "affirmé</w>": 2762,
  "affirmée</w>": 29819,
  "affli": 14315,
  "afflu": 31798,
  "affluence</w>": 22355,
  "affluent</w>": 18476,
  "affluents</w>": 35925,
  "afflux</w>": 19113,
  "affol": 29197,
  "affran": 25204,
  "affranch": 39675,
  "affranchir</w>": 23006,
  "affranchissement</w>": 42922,
  "affres</w>": 42862,
  "affreuse</w>": 35873,
  "affreux</w>": 19150,
  "affron": 15003,
  "affront</w>": 37148,
  "affronte</w>": 20447,
  "affrontement</w>": 11958,
  "affrontements</w>": 10164,
  "affrontent</w>": 15563,
  "affronter</w>": 4944,
  "affrontera</w>": 23563,
  "affronteront</w>": 33715,
  "affronté</w>": 34688,
  "affré": 37067,
  "affu": 24550,
  "affé": 35634,
  "afférentes</w>": 29553,
  "afférents</w>": 31199,
  "affû": 33436,
  "affût</w>": 26259,
  "afgh": 50137,
  "afghan": 48931,
  "afghan</w>": 22264,
  "afghane</w>": 30365,
  "afghanes</w>": 37833,
  "afghanistan</w>": 5319,
  "afghans</w>": 21774,
  "afi": 36454,
  "afi</w>": 40459,
  "afici": 50054,
  "aficion": 42904,
  "afil</w>": 36367,
  "afin</w>": 197,
  "afp</w>": 3000,
  "afr": 35059,
  "afri": 15391,
  "afric": 47223,
  "africa</w>": 22100,
  "africain</w>": 6885,
  "africaine</w>": 5282,
  "africaines</w>": 11346,
  "africains</w>": 5164,
  "african</w>": 34659,
  "afrique</w>": 978,
  "afro-": 18688,
  "afs</w>": 48431,
  "after": 43889,
  "after</w>": 8561,
  "ag": 1122,
  "ag</w>": 9217,
  "aga": 29440,
  "aga</w>": 15184,
  "agac": 21820,
  "agace</w>": 37762,
  "agacé</w>": 42278,
  "agadir</w>": 43216,
  "again": 50521,
  "again</w>": 33288,
  "against</w>": 15817,
  "agan</w>": 37541,
  "agar</w>": 38023,
  "agas": 47666,
  "agath": 44760,
  "agathe</w>": 37526,
  "age": 11857,
  "age-": 33962,
  "age.": 18378,
  "age</w>": 1026,
  "agement</w>": 40460,
  "agen": 11426,
  "agen</w>": 22893,
  "agence</w>": 1202,
  "agencement</w>": 17319,
  "agences</w>": 4452,
  "agency</w>": 25602,
  "agencé</w>": 30898,
  "agend": 49692,
  "agenda</w>": 7931,
  "agendas</w>": 43326,
  "agenou": 25910,
  "agent</w>": 2058,
  "agents</w>": 1927,
  "ager</w>": 14953,
  "agers</w>": 39853,
  "ages</w>": 3036,
  "ageuse</w>": 38145,
  "ageux</w>": 50372,
  "agglomé": 32501,
  "agglomération</w>": 7175,
  "agglomérations</w>": 21606,
  "aggr": 42341,
  "aggrav": 19252,
  "aggravation</w>": 22136,
  "aggrave</w>": 28847,
  "aggraver</w>": 18765,
  "aggravé</w>": 28787,
  "aggravée</w>": 34389,
  "agh</w>": 38697,
  "agher</w>": 50466,
  "agi": 7080,
  "agi</w>": 10167,
  "agile</w>": 26191,
  "agiles</w>": 46232,
  "agilité</w>": 24740,
  "agir</w>": 2351,
  "agira</w>": 11662,
  "agirait</w>": 15553,
  "agissait</w>": 3766,
  "agissant</w>": 4830,
  "agisse</w>": 7051,
  "agissements</w>": 20334,
  "agissent</w>": 12390,
  "agiste</w>": 32915,
  "agit-il</w>": 24365,
  "agit</w>": 406,
  "agita": 43486,
  "agitant</w>": 43957,
  "agitation</w>": 12785,
  "agite</w>": 25257,
  "agitent</w>": 34123,
  "agiter</w>": 29790,
  "agité</w>": 25957,
  "agitée</w>": 28528,
  "agn": 35047,
  "agne</w>": 14611,
  "agneau</w>": 15699,
  "agneaux</w>": 41988,
  "agnes</w>": 33493,
  "agno": 45408,
  "agnès</w>": 15390,
  "agné": 47165,
  "ago</w>": 17662,
  "agon": 23138,
  "agonie</w>": 25436,
  "agora</w>": 37791,
  "agr": 37649,
  "agra": 44554,
  "agra</w>": 48231,
  "agraf": 35467,
  "agraire</w>": 39037,
  "agran": 18251,
  "agrandi</w>": 34974,
  "agrandie</w>": 38340,
  "agrandir</w>": 10761,
  "agrandissement</w>": 20274,
  "agrandit</w>": 37232,
  "agrave</w>": 33700,
  "agre": 32216,
  "agreable</w>": 37728,
  "agreement</w>": 41700,
  "agres": 21688,
  "agresser</w>": 36079,
  "agresseur</w>": 20674,
  "agresseurs</w>": 24548,
  "agressif</w>": 16608,
  "agressifs</w>": 26389,
  "agression</w>": 7209,
  "agressions</w>": 10844,
  "agressive</w>": 20246,
  "agressives</w>": 39436,
  "agressivité</w>": 19278,
  "agressé</w>": 26175,
  "agressée</w>": 45567,
  "agri": 10063,
  "agricole</w>": 2578,
  "agricoles</w>": 3064,
  "agricul": 48009,
  "agriculteur</w>": 20235,
  "agriculteurs</w>": 5696,
  "agriculture</w>": 2083,
  "agrin</w>": 50669,
  "agro": 17128,
  "agro-": 26094,
  "agro-alimentaire</w>": 38355,
  "agroalimentaire</w>": 15680,
  "agroalimentaires</w>": 43101,
  "agron": 20147,
  "agru": 48255,
  "agrumes</w>": 18755,
  "agré": 12238,
  "agréable</w>": 1503,
  "agréablement</w>": 16108,
  "agréables</w>": 8790,
  "agréer</w>": 46175,
  "agrégation</w>": 21543,
  "agrégats</w>": 39339,
  "agrégé</w>": 32871,
  "agrémen": 24273,
  "agrément</w>": 8919,
  "agrémenter</w>": 31620,
  "agréments</w>": 47209,
  "agrémenté</w>": 25930,
  "agrémentée</w>": 38243,
  "agréé</w>": 17099,
  "agréée</w>": 35120,
  "agréées</w>": 26194,
  "agréés</w>": 20592,
  "agu": 7561,
  "agua</w>": 47297,
  "ague</w>": 26549,
  "aguer": 36005,
  "aguerris</w>": 43335,
  "agène</w>": 48075,
  "agé</w>": 21435,
  "agée</w>": 44202,
  "agén": 48020,
  "agénaire</w>": 23162,
  "agési": 49882,
  "ah": 6028,
  "ah</w>": 2533,
  "aha": 44940,
  "aha</w>": 30957,
  "ahead</w>": 42944,
  "ahi": 28116,
  "ahi</w>": 43789,
  "ahmad": 48162,
  "ahmad</w>": 31359,
  "ahmadinejad</w>": 37834,
  "ahmed</w>": 12646,
  "ahu": 28059,
  "ahur": 43537,
  "ai": 1330,
  "ai-je</w>": 11470,
  "ai</w>": 94,
  "aia</w>": 45029,
  "aid</w>": 19208,
  "aida</w>": 31181,
  "aidait</w>": 43523,
  "aidant</w>": 11904,
  "aidants</w>": 32193,
  "aide-": 23404,
  "aide</w>": 328,
  "aident</w>": 9588,
  "aider": 22839,
  "aider</w>": 787,
  "aidera</w>": 4218,
  "aiderait</w>": 35186,
  "aideront</w>": 17712,
  "aides</w>": 3107,
  "aidez</w>": 29803,
  "aidons</w>": 38057,
  "aidé</w>": 5686,
  "aidée</w>": 22906,
  "aidés</w>": 16109,
  "aie</w>": 6653,
  "aiea</w>": 24303,
  "aient-ils</w>": 20587,
  "aient</w>": 490,
  "aies</w>": 14276,
  "aigle</w>": 16664,
  "aigles</w>": 31870,
  "aign": 27261,
  "aignan</w>": 47927,
  "aigne</w>": 42248,
  "aigr": 26033,
  "aigu": 11472,
  "aigu</w>": 17892,
  "aiguill": 30334,
  "aiguille</w>": 10544,
  "aiguilles</w>": 12743,
  "aigus</w>": 27575,
  "aiguë</w>": 18273,
  "aiguës</w>": 38291,
  "aii</w>": 48200,
  "ail": 9662,
  "ail</w>": 4636,
  "aile</w>": 6957,
  "ailer": 35309,
  "ailes</w>": 6493,
  "ailier</w>": 17204,
  "aill": 7124,
  "aille</w>": 5583,
  "aillement</w>": 49035,
  "aillent</w>": 27607,
  "ailler</w>": 38189,
  "aillerie</w>": 49902,
  "ailles</w>": 9696,
  "ailleur</w>": 41258,
  "ailleurs</w>": 252,
  "aillon</w>": 46815,
  "ails</w>": 29580,
  "aim": 29435,
  "aimable</w>": 12625,
  "aimables</w>": 32230,
  "aimaient</w>": 31673,
  "aimais</w>": 14222,
  "aimait</w>": 8334,
  "aiman": 26956,
  "aimant</w>": 13981,
  "aimants</w>": 29733,
  "aime": 37974,
  "aime</w>": 714,
  "aiment</w>": 4323,
  "aimer": 22856,
  "aimer</w>": 4150,
  "aimerai</w>": 16275,
  "aimeraient</w>": 27224,
  "aimerais</w>": 4351,
  "aimerait</w>": 9968,
  "aimerez</w>": 34144,
  "aimeriez</w>": 31626,
  "aimerions</w>": 28756,
  "aimes</w>": 16911,
  "aimez</w>": 7770,
  "aimons</w>": 17758,
  "aimé</w>": 3149,
  "aimée</w>": 17652,
  "aimés</w>": 27275,
  "ain": 4349,
  "ain-": 24812,
  "ain</w>": 3385,
  "aine</w>": 6016,
  "ainement</w>": 33286,
  "aines</w>": 7394,
  "aing</w>": 32731,
  "ains</w>": 9042,
  "ainsi</w>": 106,
  "aint</w>": 32277,
  "ainville</w>": 35412,
  "ainé</w>": 46475,
  "air": 6673,
  "air-": 41145,
  "air</w>": 473,
  "airbnb</w>": 24029,
  "airbus</w>": 10953,
  "aire": 12662,
  "aire-": 27438,
  "aire.": 13452,
  "aire</w>": 1462,
  "airement</w>": 15137,
  "aires": 14710,
  "aires.": 28085,
  "aires</w>": 2008,
  "airlines</w>": 16183,
  "airport</w>": 36139,
  "airs</w>": 8456,
  "airways</w>": 27423,
  "ais": 13688,
  "ais-": 21675,
  "ais-je</w>": 20318,
  "ais-tu</w>": 31203,
  "ais.": 25006,
  "ais</w>": 1091,
  "aisance</w>": 16059,
  "aise</w>": 2548,
  "aises</w>": 6100,
  "aisi": 25922,
  "aisie</w>": 49378,
  "aisir</w>": 49066,
  "aisne</w>": 22727,
  "aison</w>": 14409,
  "aisons</w>": 19761,
  "aiss": 13077,
  "aissaient</w>": 47694,
  "aissait</w>": 37620,
  "aissant</w>": 47885,
  "aisse</w>": 26066,
  "aissent</w>": 27596,
  "aisé</w>": 11781,
  "aisée</w>": 10210,
  "aisées</w>": 34399,
  "aisément</w>": 6993,
  "aisés</w>": 26553,
  "ait-elle</w>": 16160,
  "ait-il</w>": 6936,
  "ait-on</w>": 18469,
  "ait</w>": 297,
  "aitre</w>": 33623,
  "aix-": 25407,
  "aix-en-provence</w>": 19815,
  "aix</w>": 13515,
  "aj": 16375,
  "aj</w>": 24286,
  "ajac": 47913,
  "ajaccio</w>": 17674,
  "ajax</w>": 32412,
  "aje": 49418,
  "ajou": 8439,
  "ajourn": 31932,
  "ajout</w>": 8308,
  "ajouta-": 48495,
  "ajouta-t-il</w>": 43731,
  "ajouta</w>": 19923,
  "ajoutait</w>": 25851,
  "ajoutant</w>": 6090,
  "ajoute-t-elle</w>": 34803,
  "ajoute-t-il</w>": 15084,
  "ajoute</w>": 2261,
  "ajoutent</w>": 8903,
  "ajouter</w>": 663,
  "ajoutera</w>": 34039,
  "ajouterai</w>": 42542,
  "ajoutez</w>": 5108,
  "ajoutons</w>": 25762,
  "ajouts</w>": 31351,
  "ajouté</w>": 1449,
  "ajoutée</w>": 6108,
  "ajoutées</w>": 14978,
  "ajoutés</w>": 15038,
  "ajus": 21665,
  "ajust": 29264,
  "ajustable</w>": 36577,
  "ajuste</w>": 35157,
  "ajustement</w>": 8626,
  "ajustements</w>": 14954,
  "ajuster</w>": 11483,
  "ajusté</w>": 22460,
  "ajustée</w>": 31060,
  "ak": 2753,
  "ak</w>": 5332,
  "aka</w>": 13075,
  "ake</w>": 43846,
  "aker</w>": 24849,
  "akers</w>": 40187,
  "akh": 35326,
  "akh</w>": 32367,
  "aki": 23415,
  "aki</w>": 13919,
  "ako</w>": 35263,
  "akp</w>": 44230,
  "aks</w>": 16402,
  "aku": 22331,
  "al": 496,
  "al-": 2706,
  "al-assad</w>": 19526,
  "al-q": 36670,
  "al-qaida</w>": 30235,
  "al-qaïda</w>": 17111,
  "al.": 19088,
  "al.</w>": 12021,
  "al</w>": 762,
  "ala": 42474,
  "ala</w>": 8608,
  "alab": 48781,
  "alabama</w>": 33986,
  "alad": 47931,
  "aladom</w>": 39854,
  "alain</w>": 2907,
  "alambi": 39765,
  "alan</w>": 14326,
  "aland</w>": 43222,
  "alar": 23252,
  "alarman": 33005,
  "alarmant</w>": 42748,
  "alarme</w>": 8378,
  "alarmes</w>": 34033,
  "alaska</w>": 22854,
  "alassane</w>": 28422,
  "alba</w>": 30621,
  "alban": 21097,
  "alban</w>": 45413,
  "albanais</w>": 24537,
  "albanie</w>": 18006,
  "alber": 14666,
  "albert</w>": 5998,
  "alberta</w>": 10992,
  "alberto</w>": 21722,
  "albi": 22615,
  "albi</w>": 30051,
  "albin": 42755,
  "albin</w>": 34986,
  "albu": 24426,
  "album</w>": 1160,
  "albums</w>": 5418,
  "albé": 49552,
  "albédo</w>": 32818,
  "alca": 30962,
  "alcal": 23367,
  "alchimie</w>": 25259,
  "alco": 15797,
  "alcool": 27374,
  "alcool</w>": 3468,
  "alcoolique</w>": 23629,
  "alcooliques</w>": 38381,
  "alcoolisme</w>": 28818,
  "alcoolisées</w>": 33904,
  "alcools</w>": 27279,
  "ald</w>": 15962,
  "aldo</w>": 28844,
  "aldé": 48903,
  "aldéhyde</w>": 42750,
  "ale": 14682,
  "ale.": 15065,
  "ale</w>": 1723,
  "alejan": 49933,
  "alejandro</w>": 37802,
  "alek": 47000,
  "aleksand": 46692,
  "alement</w>": 5192,
  "alen": 36360,
  "alena</w>": 36836,
  "alentour</w>": 25173,
  "alentours</w>": 4697,
  "alençon</w>": 38867,
  "alep</w>": 16283,
  "aler": 17122,
  "aler</w>": 19335,
  "alerte</w>": 3895,
  "alerter</w>": 23422,
  "alertes</w>": 6504,
  "alerté</w>": 21336,
  "ales": 22436,
  "ales.": 35541,
  "ales</w>": 2413,
  "aless": 45332,
  "alessandro</w>": 37190,
  "alex": 15622,
  "alex</w>": 7754,
  "alexand": 29642,
  "alexander</w>": 12878,
  "alexandra</w>": 21517,
  "alexandre</w>": 4482,
  "alexandrie</w>": 20756,
  "alexis</w>": 10914,
  "alez</w>": 48113,
  "alfa</w>": 32172,
  "alfon": 40739,
  "alfred</w>": 12285,
  "alg": 40427,
  "alger</w>": 8841,
  "algori": 50723,
  "algorith": 46492,
  "algorithme</w>": 14671,
  "algorithmes</w>": 19209,
  "algue</w>": 43906,
  "algues</w>": 15462,
  "algèbre</w>": 40333,
  "algé": 28666,
  "algéri": 47779,
  "algérie</w>": 3216,
  "algérien</w>": 10783,
  "algérienne</w>": 13882,
  "algériennes</w>": 37293,
  "algériens</w>": 13576,
  "ali": 2791,
  "ali</w>": 4105,
  "alia</w>": 22662,
  "alias</w>": 13693,
  "alibi</w>": 34615,
  "alice</w>": 8639,
  "alicia</w>": 36015,
  "alie</w>": 17305,
  "alien</w>": 19455,
  "aliens</w>": 20879,
  "alier</w>": 31674,
  "aliers</w>": 32218,
  "alies</w>": 47567,
  "align": 15058,
  "aligne</w>": 33862,
  "alignement</w>": 11533,
  "aligner</w>": 14886,
  "aligné</w>": 24511,
  "alignées</w>": 37327,
  "alignés</w>": 20588,
  "alimen": 17522,
  "aliment</w>": 14510,
  "alimentaire</w>": 2858,
  "alimentaires</w>": 3747,
  "alimentant</w>": 39271,
  "alimentation</w>": 2098,
  "alimente</w>": 19058,
  "alimentent</w>": 27807,
  "alimenter</w>": 8470,
  "aliments</w>": 3431,
  "alimenté</w>": 15283,
  "alimentée</w>": 26611,
  "alimentées</w>": 45727,
  "alimentés</w>": 35569,
  "alin</w>": 36414,
  "aline</w>": 22905,
  "aliné": 50210,
  "alinéa</w>": 4321,
  "alinéas</w>": 21818,
  "alis": 4712,
  "alis</w>": 17644,
  "alisait</w>": 40658,
  "alisant</w>": 10560,
  "alisateur</w>": 30961,
  "alisation</w>": 4531,
  "alisations</w>": 12945,
  "alise</w>": 8356,
  "alisent</w>": 11782,
  "aliser</w>": 4732,
  "alisera</w>": 34698,
  "alises</w>": 46738,
  "alisez</w>": 31882,
  "alisme</w>": 5216,
  "alismes</w>": 38565,
  "alison</w>": 39753,
  "aliste</w>": 5435,
  "alistes</w>": 6377,
  "alisé</w>": 4179,
  "alisée</w>": 5398,
  "alisées</w>": 7318,
  "alisés</w>": 6547,
  "alit</w>": 45082,
  "alite</w>": 17911,
  "alites</w>": 29557,
  "ality</w>": 43740,
  "alité": 30514,
  "alité</w>": 5050,
  "alités</w>": 12573,
  "alix</w>": 38919,
  "aliz": 37365,
  "alière</w>": 29951,
  "alières</w>": 43815,
  "alién": 22954,
  "aliénation</w>": 26747,
  "alky": 23859,
  "alkyle</w>": 17055,
  "all": 3424,
  "all-": 31462,
  "all</w>": 4959,
  "alla</w>": 9159,
  "allah</w>": 7538,
  "allai": 18421,
  "allaient</w>": 7100,
  "allais</w>": 7863,
  "allait</w>": 2025,
  "allaitement</w>": 15951,
  "allan</w>": 29214,
  "allant</w>": 2735,
  "alle": 25241,
  "alle</w>": 15379,
  "allem": 23744,
  "allemagne</w>": 1028,
  "allemand</w>": 2057,
  "allemande</w>": 3135,
  "allemandes</w>": 9407,
  "allemands</w>": 3332,
  "allen": 32288,
  "allen</w>": 16063,
  "aller": 13391,
  "aller-": 49072,
  "aller-retour</w>": 21720,
  "aller</w>": 449,
  "allergie</w>": 28198,
  "allergies</w>": 24805,
  "allergique</w>": 27176,
  "allergiques</w>": 30355,
  "allers-": 50489,
  "allers-retours</w>": 43323,
  "allet</w>": 44667,
  "allez-vous</w>": 29740,
  "allez-y</w>": 41444,
  "allez</w>": 1800,
  "alli": 8859,
  "alli</w>": 44013,
  "alliage</w>": 18530,
  "alliages</w>": 36075,
  "alliance</w>": 3223,
  "alliances</w>": 13009,
  "alliant</w>": 18649,
  "allianz</w>": 38812,
  "allie</w>": 17719,
  "allient</w>": 40867,
  "allier</w>": 12425,
  "alliez</w>": 40379,
  "allin</w>": 49167,
  "allions</w>": 26362,
  "allis</w>": 44009,
  "allié</w>": 8533,
  "alliée</w>": 21268,
  "alliées</w>": 25351,
  "alliés</w>": 4937,
  "allo": 13897,
  "allo</w>": 34652,
  "allocation</w>": 7766,
  "allocations</w>": 10053,
  "allocution</w>": 19226,
  "allon": 14639,
  "allonge</w>": 28311,
  "allongement</w>": 20980,
  "allonger</w>": 18219,
  "allongé</w>": 16526,
  "allongée</w>": 19613,
  "allongés</w>": 40312,
  "allons-nous</w>": 43487,
  "allons</w>": 2421,
  "allou": 30332,
  "allouer</w>": 32301,
  "alloué</w>": 23995,
  "allouée</w>": 40722,
  "allouées</w>": 33994,
  "alloués</w>": 21368,
  "allu": 9288,
  "allumage</w>": 18232,
  "allume</w>": 20278,
  "allumer</w>": 14948,
  "allumettes</w>": 41225,
  "allumé</w>": 20687,
  "allumée</w>": 34579,
  "allumés</w>": 42859,
  "allur": 49208,
  "allure</w>": 7880,
  "allures</w>": 16233,
  "allusion</w>": 10194,
  "allusions</w>": 33648,
  "ally</w>": 10994,
  "allè": 23643,
  "allègement</w>": 35512,
  "allègrement</w>": 31099,
  "allèrent</w>": 35933,
  "allé": 16699,
  "allé</w>": 4860,
  "alléch": 23242,
  "allée</w>": 6354,
  "allées</w>": 13740,
  "allég": 18490,
  "allégation</w>": 34467,
  "allégations</w>": 12208,
  "allége": 49256,
  "allégeance</w>": 25809,
  "allégement</w>": 29841,
  "alléger</w>": 17380,
  "allégorie</w>": 38948,
  "allégresse</w>": 39892,
  "allégé</w>": 44478,
  "allégée</w>": 45754,
  "allés</w>": 10838,
  "alma</w>": 27130,
  "alman": 42703,
  "alo": 22743,
  "alo</w>": 24933,
  "aloe</w>": 44290,
  "alon": 47037,
  "alon</w>": 38771,
  "alone</w>": 43720,
  "alonso</w>": 28579,
  "alors</w>": 114,
  "alou": 32851,
  "alouettes</w>": 28684,
  "alour": 22326,
  "alourdir</w>": 33615,
  "alp": 29639,
  "alpes-": 47012,
  "alpes-maritimes</w>": 22354,
  "alpes</w>": 7262,
  "alph": 31893,
  "alpha-": 41546,
  "alpha</w>": 11549,
  "alphab": 29565,
  "alphabet</w>": 17820,
  "alphabé": 43924,
  "alphabétique</w>": 18629,
  "alphabétisation</w>": 27042,
  "alphon": 48423,
  "alphonse</w>": 18293,
  "alpin": 30315,
  "alpin</w>": 19292,
  "alpine</w>": 26786,
  "alpinisme</w>": 44481,
  "alpins</w>": 41356,
  "already</w>": 46452,
  "als</w>": 6171,
  "alsa": 47219,
  "alsac": 48690,
  "alsace-": 43182,
  "alsace</w>": 5322,
  "alsacien</w>": 21620,
  "alsacienne</w>": 31322,
  "alsaciens</w>": 29361,
  "also</w>": 14292,
  "alst": 49287,
  "alstom</w>": 22693,
  "alt": 27220,
  "alt</w>": 29473,
  "alter": 17574,
  "alter</w>": 30941,
  "altercation</w>": 33395,
  "altern": 19517,
  "alternance</w>": 7772,
  "alternant</w>": 26940,
  "alternatif</w>": 14424,
  "alternatifs</w>": 21744,
  "alternative</w>": 5276,
  "alternativement</w>": 27536,
  "alternatives</w>": 8931,
  "alterne</w>": 33888,
  "alternent</w>": 43619,
  "alterner</w>": 37505,
  "alternée</w>": 43574,
  "altesse</w>": 36055,
  "alth</w>": 49460,
  "alti": 37949,
  "alties</w>": 41971,
  "altitude</w>": 4104,
  "alto</w>": 20378,
  "altru": 30072,
  "alty</w>": 41331,
  "alté": 25932,
  "altération</w>": 21203,
  "altérations</w>": 42660,
  "altérer</w>": 28903,
  "altéri": 50057,
  "altérité</w>": 36290,
  "altéré</w>": 40258,
  "altérée</w>": 43613,
  "alu": 13622,
  "alu</w>": 21060,
  "alumini": 48916,
  "aluminium</w>": 5763,
  "alvar": 29245,
  "alvé": 27975,
  "aly": 16138,
  "aly</w>": 36232,
  "alys</w>": 38005,
  "alyse</w>": 34208,
  "alz": 47629,
  "alzheimer</w>": 16942,
  "alé": 19894,
  "aléas</w>": 19646,
  "aléat": 40851,
  "aléatoire</w>": 12779,
  "aléatoires</w>": 25597,
  "alésage</w>": 45665,
  "am": 841,
  "am</w>": 2463,
  "ama</w>": 8420,
  "amadou</w>": 33281,
  "amal": 19218,
  "amalgame</w>": 25304,
  "aman": 31324,
  "aman</w>": 33012,
  "amanda</w>": 29678,
  "amande</w>": 15975,
  "amandes</w>": 13499,
  "amandine</w>": 42422,
  "amant</w>": 10178,
  "amants</w>": 16602,
  "amar": 12877,
  "amar</w>": 33975,
  "amas</w>": 17135,
  "amass": 31379,
  "amasser</w>": 34799,
  "amassé</w>": 30571,
  "amat": 35651,
  "amateur</w>": 6926,
  "amateurs</w>": 3625,
  "amatrice</w>": 46873,
  "amatrices</w>": 39857,
  "amau": 49596,
  "amaury</w>": 45314,
  "amaz": 14827,
  "amazon": 43594,
  "amazon</w>": 9186,
  "amazone</w>": 43581,
  "amazonie</w>": 33916,
  "ambass": 50084,
  "ambassad": 47894,
  "ambassade</w>": 8483,
  "ambassades</w>": 30299,
  "ambassadeur</w>": 6136,
  "ambassadeurs</w>": 16037,
  "ambassadrice</w>": 30180,
  "amber</w>": 46816,
  "ambi": 8051,
  "ambiance</w>": 2218,
  "ambiances</w>": 21147,
  "ambiant</w>": 21597,
  "ambiante</w>": 13673,
  "ambie</w>": 49904,
  "ambigu": 47198,
  "ambigu</w>": 36233,
  "ambiguë</w>": 39720,
  "ambiguï": 46332,
  "ambiguïté</w>": 17273,
  "ambiti": 49609,
  "ambitieuse</w>": 20185,
  "ambitieuses</w>": 42881,
  "ambitieux</w>": 7883,
  "ambition</w>": 5014,
  "ambitionne</w>": 35801,
  "ambitions</w>": 8211,
  "ambo": 37665,
  "ambre</w>": 27808,
  "ambro": 28151,
  "ambroise</w>": 37524,
  "ambu": 48617,
  "ambul": 20786,
  "ambulance</w>": 23576,
  "ambulances</w>": 38486,
  "ambulanciers</w>": 46220,
  "ambulatoire</w>": 44129,
  "ambule</w>": 41429,
  "amd</w>": 36544,
  "ame</w>": 9146,
  "ameli": 42202,
  "amen": 11269,
  "amen</w>": 33902,
  "amena</w>": 35231,
  "amenait</w>": 46790,
  "amenant</w>": 27011,
  "amend": 31707,
  "amende</w>": 5895,
  "amendement</w>": 3791,
  "amendements</w>": 6566,
  "amender</w>": 40714,
  "amendes</w>": 10273,
  "amener</w>": 5447,
  "ament</w>": 22183,
  "amenu": 42978,
  "amené</w>": 6293,
  "amenée</w>": 17922,
  "amenées</w>": 38937,
  "amenés</w>": 15043,
  "amer": 34598,
  "amer</w>": 12699,
  "ameri": 17680,
  "america</w>": 12804,
  "american</w>": 8455,
  "amers</w>": 46163,
  "amertume</w>": 15956,
  "ames</w>": 26218,
  "ameu": 48159,
  "ameublement</w>": 26489,
  "amf</w>": 24551,
  "ami": 6585,
  "ami</w>": 1153,
  "amiable</w>": 21547,
  "amiante</w>": 20162,
  "amical</w>": 14560,
  "amicale</w>": 15233,
  "amicalement</w>": 46611,
  "amicales</w>": 31523,
  "amicaux</w>": 29802,
  "amide</w>": 26901,
  "amidon</w>": 30137,
  "amie</w>": 3882,
  "amiens</w>": 13645,
  "amies</w>": 10046,
  "amiga</w>": 27280,
  "amin": 25195,
  "amine</w>": 23251,
  "aming</w>": 47086,
  "aminés</w>": 22480,
  "amir": 37776,
  "amir</w>": 36565,
  "amiral</w>": 11931,
  "amis": 39779,
  "amis</w>": 842,
  "amiti": 47951,
  "amitié</w>": 4073,
  "amitiés</w>": 22415,
  "amm</w>": 46572,
  "ammar</w>": 48435,
  "amment</w>": 17266,
  "ammoni": 47142,
  "ammoniac</w>": 42228,
  "ammonium</w>": 42043,
  "amnes": 49556,
  "amnesty</w>": 19840,
  "amnis": 48033,
  "amnistie</w>": 22575,
  "amné": 45169,
  "amo": 14961,
  "amo</w>": 25523,
  "amoin": 42492,
  "amon": 38745,
  "amon</w>": 46240,
  "amoncel": 44755,
  "among</w>": 39392,
  "amont</w>": 6927,
  "amor": 8749,
  "amorce</w>": 19670,
  "amorcer</w>": 25529,
  "amorcé</w>": 23974,
  "amorcée</w>": 36892,
  "amorti</w>": 39843,
  "amortir</w>": 38129,
  "amortissement</w>": 18028,
  "amortisseur</w>": 34592,
  "amortisseurs</w>": 42466,
  "amorçage</w>": 41132,
  "amos</w>": 34916,
  "amou": 36389,
  "amour": 27930,
  "amour-": 49170,
  "amour-propre</w>": 40215,
  "amour</w>": 763,
  "amoureuse</w>": 7771,
  "amoureuses</w>": 25483,
  "amoureux</w>": 3305,
  "amours</w>": 12617,
  "amovi": 49278,
  "amovible</w>": 14503,
  "amovibles</w>": 33725,
  "amp</w>": 16449,
  "amph": 25212,
  "amphi": 25452,
  "amphibiens</w>": 38054,
  "amphithéâtre</w>": 21176,
  "ampl": 48995,
  "ample</w>": 17088,
  "amplement</w>": 19388,
  "amples</w>": 15131,
  "ampleur</w>": 4241,
  "ampli": 13084,
  "ampli</w>": 26629,
  "amplificateur</w>": 21125,
  "amplification</w>": 25571,
  "amplifie</w>": 40000,
  "amplifier</w>": 23331,
  "amplifié</w>": 39013,
  "amplitude</w>": 16545,
  "ampoule</w>": 19643,
  "ampoules</w>": 20531,
  "ampton</w>": 48875,
  "ampu": 19556,
  "amputé</w>": 40570,
  "ams</w>": 18133,
  "amster": 48199,
  "amsterdam</w>": 10110,
  "amt</w>": 43548,
  "amu": 13595,
  "amus": 24711,
  "amus</w>": 44236,
  "amusait</w>": 45278,
  "amusant</w>": 10644,
  "amusante</w>": 25855,
  "amusantes</w>": 39047,
  "amusants</w>": 41120,
  "amuse</w>": 12389,
  "amusement</w>": 29483,
  "amusent</w>": 31855,
  "amuser</w>": 8521,
  "amusez-vous</w>": 46710,
  "amusé</w>": 23386,
  "amusée</w>": 41810,
  "amy": 25982,
  "amy</w>": 17507,
  "amèn": 39539,
  "amène</w>": 6863,
  "amènent</w>": 20486,
  "amènera</w>": 32864,
  "amère</w>": 22682,
  "amé": 19817,
  "amé</w>": 41639,
  "amédée</w>": 44607,
  "améli": 47364,
  "amélie</w>": 20621,
  "amélior": 21736,
  "améliorant</w>": 16802,
  "amélioration</w>": 2088,
  "améliorations</w>": 7781,
  "améliore</w>": 9065,
  "améliorent</w>": 22103,
  "améliorer</w>": 1112,
  "améliorera</w>": 40945,
  "améliorez</w>": 41047,
  "amélioré</w>": 9528,
  "améliorée</w>": 10114,
  "améliorées</w>": 20338,
  "améliorés</w>": 24300,
  "amén": 47196,
  "aménag": 29933,
  "aménagement</w>": 3345,
  "aménagements</w>": 10532,
  "aménager</w>": 13858,
  "aménagé</w>": 11005,
  "aménagée</w>": 13821,
  "aménagées</w>": 28951,
  "aménagés</w>": 23234,
  "amér": 31084,
  "améri": 47394,
  "améric": 47685,
  "américain": 36510,
  "américain</w>": 965,
  "américaine</w>": 1314,
  "américaines</w>": 4004,
  "américains</w>": 1571,
  "américan": 45495,
  "américano-": 38223,
  "amérindiens</w>": 28077,
  "amérique</w>": 1626,
  "amériques</w>": 20799,
  "an": 534,
  "an'</w>": 42916,
  "an-": 13630,
  "an</w>": 238,
  "ana": 24891,
  "ana</w>": 3078,
  "anach": 46912,
  "anachron": 46484,
  "anais</w>": 20328,
  "anal": 29985,
  "anal</w>": 31710,
  "analgé": 45626,
  "analogie</w>": 20074,
  "analogique</w>": 20299,
  "analogiques</w>": 38307,
  "analogue</w>": 14792,
  "analogues</w>": 15521,
  "analy": 9784,
  "analysant</w>": 27803,
  "analyse</w>": 891,
  "analysent</w>": 41178,
  "analyser</w>": 4924,
  "analyses</w>": 4202,
  "analyseur</w>": 44881,
  "analyste</w>": 11552,
  "analystes</w>": 8384,
  "analysé</w>": 14576,
  "analysée</w>": 35447,
  "analysées</w>": 24779,
  "analysés</w>": 23451,
  "analytics</w>": 32476,
  "analytique</w>": 15714,
  "analytiques</w>": 27055,
  "ananas</w>": 22490,
  "anapolis</w>": 46895,
  "anar": 40712,
  "anarch": 27853,
  "anarchie</w>": 25843,
  "anarchiste</w>": 27763,
  "anarchistes</w>": 27264,
  "anari": 45620,
  "anas": 45937,
  "anas</w>": 40789,
  "anasta": 36766,
  "anat": 27683,
  "anatom": 37117,
  "anatomie</w>": 20985,
  "anatomique</w>": 40223,
  "anatomiques</w>": 46807,
  "anaïs</w>": 35723,
  "anc": 7856,
  "anc</w>": 27144,
  "anca</w>": 34426,
  "ance": 20489,
  "ance.": 28942,
  "ance</w>": 3124,
  "ancel": 49771,
  "ancelotti</w>": 41218,
  "ancement</w>": 48211,
  "ancen": 48822,
  "ancent</w>": 37184,
  "ancer</w>": 22635,
  "ances": 25898,
  "ances</w>": 5148,
  "ancestral</w>": 42279,
  "ancestrale</w>": 35289,
  "ancestrales</w>": 37549,
  "anche</w>": 38554,
  "anches</w>": 36113,
  "anci": 13429,
  "ancia</w>": 45047,
  "ancien</w>": 623,
  "ancienne</w>": 1493,
  "anciennement</w>": 15340,
  "anciennes</w>": 3874,
  "ancienneté</w>": 15928,
  "anciens</w>": 1523,
  "ancier</w>": 21667,
  "anciers</w>": 19666,
  "ancière</w>": 47089,
  "ancourt</w>": 24560,
  "ancr": 48696,
  "ancrage</w>": 15063,
  "ancre</w>": 22705,
  "ancrer</w>": 38494,
  "ancré</w>": 23473,
  "ancrée</w>": 23998,
  "ancrées</w>": 42344,
  "ancrés</w>": 41003,
  "ancy</w>": 37399,
  "ancé</w>": 27160,
  "ancée</w>": 17920,
  "ancées</w>": 45210,
  "ancés</w>": 29572,
  "ancêtre</w>": 17631,
  "ancêtres</w>": 9411,
  "and": 3673,
  "and-": 31389,
  "and</w>": 706,
  "anda</w>": 9614,
  "andage</w>": 25733,
  "andais</w>": 36640,
  "andaise</w>": 22899,
  "andal": 30030,
  "andalou": 49277,
  "andalousie</w>": 28663,
  "ande</w>": 12179,
  "ander": 21559,
  "ander</w>": 13727,
  "anderie</w>": 49936,
  "anderle": 48432,
  "anderlecht</w>": 20999,
  "anders</w>": 35239,
  "andersen</w>": 44597,
  "anderson</w>": 15865,
  "andes</w>": 19008,
  "andet</w>": 49305,
  "andi</w>": 33220,
  "andine</w>": 38731,
  "ando</w>": 21741,
  "andor": 48542,
  "andorre</w>": 30586,
  "andr": 14403,
  "andra</w>": 28625,
  "andre": 13690,
  "andre</w>": 13348,
  "andrea</w>": 19357,
  "andreas</w>": 28234,
  "andres</w>": 42560,
  "andrew</w>": 12913,
  "andri": 26495,
  "andro": 29172,
  "andro</w>": 47466,
  "androi": 48846,
  "android</w>": 7210,
  "andré": 25179,
  "andré-": 35749,
  "andré</w>": 3570,
  "andrée</w>": 35849,
  "ands</w>": 18324,
  "andy</w>": 13154,
  "ane</w>": 2381,
  "anec": 49408,
  "anecdo": 47549,
  "anecdote</w>": 17050,
  "anecdotes</w>": 15093,
  "anecdotique</w>": 30978,
  "anes</w>": 9475,
  "anesthé": 23163,
  "anesthésie</w>": 25238,
  "ang": 3838,
  "ang</w>": 6271,
  "anga</w>": 19938,
  "ange": 19145,
  "ange</w>": 4694,
  "angel": 21642,
  "angel</w>": 18206,
  "angela</w>": 10974,
  "angeles</w>": 6209,
  "angeli": 40671,
  "angelina</w>": 35237,
  "angelo</w>": 26928,
  "angels</w>": 29026,
  "anger</w>": 20859,
  "angers</w>": 9346,
  "anges</w>": 7166,
  "angi": 40098,
  "angio": 44094,
  "angl": 20694,
  "anglais</w>": 969,
  "anglaise</w>": 4800,
  "anglaises</w>": 17954,
  "angle</w>": 3728,
  "angles</w>": 9965,
  "anglet": 48189,
  "angleterre</w>": 2255,
  "angli": 23221,
  "anglo": 45987,
  "anglo-": 22172,
  "anglo-sax": 47945,
  "anglo-saxon</w>": 35204,
  "anglo-saxonne</w>": 37031,
  "anglo-saxons</w>": 25380,
  "anglois</w>": 48041,
  "anglophone</w>": 19908,
  "anglophones</w>": 18180,
  "ango": 16210,
  "ango</w>": 33305,
  "angois": 50018,
  "angoisse</w>": 9076,
  "angoisses</w>": 20984,
  "angol": 38851,
  "angola</w>": 17576,
  "angoul": 49404,
  "angoulême</w>": 21146,
  "angs</w>": 47624,
  "angu": 14405,
  "angulaire</w>": 22342,
  "angus</w>": 46271,
  "angél": 38861,
  "angélique</w>": 23955,
  "anhy": 42583,
  "ani": 5529,
  "ani</w>": 5084,
  "ania</w>": 19373,
  "anie</w>": 12182,
  "anies</w>": 47284,
  "anim": 6243,
  "animal</w>": 3062,
  "animale</w>": 8854,
  "animales</w>": 15264,
  "animalier</w>": 41329,
  "animateur</w>": 8708,
  "animateurs</w>": 13594,
  "animation</w>": 3770,
  "animations</w>": 7110,
  "animatrice</w>": 22289,
  "animaux</w>": 1418,
  "anime</w>": 8689,
  "animent</w>": 25271,
  "animer</w>": 12881,
  "animo": 42585,
  "animé</w>": 6549,
  "animée</w>": 9831,
  "animées</w>": 20921,
  "animés</w>": 12407,
  "anine</w>": 47681,
  "anique</w>": 20395,
  "aniques</w>": 32421,
  "anis</w>": 27099,
  "anisme</w>": 19954,
  "anita</w>": 36854,
  "anjou</w>": 20253,
  "ank": 48378,
  "ank</w>": 40445,
  "ankama</w>": 43424,
  "ankara</w>": 18063,
  "ann": 4347,
  "ann</w>": 12161,
  "anna</w>": 6526,
  "annales</w>": 19111,
  "annan</w>": 37584,
  "anne-": 13258,
  "anne-marie</w>": 24852,
  "anne</w>": 3452,
  "anneau</w>": 9252,
  "anneaux</w>": 13175,
  "annec": 48851,
  "annecy</w>": 20594,
  "annee</w>": 26287,
  "annees</w>": 26308,
  "annes</w>": 21769,
  "annette</w>": 28137,
  "annex": 24529,
  "annexe</w>": 2258,
  "annexes</w>": 9958,
  "annexion</w>": 26295,
  "annexé</w>": 28184,
  "annexée</w>": 37593,
  "anni": 21275,
  "anni</w>": 22036,
  "annick</w>": 36890,
  "annie</w>": 14821,
  "annihil": 35225,
  "anniversaire</w>": 2909,
  "anniversaires</w>": 30127,
  "annnonces</w>": 44185,
  "anno": 26664,
  "anno</w>": 38680,
  "annon": 11038,
  "annon</w>": 48782,
  "annonce</w>": 1068,
  "annoncent</w>": 13097,
  "annoncer</w>": 5423,
  "annonces</w>": 2358,
  "annonceur</w>": 38437,
  "annonceurs</w>": 19189,
  "annonci": 41133,
  "annoncé</w>": 1138,
  "annoncée</w>": 7761,
  "annoncées</w>": 15229,
  "annoncés</w>": 14944,
  "annonça</w>": 32637,
  "annonçaient</w>": 44848,
  "annonçait</w>": 13436,
  "annonçant</w>": 12401,
  "announ": 43771,
  "annu": 10530,
  "annuaire</w>": 11105,
  "annuaires</w>": 37389,
  "annuel</w>": 3169,
  "annuelle</w>": 4318,
  "annuellement</w>": 14375,
  "annuelles</w>": 10831,
  "annuels</w>": 7830,
  "annulaire</w>": 25397,
  "annulation</w>": 6568,
  "annulations</w>": 44699,
  "annule</w>": 23764,
  "annuler</w>": 7035,
  "annulé</w>": 11745,
  "annulée</w>": 17796,
  "annulées</w>": 40690,
  "annulés</w>": 29715,
  "anny</w>": 46896,
  "anné": 18237,
  "année-là</w>": 20195,
  "année.": 43465,
  "année</w>": 171,
  "années-": 43374,
  "années</w>": 181,
  "ano": 10205,
  "ano</w>": 3938,
  "anod": 48813,
  "anode</w>": 40966,
  "anodin</w>": 29616,
  "anodine</w>": 46711,
  "anom": 47462,
  "anomalie</w>": 18578,
  "anomalies</w>": 17148,
  "anon": 42706,
  "anon</w>": 41914,
  "anony": 27891,
  "anonymat</w>": 12669,
  "anonyme</w>": 7844,
  "anonymement</w>": 46501,
  "anonymes</w>": 14125,
  "anor": 26801,
  "anor</w>": 45640,
  "anorexie</w>": 46541,
  "anormal</w>": 20612,
  "anormale</w>": 31170,
  "anormalement</w>": 39261,
  "anormaux</w>": 43698,
  "anos</w>": 31956,
  "another</w>": 31347,
  "anou": 35975,
  "ans": 17872,
  "ans.": 17572,
  "ans</w>": 107,
  "anse</w>": 26475,
  "ansel": 45734,
  "anses</w>": 35750,
  "ant": 8449,
  "ant-": 11968,
  "ant.": 12956,
  "ant</w>": 423,
  "anta</w>": 36789,
  "antagon": 47357,
  "antagonisme</w>": 46658,
  "antagoniste</w>": 40717,
  "antagonistes</w>": 28959,
  "antaine</w>": 50687,
  "antan": 45159,
  "antan</w>": 20781,
  "antar": 48371,
  "antarc": 48494,
  "antarctique</w>": 22920,
  "ante": 27315,
  "ante-": 48232,
  "ante.": 25520,
  "ante</w>": 887,
  "anten": 29963,
  "antenne</w>": 7024,
  "antennes</w>": 14485,
  "anterie</w>": 47669,
  "antes": 35740,
  "antes</w>": 1577,
  "anteur</w>": 39317,
  "anth": 13810,
  "antha</w>": 49574,
  "anthologie</w>": 23912,
  "anthony</w>": 11073,
  "anthra": 37748,
  "anthro": 18351,
  "anthropo": 29609,
  "anthropolo": 47255,
  "anthropologie</w>": 16635,
  "anthropologique</w>": 36552,
  "anthropologue</w>": 36735,
  "anti": 1236,
  "anti-": 1811,
  "anti-age</w>": 27567,
  "anti-inflammatoires</w>": 43427,
  "anti-âge</w>": 40669,
  "anti</w>": 10329,
  "antibes</w>": 29524,
  "antibio": 48181,
  "antibiotique</w>": 41589,
  "antibiotiques</w>": 17157,
  "antic</w>": 48250,
  "antichambre</w>": 42126,
  "antici": 17501,
  "anticipa": 48588,
  "anticipation</w>": 16100,
  "anticipations</w>": 38055,
  "anticipe</w>": 27963,
  "anticiper</w>": 11546,
  "anticipé</w>": 18597,
  "anticipée</w>": 20316,
  "anticipées</w>": 26739,
  "anticorps</w>": 13983,
  "antidopage</w>": 29474,
  "antidote</w>": 41571,
  "antidumping</w>": 27660,
  "antidé": 48477,
  "antidépresseurs</w>": 44742,
  "antidérap": 41631,
  "antigène</w>": 40254,
  "antill": 22320,
  "antilles</w>": 16920,
  "antimicro": 37488,
  "antin</w>": 27409,
  "antine</w>": 35929,
  "antines</w>": 38076,
  "antino</w>": 49363,
  "antins</w>": 28838,
  "antioche</w>": 43813,
  "antioxy": 35215,
  "antioxydants</w>": 32903,
  "antipodes</w>": 36374,
  "antique</w>": 7899,
  "antiques</w>": 16219,
  "antiqui": 49283,
  "antiquité</w>": 10081,
  "antiquités</w>": 24796,
  "antise</w>": 45913,
  "antisme</w>": 46986,
  "antisémi": 49983,
  "antisémite</w>": 26416,
  "antisémites</w>": 27872,
  "antisémitisme</w>": 15959,
  "antiterroriste</w>": 20910,
  "antivirus</w>": 25967,
  "antième</w>": 47838,
  "anto": 20745,
  "antoine</w>": 4688,
  "antoinette</w>": 38787,
  "anton": 17559,
  "anton</w>": 27810,
  "antoni": 47257,
  "antonin</w>": 33801,
  "antonio</w>": 9664,
  "antony</w>": 42525,
  "antre</w>": 32049,
  "ants-": 33371,
  "ants.": 28177,
  "ants</w>": 1269,
  "anté": 31301,
  "antécé": 47073,
  "antécédents</w>": 18891,
  "antéri": 47455,
  "antérieur</w>": 16821,
  "antérieure</w>": 11023,
  "antérieurement</w>": 21956,
  "antérieures</w>": 11889,
  "antérieurs</w>": 16615,
  "anu": 22901,
  "anu</w>": 42447,
  "anus</w>": 18297,
  "anvers</w>": 15659,
  "anxi": 25008,
  "anxieux</w>": 36782,
  "anxiété</w>": 15292,
  "any": 21086,
  "any</w>": 16279,
  "anyah": 51238,
  "anz</w>": 48700,
  "anza</w>": 43498,
  "anç": 46946,
  "ançon</w>": 38677,
  "ané": 24901,
  "ané</w>": 43947,
  "anéanti": 24698,
  "anéanti</w>": 43070,
  "anéantir</w>": 29507,
  "anéantissement</w>": 42956,
  "anémie</w>": 37969,
  "ao": 10883,
  "ao</w>": 8357,
  "aoc</w>": 19640,
  "aor": 44029,
  "aou": 11941,
  "aoui</w>": 36206,
  "aout</w>": 19674,
  "aoû": 41516,
  "aoû</w>": 30164,
  "août</w>": 908,
  "ap": 1785,
  "ap-": 36049,
  "ap</w>": 6159,
  "apa": 21429,
  "apa</w>": 27448,
  "apache</w>": 33589,
  "apai": 24112,
  "apaisant</w>": 34057,
  "apaisante</w>": 40785,
  "apaise</w>": 32470,
  "apaisement</w>": 21903,
  "apaiser</w>": 15738,
  "apaisé</w>": 39570,
  "apaisée</w>": 39185,
  "apan": 49296,
  "apanage</w>": 31860,
  "apar": 29335,
  "apart</w>": 47544,
  "aparte</w>": 49475,
  "apartheid</w>": 21328,
  "apatri": 47917,
  "apatrides</w>": 45485,
  "apc</w>": 38225,
  "apd</w>": 42073,
  "ape</w>": 23527,
  "apec</w>": 43864,
  "aper": 21496,
  "apercev": 27548,
  "apercevant</w>": 43434,
  "apercevoir</w>": 10688,
  "aperç": 25746,
  "aperçois</w>": 30415,
  "aperçoit</w>": 10550,
  "aperçoivent</w>": 45914,
  "aperçu</w>": 3824,
  "aperçue</w>": 34485,
  "aperçus</w>": 19229,
  "aperçut</w>": 22196,
  "aph": 19980,
  "aphro": 28804,
  "api": 13192,
  "api</w>": 16280,
  "apix": 49585,
  "apixels</w>": 49758,
  "aplan": 42203,
  "aplati": 27355,
  "aplomb</w>": 33446,
  "apn</w>": 40818,
  "apnée</w>": 39385,
  "apo": 10065,
  "apo</w>": 41784,
  "apocalyp": 47833,
  "apocalypse</w>": 18328,
  "apocalyptique</w>": 35332,
  "apogée</w>": 19589,
  "apolis</w>": 41402,
  "apoll": 30126,
  "apollo</w>": 32895,
  "apollon</w>": 30653,
  "apologie</w>": 27046,
  "apos": 23333,
  "apos</w>": 2813,
  "apost": 33254,
  "apostolique</w>": 20997,
  "apothé": 50214,
  "apothéose</w>": 41175,
  "app": 9950,
  "app</w>": 14365,
  "appa</w>": 43872,
  "appala": 49905,
  "appalaches</w>": 45557,
  "appar": 10148,
  "appara": 30783,
  "apparaissaient</w>": 46200,
  "apparaissait</w>": 22756,
  "apparaissant</w>": 25365,
  "apparaisse</w>": 34603,
  "apparaissent</w>": 5205,
  "apparait</w>": 12798,
  "apparaitre</w>": 26022,
  "apparaît</w>": 2470,
  "apparaîtra</w>": 28651,
  "apparaître</w>": 4634,
  "appare": 25096,
  "appareil</w>": 1212,
  "appareillage</w>": 38142,
  "appareils</w>": 2604,
  "apparemment</w>": 5178,
  "apparen": 18401,
  "apparence</w>": 4955,
  "apparences</w>": 15484,
  "apparent</w>": 21026,
  "apparente</w>": 9075,
  "apparentes</w>": 25387,
  "apparentés</w>": 34678,
  "appari": 35534,
  "apparition</w>": 3154,
  "apparitions</w>": 15119,
  "appart</w>": 22235,
  "appartement</w>": 1341,
  "appartements</w>": 7043,
  "apparten": 46891,
  "appartenaient</w>": 29134,
  "appartenait</w>": 13267,
  "appartenance</w>": 8670,
  "appartenant</w>": 4973,
  "appartenir</w>": 17478,
  "appartenu</w>": 26529,
  "apparti": 24406,
  "appartiendra</w>": 45368,
  "appartiennent</w>": 8300,
  "appartient</w>": 3211,
  "apparu</w>": 8534,
  "apparue</w>": 14941,
  "apparues</w>": 25786,
  "apparus</w>": 21273,
  "apparut</w>": 25010,
  "appauv": 21300,
  "appauvrissement</w>": 37699,
  "appe": 21025,
  "appel": 8021,
  "appel</w>": 789,
  "appela</w>": 25717,
  "appelaient</w>": 28542,
  "appelait</w>": 8044,
  "appelant</w>": 9692,
  "appeler</w>": 3512,
  "appelez</w>": 19240,
  "appellation</w>": 8336,
  "appellations</w>": 22952,
  "appelle</w>": 1485,
  "appellent</w>": 7219,
  "appeller": 32660,
  "appellera</w>": 32649,
  "appelons</w>": 17721,
  "appels</w>": 4371,
  "appelé</w>": 1755,
  "appelée</w>": 4467,
  "appelées</w>": 13315,
  "appelés</w>": 5697,
  "appendi": 43816,
  "appendice</w>": 21904,
  "appl": 25218,
  "applau": 26074,
  "applaudi": 47287,
  "applaudi</w>": 33631,
  "applaudir</w>": 31072,
  "applaudissements</w>": 14507,
  "apple": 45355,
  "apple</w>": 4061,
  "appli": 8196,
  "appli</w>": 18855,
  "applica": 38298,
  "applicabilité</w>": 43154,
  "applicable</w>": 5202,
  "applicables</w>": 4984,
  "application</w>": 525,
  "applications</w>": 2439,
  "appliquait</w>": 36746,
  "appliquant</w>": 13247,
  "applique</w>": 3333,
  "appliquent</w>": 6017,
  "appliquer</w>": 2313,
  "appliquera</w>": 28003,
  "appliquerons</w>": 45818,
  "appliquez</w>": 25198,
  "appliqué</w>": 6453,
  "appliquée</w>": 6113,
  "appliquées</w>": 9012,
  "appliqués</w>": 12213,
  "applis</w>": 39532,
  "appoin": 35789,
  "appoint</w>": 17243,
  "appor": 19825,
  "apport</w>": 5704,
  "apporta</w>": 36180,
  "apportait</w>": 26695,
  "apportant</w>": 11487,
  "apporte</w>": 2702,
  "apportent</w>": 7515,
  "apporter</w>": 1628,
  "apportera</w>": 13246,
  "apporterait</w>": 46121,
  "apporteront</w>": 31618,
  "apportez</w>": 31159,
  "apportons</w>": 41284,
  "apports</w>": 11826,
  "apporté</w>": 4897,
  "apportée</w>": 12889,
  "apportées</w>": 9364,
  "apportés</w>": 15396,
  "apposer</w>": 39883,
  "apposé</w>": 44630,
  "appr": 23462,
  "appre": 33324,
  "appren": 28512,
  "apprenait</w>": 32784,
  "apprenant</w>": 13947,
  "apprenants</w>": 23318,
  "apprend": 37321,
  "apprend</w>": 4097,
  "apprendra</w>": 25628,
  "apprendre</w>": 1764,
  "apprendrez</w>": 29688,
  "apprends</w>": 20537,
  "apprenez-en</w>": 20461,
  "apprenez</w>": 19733,
  "apprenne</w>": 41532,
  "apprennent</w>": 13354,
  "apprenons</w>": 29860,
  "apprenti": 39795,
  "apprenti</w>": 19847,
  "apprentis</w>": 15903,
  "apprentiss": 48746,
  "apprentissage</w>": 2440,
  "apprentissages</w>": 18499,
  "appri": 47302,
  "appris</w>": 2588,
  "apprises</w>": 43367,
  "apprit</w>": 21656,
  "apprivo": 47882,
  "apprivoiser</w>": 32614,
  "appro": 14054,
  "approbation</w>": 5757,
  "approch": 18117,
  "approcha</w>": 26652,
  "approchait</w>": 34006,
  "approchant</w>": 24753,
  "approche</w>": 1281,
  "approchent</w>": 28530,
  "approcher</w>": 9483,
  "approches</w>": 6918,
  "approché</w>": 23915,
  "approfon": 23294,
  "approfondi</w>": 20822,
  "approfondie</w>": 10598,
  "approfondies</w>": 26630,
  "approfondir</w>": 11974,
  "approfondissement</w>": 27075,
  "appropri": 23723,
  "appropriation</w>": 15204,
  "approprie</w>": 42374,
  "approprier</w>": 14684,
  "approprié</w>": 7697,
  "appropriée</w>": 7839,
  "appropriées</w>": 8862,
  "appropriés</w>": 10762,
  "approuv": 28071,
  "approuvant</w>": 46684,
  "approuve</w>": 13590,
  "approuvent</w>": 39909,
  "approuver</w>": 14268,
  "approuvé</w>": 6026,
  "approuvée</w>": 15400,
  "approuvées</w>": 24096,
  "approuvés</w>": 18253,
  "approvisi": 21969,
  "approvisionnement</w>": 5822,
  "approvisionnements</w>": 25944,
  "approvisionner</w>": 26326,
  "approxim": 29536,
  "approximatif</w>": 38141,
  "approximation</w>": 37193,
  "approximative</w>": 31125,
  "approximativement</w>": 17546,
  "appré": 49448,
  "appréci": 18214,
  "appréciable</w>": 13293,
  "appréciables</w>": 40565,
  "appréciait</w>": 45213,
  "appréciation</w>": 7746,
  "appréciations</w>": 37513,
  "apprécie</w>": 6662,
  "apprécient</w>": 15286,
  "apprécier</w>": 4763,
  "appréciera</w>": 42166,
  "apprécierez</w>": 6685,
  "apprécieront</w>": 34193,
  "appréciez</w>": 34242,
  "apprécions</w>": 42641,
  "apprécié</w>": 4316,
  "appréciée</w>": 13817,
  "appréciées</w>": 27717,
  "appréciés</w>": 20039,
  "appréhen": 21205,
  "appréhend": 47221,
  "appréhender</w>": 10713,
  "appréhendé</w>": 44434,
  "appréhension</w>": 22648,
  "apprê": 24773,
  "apprêtait</w>": 32485,
  "apprête</w>": 11163,
  "apprêtent</w>": 33565,
  "apps</w>": 35498,
  "appu": 33544,
  "appui": 33190,
  "appui</w>": 1883,
  "appuie</w>": 5102,
  "appuient</w>": 14900,
  "appuiera</w>": 39183,
  "appuis</w>": 21261,
  "appuy": 29159,
  "appuyait</w>": 39844,
  "appuyant</w>": 6994,
  "appuyer</w>": 4119,
  "appuyez</w>": 12174,
  "appuyé</w>": 10406,
  "appuyée</w>": 18900,
  "appuyées</w>": 39709,
  "appuyés</w>": 26603,
  "appâ": 45541,
  "appât</w>": 35797,
  "appé": 24662,
  "appé</w>": 40446,
  "appétit</w>": 11728,
  "appétits</w>": 44928,
  "apr": 16187,
  "apr</w>": 38110,
  "apres": 49129,
  "apres</w>": 9092,
  "apreslachat</w>": 24266,
  "april</w>": 24816,
  "aprè": 40575,
  "après-": 12088,
  "après-guerre</w>": 19529,
  "après-midi</w>": 2240,
  "après-vente</w>": 40050,
  "après</w>": 102,
  "aprés</w>": 21679,
  "aps</w>": 17798,
  "apt</w>": 44242,
  "apte</w>": 13737,
  "aptes</w>": 20769,
  "aptitude</w>": 10039,
  "aptitudes</w>": 14745,
  "apu": 41688,
  "apé": 47408,
  "apéri": 38349,
  "apéritif</w>": 16929,
  "apéro</w>": 21019,
  "apôtre</w>": 21453,
  "apôtres</w>": 17146,
  "aq": 22137,
  "aq</w>": 33501,
  "aqmi</w>": 35819,
  "aqu": 10000,
  "aqua": 38816,
  "aqua</w>": 38421,
  "aquacul": 50072,
  "aquaculture</w>": 26426,
  "aquar": 47670,
  "aquarelle</w>": 30057,
  "aquarelles</w>": 43499,
  "aquari": 41411,
  "aquarium</w>": 20352,
  "aquatique</w>": 15803,
  "aquatiques</w>": 14662,
  "aque": 48182,
  "aque</w>": 9659,
  "aqueduc</w>": 37944,
  "aques</w>": 12531,
  "aqueuse</w>": 25168,
  "aqueux</w>": 37142,
  "aqui": 20302,
  "aquin</w>": 36511,
  "aquitaine</w>": 11070,
  "ar": 399,
  "ar-": 24760,
  "ar</w>": 2043,
  "ara": 30655,
  "ara</w>": 7887,
  "arab": 16534,
  "arab</w>": 46542,
  "arabe</w>": 3219,
  "arabes</w>": 4211,
  "arabi": 23433,
  "arabie</w>": 7090,
  "arabo-": 30047,
  "arac": 49058,
  "arachi": 47468,
  "arachide</w>": 46721,
  "arafat</w>": 34729,
  "arag": 40144,
  "aragon</w>": 22827,
  "arai": 49612,
  "araign": 50415,
  "araignée</w>": 23229,
  "araignées</w>": 20454,
  "arané": 50638,
  "aranéomorphes</w>": 42190,
  "aras</w>": 46882,
  "arbal": 44075,
  "arbi": 38751,
  "arbitr": 27360,
  "arbitrage</w>": 10001,
  "arbitrages</w>": 37143,
  "arbitrai": 50481,
  "arbitraire</w>": 13765,
  "arbitrairement</w>": 40922,
  "arbitraires</w>": 27523,
  "arbitral</w>": 36734,
  "arbitre</w>": 7634,
  "arbitres</w>": 19881,
  "arbor": 14603,
  "arborant</w>": 36338,
  "arbore</w>": 29322,
  "arborescence</w>": 44717,
  "arbori": 42603,
  "arboré</w>": 23677,
  "arbre</w>": 3187,
  "arbres</w>": 2985,
  "arbu": 47992,
  "arbuste</w>": 42670,
  "arbustes</w>": 26316,
  "arc": 20375,
  "arc-": 47392,
  "arc-en-ciel</w>": 23911,
  "arc</w>": 5199,
  "arca": 30293,
  "arcachon</w>": 36504,
  "arcade</w>": 17936,
  "arcades</w>": 27934,
  "arcan": 39215,
  "arcanes</w>": 46362,
  "arcel": 48806,
  "arcelor": 50250,
  "arcelormittal</w>": 39043,
  "arcep</w>": 44370,
  "arch": 23757,
  "arch</w>": 47303,
  "archange</w>": 46228,
  "archaï": 34520,
  "archaïque</w>": 31455,
  "arche</w>": 14926,
  "archer</w>": 36323,
  "archers</w>": 39690,
  "arches</w>": 37933,
  "archevê": 36917,
  "archevêque</w>": 11509,
  "archi": 7233,
  "archim": 46504,
  "archipel</w>": 10390,
  "archit": 50406,
  "architec": 40504,
  "architecte</w>": 5825,
  "architectes</w>": 10676,
  "architectu": 48574,
  "architectural</w>": 17925,
  "architecturale</w>": 24975,
  "architecturales</w>": 37928,
  "architecturaux</w>": 35415,
  "architecture</w>": 2937,
  "architectures</w>": 27142,
  "archivage</w>": 24386,
  "archive</w>": 24295,
  "archives</w>": 3455,
  "arché": 46938,
  "archéologie</w>": 13746,
  "archéologique</w>": 15247,
  "archéologiques</w>": 15094,
  "archéologue</w>": 31363,
  "archéologues</w>": 25409,
  "archéty": 46978,
  "archétype</w>": 41585,
  "arcs</w>": 22072,
  "arctique</w>": 15819,
  "arctus</w>": 50970,
  "ard": 13261,
  "ard-": 31370,
  "ard</w>": 1608,
  "arde</w>": 12383,
  "ardemment</w>": 34599,
  "arden": 49293,
  "ardenne</w>": 45513,
  "ardennes</w>": 21941,
  "ardent</w>": 20843,
  "ardente</w>": 27814,
  "ardents</w>": 43966,
  "ardes</w>": 30683,
  "ardeur</w>": 15952,
  "ardeurs</w>": 39297,
  "ardi": 41837,
  "ardi</w>": 38358,
  "ardis": 47238,
  "ardo</w>": 30059,
  "ardoise</w>": 24719,
  "ards</w>": 5260,
  "ardu</w>": 44646,
  "ardue</w>": 41325,
  "ardèche</w>": 20193,
  "are": 17026,
  "are</w>": 4285,
  "area</w>": 30501,
  "ared</w>": 47548,
  "aren": 33389,
  "arena</w>": 20738,
  "ares</w>": 13045,
  "aret</w>": 38981,
  "areva</w>": 18707,
  "arez</w>": 48864,
  "arg": 26396,
  "argan</w>": 43933,
  "argen": 14287,
  "argent": 31575,
  "argent</w>": 703,
  "argenteuil</w>": 40545,
  "argenti": 24055,
  "argentin</w>": 12509,
  "argentine</w>": 5855,
  "argentins</w>": 33746,
  "argenté</w>": 31001,
  "argil": 37354,
  "argile</w>": 15032,
  "argot</w>": 35893,
  "argu": 23335,
  "arguant</w>": 32958,
  "argumen": 15630,
  "argument</w>": 6211,
  "argumentaire</w>": 31259,
  "argumentation</w>": 20025,
  "argumenter</w>": 39434,
  "arguments</w>": 5614,
  "ari": 3470,
  "ari</w>": 8559,
  "aria</w>": 11418,
  "ariane</w>": 21301,
  "ariat</w>": 30804,
  "aride</w>": 31948,
  "arides</w>": 32504,
  "arie</w>": 22260,
  "ariel</w>": 29993,
  "arien</w>": 35751,
  "arienne</w>": 25711,
  "ariens</w>": 33472,
  "aries</w>": 28214,
  "arif</w>": 34584,
  "arin</w>": 45986,
  "ario</w>": 13440,
  "aris": 28601,
  "aris</w>": 15938,
  "arisation</w>": 16951,
  "ariser</w>": 29492,
  "arisme</w>": 32383,
  "ariste</w>": 40796,
  "aristes</w>": 42087,
  "aristide</w>": 38212,
  "aristo": 20742,
  "aristocrate</w>": 46114,
  "aristocratie</w>": 23314,
  "aristocratique</w>": 38601,
  "aristote</w>": 19491,
  "arisé</w>": 29889,
  "arisée</w>": 43602,
  "arit</w>": 49579,
  "arith": 49561,
  "arithmé": 48759,
  "arithmétique</w>": 31729,
  "arité</w>": 13763,
  "arités</w>": 32327,
  "arium</w>": 22968,
  "arius</w>": 29313,
  "arizona</w>": 19551,
  "ariège</w>": 33512,
  "ark": 33047,
  "ark</w>": 43240,
  "arkansas</w>": 44934,
  "arles</w>": 22485,
  "arlette</w>": 43297,
  "arly</w>": 37328,
  "arm": 17842,
  "arm</w>": 37506,
  "armada</w>": 35290,
  "armag": 32777,
  "arman": 28580,
  "armand</w>": 17529,
  "armateur</w>": 45234,
  "armateurs</w>": 42783,
  "armature</w>": 29995,
  "arme</w>": 3137,
  "armement</w>": 11846,
  "armements</w>": 21152,
  "armer</w>": 26309,
  "armes</w>": 1209,
  "armis": 49993,
  "armistice</w>": 26149,
  "armoi": 49756,
  "armoire</w>": 14437,
  "armoires</w>": 27372,
  "armoiries</w>": 29238,
  "armor</w>": 28117,
  "armstrong</w>": 23888,
  "armu": 48156,
  "armure</w>": 17437,
  "armures</w>": 38105,
  "army</w>": 27095,
  "armé": 39593,
  "armé</w>": 6944,
  "armée</w>": 901,
  "armées</w>": 3897,
  "arménie</w>": 15647,
  "arménien</w>": 26037,
  "arménienne</w>": 34153,
  "arméniens</w>": 24157,
  "armés</w>": 5616,
  "arn": 20412,
  "arn</w>": 19538,
  "arna": 23737,
  "arnaque</w>": 7274,
  "arnau": 47654,
  "arnaud</w>": 8091,
  "arnault</w>": 46725,
  "arnold</w>": 24937,
  "arnou": 36978,
  "aro</w>": 20266,
  "arom": 21185,
  "aromathé": 50086,
  "aromathérapie</w>": 35138,
  "aromati": 38031,
  "aromatique</w>": 18308,
  "aromatiques</w>": 21622,
  "aron</w>": 29769,
  "arou": 35319,
  "around</w>": 29532,
  "arp": 42276,
  "arpen": 23761,
  "arpenter</w>": 41543,
  "arque</w>": 26947,
  "arr": 33921,
  "arr.": 32885,
  "arra": 9233,
  "arrache</w>": 21663,
  "arracher</w>": 12128,
  "arraché</w>": 19369,
  "arrachée</w>": 42280,
  "arrachés</w>": 40247,
  "arran": 11270,
  "arrange</w>": 19785,
  "arrangeant</w>": 42973,
  "arrangement</w>": 14056,
  "arrangements</w>": 11246,
  "arranger</w>": 16982,
  "arrangé</w>": 26992,
  "arras</w>": 26700,
  "arre": 37588,
  "arre</w>": 31140,
  "arres": 47746,
  "arrestation</w>": 7312,
  "arrestations</w>": 16104,
  "arrete</w>": 38744,
  "arreter</w>": 44734,
  "arri": 7131,
  "arriv": 27935,
  "arriva</w>": 11742,
  "arrivaient</w>": 25213,
  "arrivais</w>": 30403,
  "arrivait</w>": 10170,
  "arrivant</w>": 9405,
  "arrivants</w>": 23083,
  "arrive</w>": 1029,
  "arrivent</w>": 4479,
  "arriver": 17187,
  "arriver</w>": 1788,
  "arrivera</w>": 11148,
  "arriverait</w>": 32302,
  "arriverez</w>": 45098,
  "arriveront</w>": 30078,
  "arrives</w>": 36871,
  "arrivez</w>": 21053,
  "arrivons</w>": 22676,
  "arrivèrent</w>": 27841,
  "arrivé": 48268,
  "arrivé</w>": 2220,
  "arrivée-": 51256,
  "arrivée</w>": 973,
  "arrivées</w>": 13131,
  "arrivés</w>": 5818,
  "arrière-": 11238,
  "arrière-pays</w>": 43192,
  "arrière-plan</w>": 19820,
  "arrière</w>": 1677,
  "arrières</w>": 21752,
  "arrié": 44576,
  "arriérés</w>": 34500,
  "arro": 10270,
  "arrog": 47703,
  "arrogance</w>": 25142,
  "arrogant</w>": 39284,
  "arron": 28126,
  "arrondi</w>": 28089,
  "arrondie</w>": 36117,
  "arrondies</w>": 45480,
  "arrondis</w>": 34585,
  "arrondissement</w>": 4483,
  "arrondissements</w>": 22074,
  "arrosage</w>": 26275,
  "arroser</w>": 22525,
  "arrosé</w>": 39048,
  "arrosée</w>": 43160,
  "arrê": 10038,
  "arrêt</w>": 1733,
  "arrêta</w>": 17389,
  "arrêtait</w>": 28644,
  "arrêtant</w>": 24599,
  "arrête</w>": 3988,
  "arrêtent</w>": 15815,
  "arrêter</w>": 2268,
  "arrêtera</w>": 27400,
  "arrêtez</w>": 21231,
  "arrêtons</w>": 38279,
  "arrêts</w>": 8015,
  "arrêté</w>": 1992,
  "arrêtée</w>": 11052,
  "arrêtées</w>": 14988,
  "arrêtés</w>": 6895,
  "ars</w>": 6279,
  "arsen": 28814,
  "arsenal</w>": 9114,
  "arsenic</w>": 43375,
  "arsène</w>": 35069,
  "art": 16433,
  "art.": 42521,
  "art.</w>": 6434,
  "art</w>": 627,
  "arta": 48126,
  "arta</w>": 33634,
  "artagnan</w>": 36633,
  "arte": 40748,
  "arte</w>": 13879,
  "artefacts</w>": 38698,
  "arth": 13900,
  "arthrite</w>": 33206,
  "arthrose</w>": 42416,
  "arthur</w>": 7979,
  "arti": 7821,
  "artichau": 36303,
  "articl": 27885,
  "article": 34445,
  "article</w>": 236,
  "articles</w>": 958,
  "articul": 27114,
  "articulaires</w>": 40073,
  "articulation</w>": 12533,
  "articulations</w>": 20243,
  "articule</w>": 23022,
  "articulent</w>": 45048,
  "articuler</w>": 29986,
  "articulé</w>": 29669,
  "articulée</w>": 37206,
  "articulés</w>": 44406,
  "artifice</w>": 14789,
  "artifices</w>": 28742,
  "artifici": 39204,
  "artificiel</w>": 16345,
  "artificielle</w>": 15567,
  "artificiellement</w>": 21216,
  "artificielles</w>": 25128,
  "artificiels</w>": 26531,
  "artill": 47190,
  "artillerie</w>": 9530,
  "artine</w>": 49805,
  "arting</w>": 41275,
  "artis": 33844,
  "artis</w>": 46693,
  "artisan": 44113,
  "artisan</w>": 12354,
  "artisanal</w>": 30025,
  "artisanale</w>": 17483,
  "artisanales</w>": 26554,
  "artisanat</w>": 10977,
  "artisanaux</w>": 38120,
  "artisans</w>": 6916,
  "artiste</w>": 1989,
  "artistes</w>": 1750,
  "artistique</w>": 3294,
  "artistiques</w>": 7715,
  "artois</w>": 34173,
  "arts</w>": 2473,
  "artère</w>": 24086,
  "artères</w>": 23042,
  "arté": 31402,
  "artéri": 43777,
  "artérielle</w>": 19398,
  "aru</w>": 36188,
  "ary": 37934,
  "ary</w>": 7247,
  "aryle</w>": 45476,
  "arène</w>": 18546,
  "arènes</w>": 27431,
  "aré": 36541,
  "aré</w>": 26964,
  "aréna</w>": 40995,
  "arête</w>": 31637,
  "arêtes</w>": 33338,
  "arôme</w>": 24923,
  "arômes</w>": 11064,
  "as": 1057,
  "as-": 19036,
  "as-tu</w>": 13114,
  "as</w>": 386,
  "asa</w>": 24138,
  "asaki</w>": 34266,
  "asbl</w>": 32389,
  "asc": 25361,
  "ascen": 28158,
  "ascend": 39286,
  "ascendance</w>": 35761,
  "ascendant</w>": 23632,
  "ascendante</w>": 40078,
  "ascenseur</w>": 11594,
  "ascenseurs</w>": 32415,
  "ascension</w>": 9549,
  "asco</w>": 47493,
  "ase</w>": 7939,
  "ased</w>": 39748,
  "asep": 46008,
  "ases</w>": 29540,
  "asfc</w>": 35480,
  "ash": 8233,
  "ash</w>": 15529,
  "asha</w>": 37373,
  "ashi</w>": 19720,
  "ashley</w>": 32677,
  "ashton</w>": 35034,
  "asi": 6902,
  "asi</w>": 28933,
  "asia</w>": 27936,
  "asiatique</w>": 10144,
  "asiatiques</w>": 11154,
  "asie-": 39202,
  "asie-pacifique</w>": 35409,
  "asie</w>": 2831,
  "asile</w>": 5667,
  "asin</w>": 48790,
  "asing</w>": 35209,
  "asion</w>": 50261,
  "asions</w>": 50956,
  "asis</w>": 37212,
  "ask</w>": 38852,
  "aska</w>": 46943,
  "asm</w>": 29941,
  "asme</w>": 47269,
  "asn</w>": 45551,
  "aso</w>": 33520,
  "asp</w>": 42001,
  "aspec": 48599,
  "aspect</w>": 2287,
  "aspects</w>": 2586,
  "asper": 22517,
  "asperges</w>": 29668,
  "asphal": 47610,
  "asphalte</w>": 36443,
  "asphy": 50503,
  "asphyxi": 37725,
  "asphyxie</w>": 45296,
  "aspi": 12019,
  "aspirant</w>": 33959,
  "aspirateur</w>": 18055,
  "aspiration</w>": 13719,
  "aspirations</w>": 12797,
  "aspire</w>": 18191,
  "aspirent</w>": 32787,
  "aspirer</w>": 31325,
  "asque</w>": 44858,
  "asques</w>": 39306,
  "ass": 2660,
  "ass</w>": 17783,
  "assa</w>": 40227,
  "assad</w>": 16247,
  "assai": 45967,
  "assail": 46476,
  "assaill": 40489,
  "assaillant</w>": 42294,
  "assaillants</w>": 24517,
  "assain": 48011,
  "assainir</w>": 36748,
  "assainissement</w>": 8492,
  "assais": 49906,
  "assaisonn": 30523,
  "assaisonnement</w>": 32588,
  "assaisonner</w>": 35096,
  "assane</w>": 49385,
  "assange</w>": 42500,
  "assass": 34963,
  "assassin": 25588,
  "assassin</w>": 14956,
  "assassinat</w>": 7976,
  "assassinats</w>": 22886,
  "assassiner</w>": 24050,
  "assassins</w>": 20491,
  "assassiné</w>": 12544,
  "assassinée</w>": 37546,
  "assassinés</w>": 29267,
  "assaut</w>": 7470,
  "assauts</w>": 25842,
  "asse": 35700,
  "asse</w>": 6648,
  "assembl": 18102,
  "assemblage</w>": 8430,
  "assemblages</w>": 34694,
  "assemble</w>": 41838,
  "assembler</w>": 20252,
  "assemblé</w>": 32433,
  "assemblée</w>": 912,
  "assemblées</w>": 10025,
  "assemblés</w>": 28086,
  "assent</w>": 35652,
  "assentiment</w>": 30367,
  "asseoir</w>": 8776,
  "asser": 16388,
  "asser</w>": 16851,
  "assertion</w>": 43582,
  "assertions</w>": 44131,
  "asserv": 49391,
  "asservissement</w>": 42403,
  "asses</w>": 18060,
  "asset</w>": 30894,
  "asseur</w>": 45181,
  "assey": 29406,
  "assez</w>": 384,
  "assi": 6013,
  "assi</w>": 37113,
  "assidu": 49672,
  "assiduité</w>": 39366,
  "assiette</w>": 7361,
  "assiettes</w>": 13632,
  "assign": 32048,
  "assignation</w>": 31101,
  "assigner</w>": 35953,
  "assigné</w>": 23540,
  "assignés</w>": 40954,
  "assimil": 22781,
  "assimilation</w>": 21091,
  "assimile</w>": 44594,
  "assimiler</w>": 23054,
  "assimilé</w>": 26229,
  "assimilée</w>": 40606,
  "assimilées</w>": 45453,
  "assimilés</w>": 27732,
  "assin</w>": 37266,
  "assis": 15326,
  "assis</w>": 5106,
  "assise</w>": 7081,
  "assises</w>": 9376,
  "assist": 16062,
  "assistait</w>": 42392,
  "assistance</w>": 2228,
  "assistant</w>": 7446,
  "assistante</w>": 15858,
  "assistantes</w>": 17027,
  "assistants</w>": 17339,
  "assiste</w>": 9373,
  "assistent</w>": 29050,
  "assister</w>": 4503,
  "assistons</w>": 31061,
  "assisté</w>": 6605,
  "assistée</w>": 16064,
  "assistés</w>": 37814,
  "assit</w>": 34710,
  "assitante</w>": 41239,
  "assiég": 24479,
  "assiégée</w>": 45440,
  "asso</w>": 26771,
  "associ": 11724,
  "associant</w>": 14269,
  "associated</w>": 40014,
  "associatif</w>": 16960,
  "associatifs</w>": 28143,
  "association</w>": 685,
  "associations</w>": 2012,
  "associative</w>": 23777,
  "associatives</w>": 39926,
  "associe</w>": 9701,
  "associent</w>": 23556,
  "associer</w>": 7244,
  "associé</w>": 3215,
  "associée</w>": 5340,
  "associées</w>": 7246,
  "associés</w>": 3437,
  "assoiff": 36573,
  "assom": 15008,
  "assomption</w>": 33534,
  "asson</w>": 33612,
  "assor": 27302,
  "assorti</w>": 18040,
  "assortie</w>": 18778,
  "assorties</w>": 33245,
  "assortiment</w>": 28908,
  "assortis</w>": 26433,
  "assou": 14839,
  "assoupl": 47431,
  "assouplir</w>": 36461,
  "assouplissement</w>": 25143,
  "assour": 33979,
  "assouvir</w>": 31328,
  "assu": 9462,
  "assujet": 33914,
  "assujetti</w>": 30472,
  "assujettie</w>": 42006,
  "assujetties</w>": 43113,
  "assujettis</w>": 27289,
  "assumant</w>": 43883,
  "assume</w>": 11119,
  "assument</w>": 30481,
  "assumer</w>": 6883,
  "assumé</w>": 21963,
  "assumée</w>": 33223,
  "assur": 17885,
  "assura</w>": 44362,
  "assurait</w>": 22261,
  "assuran": 38976,
  "assurance-": 22280,
  "assurance-emploi</w>": 39829,
  "assurance-maladie</w>": 30358,
  "assurance-vie</w>": 23895,
  "assurance</w>": 1284,
  "assurances</w>": 5183,
  "assurant</w>": 6420,
  "assure-t-il</w>": 34966,
  "assure</w>": 1998,
  "assurent</w>": 7250,
  "assurer</w>": 783,
  "assurera</w>": 19356,
  "assureront</w>": 43380,
  "assureur</w>": 12146,
  "assureurs</w>": 17108,
  "assurez-vous</w>": 17468,
  "assurez</w>": 28399,
  "assurons</w>": 39600,
  "assuré</w>": 2611,
  "assurée</w>": 6382,
  "assurées</w>": 23519,
  "assurément</w>": 10687,
  "assurés</w>": 9668,
  "assy": 31867,
  "assé": 41396,
  "assé</w>": 42930,
  "assén": 35678,
  "ast</w>": 10900,
  "aste</w>": 25598,
  "aster": 28470,
  "aster</w>": 28464,
  "astes</w>": 48306,
  "asthme</w>": 24075,
  "asti": 32791,
  "astique</w>": 41610,
  "aston</w>": 35935,
  "astr": 14743,
  "astral</w>": 36413,
  "astre": 25675,
  "astre</w>": 22240,
  "astreinte</w>": 39624,
  "astres</w>": 19758,
  "astri": 48390,
  "astrid</w>": 44737,
  "astro": 24702,
  "astrologie</w>": 33632,
  "astron": 48529,
  "astronaute</w>": 38266,
  "astronautes</w>": 31186,
  "astronom": 49055,
  "astronome</w>": 33142,
  "astronomes</w>": 35829,
  "astronomie</w>": 21802,
  "astronomique</w>": 29545,
  "astronomiques</w>": 38382,
  "astu": 22493,
  "astuce</w>": 13941,
  "astuces</w>": 8263,
  "astucieux</w>": 41816,
  "asté": 43557,
  "astéri": 49370,
  "astérix</w>": 32263,
  "astéroï": 50708,
  "astéroïde</w>": 13126,
  "astéroïdes</w>": 12611,
  "asu": 40384,
  "asus</w>": 25777,
  "asy": 22105,
  "asymétrique</w>": 31048,
  "asyn": 46425,
  "at": 1233,
  "at-": 18502,
  "at</w>": 1045,
  "ata": 15027,
  "ata</w>": 6399,
  "ataire</w>": 33963,
  "atal": 43896,
  "atar</w>": 48627,
  "atari</w>": 37063,
  "ate": 30915,
  "ate</w>": 4681,
  "ated</w>": 13865,
  "atelier</w>": 18355,
  "ateliers</w>": 30607,
  "atem": 48821,
  "atement</w>": 47697,
  "ater": 25324,
  "ater</w>": 18603,
  "ates</w>": 7559,
  "ateur": 32226,
  "ateur-": 37489,
  "ateur</w>": 2710,
  "ateurs</w>": 3662,
  "ath": 6681,
  "ath</w>": 15399,
  "athan</w>": 47235,
  "ather</w>": 41043,
  "athl": 49909,
  "athle": 35303,
  "athlon</w>": 42507,
  "athlè": 50168,
  "athlète</w>": 11366,
  "athlètes</w>": 8603,
  "athlé": 47723,
  "athlétique</w>": 39459,
  "athlétisme</w>": 16067,
  "athon</w>": 48270,
  "athènes</w>": 8678,
  "athé": 19621,
  "athée</w>": 32626,
  "athées</w>": 41531,
  "athéisme</w>": 45539,
  "ati": 4111,
  "ati</w>": 11134,
  "atic</w>": 27650,
  "atie</w>": 17198,
  "atier</w>": 29654,
  "aties</w>": 36163,
  "atif</w>": 5424,
  "atifs</w>": 6262,
  "atin</w>": 22424,
  "atine</w>": 25903,
  "ating</w>": 17280,
  "atio</w>": 35156,
  "ation": 4429,
  "ation-": 14490,
  "ation.": 9626,
  "ation.</w>": 28554,
  "ation</w>": 1350,
  "ational</w>": 40960,
  "ationn": 25833,
  "ationnel</w>": 17649,
  "ationnelle</w>": 18503,
  "ationnelles</w>": 31964,
  "ationnels</w>": 29877,
  "ationnisme</w>": 44081,
  "ationniste</w>": 25582,
  "ationnistes</w>": 29363,
  "ations": 26498,
  "ations.": 28369,
  "ations</w>": 1544,
  "atique</w>": 7506,
  "atiques</w>": 10656,
  "atis": 17463,
  "atis</w>": 30391,
  "atisation</w>": 47161,
  "atisme</w>": 25367,
  "atiste</w>": 45621,
  "atisées</w>": 42022,
  "atisés</w>": 30471,
  "ative</w>": 5041,
  "ativement</w>": 31921,
  "atives</w>": 5350,
  "ativité</w>": 23608,
  "atl": 48157,
  "atlan": 48446,
  "atlanta</w>": 20073,
  "atlanti": 21673,
  "atlantic</w>": 29561,
  "atlantique</w>": 5056,
  "atlantiques</w>": 35655,
  "atlas</w>": 14344,
  "atle": 49893,
  "atletico</w>": 42519,
  "atlé": 50558,
  "atlético</w>": 34556,
  "atmos": 49784,
  "atmosph": 47531,
  "atmosphère</w>": 3821,
  "atmosphères</w>": 44570,
  "atmosphérique</w>": 13330,
  "atmosphériques</w>": 26651,
  "ato": 17208,
  "ato</w>": 11878,
  "atoire</w>": 8772,
  "atoires</w>": 11496,
  "atol": 37989,
  "atom": 20034,
  "atome</w>": 17813,
  "atomes</w>": 14621,
  "atomique</w>": 12342,
  "atomiques</w>": 38162,
  "aton</w>": 22533,
  "ator</w>": 9690,
  "atore</w>": 34375,
  "atori": 35476,
  "ators</w>": 28657,
  "atory</w>": 44549,
  "atos</w>": 34407,
  "atout</w>": 8557,
  "atouts</w>": 8250,
  "atp</w>": 19452,
  "atra</w>": 42191,
  "atre</w>": 28055,
  "atri": 23533,
  "atrice</w>": 7743,
  "atrices</w>": 12866,
  "atro": 46908,
  "atroce</w>": 30693,
  "atroces</w>": 39094,
  "atrocités</w>": 27174,
  "ats</w>": 6642,
  "atsu</w>": 45294,
  "att</w>": 19836,
  "atta": 4559,
  "atta</w>": 37007,
  "attachant</w>": 20851,
  "attachante</w>": 41452,
  "attachants</w>": 31706,
  "attache</w>": 7102,
  "attachement</w>": 9463,
  "attachent</w>": 28066,
  "attacher</w>": 12016,
  "attaches</w>": 29218,
  "attaché</w>": 7240,
  "attachée</w>": 12563,
  "attachées</w>": 27006,
  "attachés</w>": 11220,
  "attack</w>": 32173,
  "attaquant</w>": 5688,
  "attaquants</w>": 20854,
  "attaque</w>": 1560,
  "attaquent</w>": 17411,
  "attaquer</w>": 4588,
  "attaques</w>": 3109,
  "attaqué</w>": 7537,
  "attaquée</w>": 18933,
  "attaqués</w>": 24232,
  "attar": 20919,
  "attara</w>": 49994,
  "attarde</w>": 33334,
  "attarder</w>": 31147,
  "atte": 25121,
  "atte</w>": 26214,
  "atteign": 23654,
  "atteignait</w>": 26075,
  "atteignant</w>": 15824,
  "atteigne</w>": 32283,
  "atteignent</w>": 12847,
  "atteignit</w>": 42097,
  "attein": 23513,
  "atteindra</w>": 26076,
  "atteindre</w>": 1404,
  "atteint</w>": 1549,
  "atteinte</w>": 3901,
  "atteintes</w>": 9043,
  "atteints</w>": 8529,
  "atten": 5720,
  "attenant</w>": 38177,
  "attenante</w>": 34047,
  "attend": 39608,
  "attend</w>": 2452,
  "attendaient</w>": 12082,
  "attendais</w>": 10726,
  "attendait</w>": 6115,
  "attendant</w>": 2889,
  "attendent</w>": 4595,
  "attendez-vous</w>": 45127,
  "attendez</w>": 10489,
  "attendions</w>": 38590,
  "attendit</w>": 44149,
  "attendons</w>": 12165,
  "attendr": 27120,
  "attendra</w>": 33310,
  "attendre</w>": 1460,
  "attends</w>": 6617,
  "attendu</w>": 3928,
  "attendue</w>": 9097,
  "attendues</w>": 16497,
  "attendus</w>": 9538,
  "attentat</w>": 5548,
  "attentats</w>": 4843,
  "attente</w>": 2884,
  "attentes</w>": 3473,
  "attentif</w>": 10757,
  "attentifs</w>": 18780,
  "attention</w>": 795,
  "attentionné</w>": 37485,
  "attentions</w>": 17618,
  "attentive</w>": 16761,
  "attentivement</w>": 12022,
  "atter": 35630,
  "atterr": 36121,
  "atterri": 35724,
  "atterri</w>": 33514,
  "atterrir</w>": 24325,
  "atterrissage</w>": 15000,
  "attes": 35280,
  "attestant</w>": 28419,
  "attestation</w>": 13361,
  "attestations</w>": 34031,
  "atteste</w>": 18805,
  "attestent</w>": 25398,
  "attester</w>": 38306,
  "attesté</w>": 32165,
  "attestée</w>": 36623,
  "atti": 6783,
  "atti</w>": 46257,
  "attira</w>": 45003,
  "attirait</w>": 42074,
  "attirance</w>": 29346,
  "attirant</w>": 23613,
  "attire</w>": 7236,
  "attirent</w>": 16970,
  "attirer</w>": 4406,
  "attiré</w>": 8262,
  "attirée</w>": 27166,
  "attirés</w>": 23718,
  "attiser</w>": 44673,
  "attitude</w>": 3548,
  "attitudes</w>": 12062,
  "attr": 21346,
  "attra": 48809,
  "attractif</w>": 21298,
  "attractifs</w>": 28310,
  "attraction</w>": 10776,
  "attractions</w>": 11018,
  "attractive</w>": 28200,
  "attractivité</w>": 17894,
  "attrait</w>": 15067,
  "attraits</w>": 33650,
  "attrap": 21970,
  "attrape</w>": 29046,
  "attraper</w>": 14285,
  "attrapé</w>": 33015,
  "attray": 34023,
  "attrayant</w>": 29124,
  "attrayante</w>": 34995,
  "attribu": 17937,
  "attribuable</w>": 27973,
  "attribuables</w>": 40066,
  "attribuant</w>": 38896,
  "attribue</w>": 12863,
  "attribuent</w>": 35320,
  "attribuer</w>": 9410,
  "attribut</w>": 25835,
  "attribution</w>": 6827,
  "attributions</w>": 17453,
  "attributs</w>": 15577,
  "attribué</w>": 7423,
  "attribuée</w>": 12760,
  "attribuées</w>": 17331,
  "attribués</w>": 14028,
  "attris": 38394,
  "atténu": 15696,
  "atténuation</w>": 19274,
  "atténue</w>": 42840,
  "atténuer</w>": 12545,
  "atu": 29282,
  "atu</w>": 34294,
  "ature</w>": 21934,
  "atures</w>": 27412,
  "atus</w>": 30462,
  "aty": 48428,
  "atypique</w>": 14333,
  "atypiques</w>": 32800,
  "até": 20129,
  "até</w>": 36078,
  "atée</w>": 29722,
  "atées</w>": 46395,
  "atéraux</w>": 48533,
  "atés</w>": 40875,
  "au": 952,
  "au-": 7974,
  "au-delà</w>": 1738,
  "au-dessous</w>": 13747,
  "au-dessus</w>": 2338,
  "au-devant</w>": 35542,
  "au</w>": 37,
  "aubaine</w>": 26313,
  "aube</w>": 7554,
  "auber": 43131,
  "auberg": 47604,
  "auberge</w>": 11093,
  "auberges</w>": 41695,
  "aubergine</w>": 43320,
  "aubergines</w>": 34319,
  "aubert</w>": 33183,
  "aubervilliers</w>": 42822,
  "aubin</w>": 34814,
  "aubry</w>": 14876,
  "auc": 16823,
  "auch</w>": 23909,
  "auchan</w>": 30766,
  "auckland</w>": 43571,
  "aucu": 48455,
  "aucun</w>": 417,
  "aucune</w>": 455,
  "aucunement</w>": 17159,
  "aucunes</w>": 43357,
  "aucuns</w>": 17956,
  "aud-": 47850,
  "aud</w>": 7593,
  "auda": 47930,
  "audace</w>": 12382,
  "audacieuse</w>": 28599,
  "audacieuses</w>": 43250,
  "audacieux</w>": 17188,
  "aude</w>": 13133,
  "audi": 7344,
  "audi</w>": 15380,
  "audible</w>": 32185,
  "audience</w>": 3936,
  "audiences</w>": 12875,
  "audin</w>": 44304,
  "audio": 36057,
  "audio-": 45943,
  "audio</w>": 5670,
  "audiovisuel</w>": 11843,
  "audiovisuelle</w>": 27957,
  "audiovisuelles</w>": 45622,
  "audiovisuels</w>": 32022,
  "audit</w>": 6390,
  "auditeur</w>": 17910,
  "auditeurs</w>": 13726,
  "auditif</w>": 41295,
  "audition</w>": 9973,
  "auditions</w>": 19895,
  "auditive</w>": 40090,
  "auditoire</w>": 19323,
  "auditorium</w>": 33960,
  "audits</w>": 29060,
  "audière</w>": 38865,
  "audrey</w>": 18800,
  "auds</w>": 22999,
  "auer</w>": 45252,
  "auf": 43251,
  "auf</w>": 24058,
  "auff": 42793,
  "auge</w>": 45671,
  "augmen": 12606,
  "augmentait</w>": 37788,
  "augmentant</w>": 14151,
  "augmentation</w>": 1495,
  "augmentations</w>": 15980,
  "augmente</w>": 4377,
  "augmentent</w>": 11276,
  "augmenter</w>": 2117,
  "augmentera</w>": 25763,
  "augmenterait</w>": 44815,
  "augmenté</w>": 3572,
  "augmentée</w>": 14936,
  "augmentés</w>": 45155,
  "augu": 10902,
  "augure</w>": 24824,
  "august</w>": 30167,
  "auguste</w>": 10221,
  "augustin</w>": 14728,
  "aujour": 49106,
  "aujourd": 49344,
  "aujourd'</w>": 214,
  "aujourd</w>": 13331,
  "aujourdhui</w>": 43112,
  "aul": 9803,
  "ault</w>": 7354,
  "aum": 50157,
  "aume</w>": 42366,
  "aumô": 34969,
  "aumône</w>": 39626,
  "aumônier</w>": 36093,
  "aune</w>": 23447,
  "aung</w>": 42286,
  "aupar": 48730,
  "auparavant</w>": 2755,
  "auprès</w>": 682,
  "auquel</w>": 2360,
  "aur": 22765,
  "aura-t-il</w>": 42017,
  "aura</w>": 545,
  "aurai": 20231,
  "aurai</w>": 6315,
  "auraient</w>": 1869,
  "aurais</w>": 2363,
  "aurait-elle</w>": 41667,
  "aurait-il</w>": 17217,
  "aurait</w>": 381,
  "auras</w>": 12376,
  "aure</w>": 37836,
  "aurez</w>": 2405,
  "auri": 14512,
  "auriez</w>": 13650,
  "aurill": 49621,
  "aurillac</w>": 46564,
  "aurions</w>": 11205,
  "auro": 48438,
  "auroit</w>": 34930,
  "aurons</w>": 8414,
  "auront</w>": 2019,
  "aurora</w>": 46401,
  "aurore</w>": 18448,
  "auré": 25225,
  "aurélie</w>": 21390,
  "aurélien</w>": 32528,
  "aus": 37796,
  "aus</w>": 18682,
  "ausch": 49169,
  "auschwitz</w>": 26252,
  "ause</w>": 49839,
  "auspi": 50077,
  "auspices</w>": 28067,
  "auss": 13709,
  "auss-": 50243,
  "aussi": 18440,
  "aussi</w>": 90,
  "aussitôt</w>": 3900,
  "aust": 35085,
  "auster": 43893,
  "austin</w>": 23993,
  "austr": 46922,
  "austral</w>": 45317,
  "australe</w>": 30008,
  "australi": 29090,
  "australia</w>": 40794,
  "australian</w>": 45064,
  "australie</w>": 3967,
  "australien</w>": 11459,
  "australienne</w>": 18142,
  "australiens</w>": 21850,
  "austro": 50249,
  "austro-": 41524,
  "austère</w>": 25593,
  "austéri": 48981,
  "austérité</w>": 9673,
  "aut": 6676,
  "aut</w>": 12740,
  "autant</w>": 361,
  "aute</w>": 30887,
  "autel</w>": 33949,
  "autes</w>": 32416,
  "auteuil</w>": 37892,
  "auteur-": 32278,
  "auteur</w>": 737,
  "auteure</w>": 11012,
  "auteurs</w>": 1729,
  "auth": 22257,
  "authenti": 19462,
  "authenticité</w>": 10917,
  "authentification</w>": 16659,
  "authentique</w>": 7111,
  "authentiques</w>": 16028,
  "authority</w>": 42764,
  "autique</w>": 48692,
  "autisme</w>": 21523,
  "autiste</w>": 45478,
  "autistes</w>": 39044,
  "auto": 2748,
  "auto-": 4823,
  "auto-entrepreneur</w>": 42221,
  "auto</w>": 4660,
  "autobiographie</w>": 25731,
  "autobiographique</w>": 29945,
  "autobus</w>": 11991,
  "autocar</w>": 22146,
  "autocars</w>": 37090,
  "autocht": 54398,
  "autochtone</w>": 17181,
  "autochtones</w>": 4280,
  "autocollant</w>": 43431,
  "autocollants</w>": 35795,
  "autodid": 49194,
  "autodidacte</w>": 32568,
  "autodétermination</w>": 23975,
  "autographes</w>": 46559,
  "autom": 13548,
  "automate</w>": 41722,
  "automates</w>": 42007,
  "automati": 36608,
  "automatique": 49988,
  "automatique</w>": 4045,
  "automatiquement</w>": 3420,
  "automatiqueoui</w>": 7019,
  "automatiques</w>": 14176,
  "automatis": 47085,
  "automatisation</w>": 21563,
  "automatiser</w>": 43191,
  "automatismes</w>": 41319,
  "automatisé</w>": 21417,
  "automatisée</w>": 36868,
  "automatisés</w>": 43935,
  "automne-": 46524,
  "automne</w>": 3038,
  "automo": 38548,
  "automobi": 50649,
  "automobil": 46975,
  "automobile</w>": 3136,
  "automobiles</w>": 8098,
  "automobiliste</w>": 24669,
  "automobilistes</w>": 13431,
  "autonom": 28504,
  "autonome</w>": 3973,
  "autonomes</w>": 10387,
  "autonomie</w>": 3316,
  "autonomisation</w>": 36227,
  "autop": 48421,
  "autopsie</w>": 23055,
  "autor": 14306,
  "autori": 25210,
  "autoris": 17030,
  "autorisant</w>": 14738,
  "autorisation</w>": 2852,
  "autorisations</w>": 12638,
  "autorise</w>": 7802,
  "autorisent</w>": 26951,
  "autoriser</w>": 9091,
  "autorisé</w>": 5569,
  "autorisée</w>": 8633,
  "autorisées</w>": 13333,
  "autorisés</w>": 8287,
  "autoritaire</w>": 17900,
  "autoritaires</w>": 37752,
  "autorité</w>": 1513,
  "autorités</w>": 1058,
  "autoroute</w>": 6404,
  "autoroutes</w>": 16427,
  "autos</w>": 29878,
  "autour</w>": 516,
  "autr": 16033,
  "autre": 45520,
  "autre</w>": 118,
  "autrefois</w>": 4578,
  "autrement</w>": 2394,
  "autres.": 35937,
  "autres</w>": 99,
  "autri": 31741,
  "autriche</w>": 4457,
  "autrichien</w>": 15312,
  "autrichienne</w>": 18848,
  "autrichiens</w>": 23775,
  "autru": 47973,
  "autruche</w>": 44633,
  "autrui</w>": 8660,
  "auts</w>": 48721,
  "auté</w>": 44258,
  "auver": 49216,
  "auvergn": 31309,
  "auvergne-": 50353,
  "auvergne-rhône-alpes</w>": 44198,
  "auvergne</w>": 12787,
  "aux": 7528,
  "aux-": 13214,
  "aux.": 26018,
  "aux</w>": 60,
  "auxerre</w>": 22774,
  "auxi": 49326,
  "auxili": 49270,
  "auxiliaire</w>": 14546,
  "auxiliaires</w>": 16725,
  "auxquelles</w>": 4650,
  "auxquels</w>": 3526,
  "av": 1978,
  "av.</w>": 16630,
  "av</w>": 15252,
  "ava</w>": 20446,
  "avai": 46326,
  "avaient</w>": 369,
  "avais</w>": 645,
  "avait-elle</w>": 33504,
  "avait-il</w>": 13074,
  "avait</w>": 104,
  "aval": 15244,
  "aval</w>": 8419,
  "avalanche</w>": 19607,
  "avale</w>": 33752,
  "avaler</w>": 17042,
  "avalé</w>": 39627,
  "avan": 7434,
  "avanc": 32116,
  "avance</w>": 1573,
  "avancement</w>": 10003,
  "avancent</w>": 18155,
  "avancer</w>": 4053,
  "avances</w>": 17949,
  "avancé": 38498,
  "avancé</w>": 6871,
  "avancée</w>": 5765,
  "avancées</w>": 6571,
  "avancés</w>": 9594,
  "avane</w>": 49934,
  "avant-": 8644,
  "avant-bras</w>": 41863,
  "avant-dernier</w>": 39721,
  "avant-dernière</w>": 43408,
  "avant-gar": 47879,
  "avant-garde</w>": 17362,
  "avant-gardiste</w>": 45136,
  "avant-goût</w>": 43634,
  "avant-hier</w>": 35564,
  "avant-première</w>": 24721,
  "avant-projet</w>": 35055,
  "avant-propos</w>": 31966,
  "avant</w>": 123,
  "avanta": 20871,
  "avantag": 49300,
  "avantage</w>": 2121,
  "avantages</w>": 2234,
  "avantageuse</w>": 23852,
  "avantageusement</w>": 36186,
  "avantageuses</w>": 37847,
  "avantageux</w>": 13540,
  "avants</w>": 42046,
  "avança</w>": 33222,
  "avançait</w>": 27339,
  "avançant</w>": 29607,
  "avare</w>": 32553,
  "avari": 37780,
  "avat": 48585,
  "avatar</w>": 17792,
  "avatars</w>": 37451,
  "avc</w>": 27949,
  "ave": 10810,
  "ave</w>": 9835,
  "avec": 30383,
  "avec</w>": 46,
  "avel</w>": 21504,
  "aven": 10500,
  "avenant</w>": 24793,
  "avengers</w>": 36689,
  "avenir</w>": 1056,
  "avent</w>": 23182,
  "aventu": 20284,
  "aventur": 30073,
  "aventure</w>": 2267,
  "aventurer</w>": 30813,
  "aventures</w>": 4793,
  "aventurier</w>": 28584,
  "aventuriers</w>": 20201,
  "avenue</w>": 4691,
  "avenues</w>": 32448,
  "aver": 8914,
  "aver</w>": 29533,
  "average</w>": 39141,
  "averses</w>": 19097,
  "aversion</w>": 32334,
  "averti</w>": 11292,
  "avertie</w>": 36480,
  "avertir</w>": 18395,
  "avertis</w>": 23521,
  "avertissement</w>": 9608,
  "avertissements</w>": 23225,
  "avertit</w>": 25587,
  "aves</w>": 15322,
  "aveu": 48512,
  "aveu</w>": 14050,
  "aveug": 49669,
  "aveugl": 24684,
  "aveugle</w>": 8585,
  "aveuglement</w>": 31260,
  "aveugles</w>": 18984,
  "aveuglément</w>": 46798,
  "aveux</w>": 24340,
  "avey": 47919,
  "aveyron</w>": 26954,
  "avez-vous</w>": 3248,
  "avez</w>": 339,
  "avi": 4198,
  "avi</w>": 22654,
  "avia</w>": 25337,
  "aviaire</w>": 32716,
  "aviation</w>": 7777,
  "avide</w>": 27036,
  "avides</w>": 29627,
  "avidité</w>": 41127,
  "avie</w>": 41233,
  "avier</w>": 45803,
  "aviez</w>": 9119,
  "avignon</w>": 11324,
  "aville</w>": 36242,
  "avion</w>": 2390,
  "avions</w>": 1924,
  "aviron</w>": 34368,
  "avis": 18733,
  "avis</w>": 400,
  "avise</w>": 45840,
  "aviser</w>": 36455,
  "avisé</w>": 23649,
  "avisés</w>": 29434,
  "avo": 18280,
  "avo</w>": 38951,
  "avoca": 46248,
  "avocat</w>": 2455,
  "avocate</w>": 14872,
  "avocats</w>": 4708,
  "avoient</w>": 22687,
  "avoine</w>": 18874,
  "avoir</w>": 110,
  "avoirs</w>": 16309,
  "avois": 48794,
  "avois</w>": 42691,
  "avoisin": 32320,
  "avoisinant</w>": 42234,
  "avoisinantes</w>": 39553,
  "avoisine</w>": 44643,
  "avoit</w>": 7671,
  "avons-nous</w>": 23678,
  "avons</w>": 213,
  "avor": 22452,
  "avortement</w>": 12461,
  "avortements</w>": 45117,
  "avorter</w>": 45938,
  "avou": 8540,
  "avoue</w>": 4934,
  "avouer</w>": 7672,
  "avoué</w>": 14219,
  "avr</w>": 15556,
  "avri": 29170,
  "avril</w>": 613,
  "avènement</w>": 12749,
  "avère</w>": 6042,
  "avèrent</w>": 21935,
  "avé": 26324,
  "avérer</w>": 12373,
  "avéré</w>": 15501,
  "avérée</w>": 21880,
  "avérées</w>": 43132,
  "avérés</w>": 32016,
  "aw": 7702,
  "aw</w>": 29175,
  "awa</w>": 12328,
  "awad</w>": 38310,
  "award</w>": 20862,
  "awards</w>": 14436,
  "aware</w>": 42404,
  "away</w>": 27532,
  "awi</w>": 45106,
  "ax": 8640,
  "ax</w>": 11867,
  "axa</w>": 21089,
  "axe</w>": 2986,
  "axel</w>": 26979,
  "axer</w>": 45007,
  "axes</w>": 6964,
  "axi": 15840,
  "axial</w>": 29199,
  "axiale</w>": 30762,
  "axé</w>": 15104,
  "axée</w>": 13072,
  "axées</w>": 25125,
  "axés</w>": 24960,
  "ay": 2788,
  "ay-": 13415,
  "ay</w>": 3092,
  "aya</w>": 11580,
  "ayant</w>": 355,
  "ayants</w>": 27508,
  "aye</w>": 14448,
  "ayer</w>": 28563,
  "ayez</w>": 8351,
  "ayi</w>": 37382,
  "ayons</w>": 14756,
  "ayrault</w>": 15317,
  "ays</w>": 38322,
  "ayur": 43401,
  "az": 2803,
  "az</w>": 13030,
  "azar</w>": 33628,
  "azer": 44510,
  "azerbaï": 50973,
  "azerbaïdjan": 41668,
  "azerbaïdjan</w>": 16510,
  "azi": 22244,
  "azim": 47250,
  "azimuts</w>": 40483,
  "aziz</w>": 29825,
  "azo": 42053,
  "azole</w>": 39868,
  "azote</w>": 12392,
  "azu": 34315,
  "azur</w>": 8834,
  "azure</w>": 42423,
  "azz": 33951,
  "azza</w>": 48673,
  "aç": 24047,
  "aé": 16872,
  "aération</w>": 24618,
  "aérer</w>": 46880,
  "aéri": 48872,
  "aérien</w>": 6469,
  "aérienne</w>": 6056,
  "aériennes</w>": 7695,
  "aériens</w>": 11195,
  "aéro": 7431,
  "aérodrome</w>": 30451,
  "aérodynamique</w>": 38985,
  "aéron": 47384,
  "aéronau": 50227,
  "aéronautique</w>": 11481,
  "aéronautiques</w>": 45933,
  "aéronef</w>": 26701,
  "aéronefs</w>": 20609,
  "aéroport</w>": 2977,
  "aéroports</w>": 10514,
  "aérosol</w>": 46384,
  "aérospatiale</w>": 41848,
  "aéré</w>": 40686,
  "aî": 26720,
  "aîné</w>": 9800,
  "aînée</w>": 18884,
  "aînés</w>": 12393,
  "aître</w>": 43750,
  "aï": 6771,
  "aï-": 49185,
  "aï</w>": 15494,
  "aïa</w>": 26818,
  "aïd</w>": 38622,
  "aïda</w>": 40725,
  "aïe</w>": 33143,
  "aïeux</w>": 39011,
  "aïn</w>": 40472,
  "aïs</w>": 48602,
  "aït</w>": 44546,
  "b": 464,
  "b'</w>": 42468,
  "b-": 10298,
  "b.": 8106,
  "b.</w>": 4275,
  "b.v.</w>": 28366,
  "b1</w>": 27629,
  "b2</w>": 26961,
  "b3</w>": 46624,
  "b</w>": 451,
  "ba": 1539,
  "ba</w>": 2673,
  "bab": 8138,
  "bab</w>": 24519,
  "baba</w>": 21515,
  "babel</w>": 41598,
  "baby": 24918,
  "baby-": 23134,
  "baby</w>": 13833,
  "babylon": 43900,
  "babylone</w>": 30676,
  "bac": 6872,
  "bac</w>": 3598,
  "baccal": 49626,
  "baccalauré": 49327,
  "baccalauréat</w>": 11588,
  "bach": 30247,
  "bach</w>": 5777,
  "bachar</w>": 14008,
  "bache": 44299,
  "bachel": 37049,
  "bacheliers</w>": 37794,
  "bachelor</w>": 34206,
  "bachelot</w>": 45468,
  "back": 14346,
  "back</w>": 6538,
  "background</w>": 46778,
  "backs</w>": 34953,
  "backu": 49239,
  "backup</w>": 33092,
  "bacon</w>": 24095,
  "bacs</w>": 18766,
  "bactéri": 19926,
  "bactérie</w>": 22884,
  "bactérienne</w>": 32308,
  "bactériennes</w>": 42162,
  "bactéries</w>": 9940,
  "bad": 7924,
  "bad</w>": 11712,
  "bade</w>": 41533,
  "baden</w>": 44366,
  "badge</w>": 28870,
  "badges</w>": 35960,
  "badi": 46944,
  "badige": 44139,
  "badigeonner</w>": 39137,
  "badminton</w>": 41765,
  "bafou": 20497,
  "bag": 7778,
  "bag</w>": 25248,
  "bagage</w>": 17488,
  "bagages</w>": 10310,
  "bagar": 47481,
  "bagarre</w>": 19402,
  "bagarres</w>": 43267,
  "bagdad</w>": 15759,
  "bage</w>": 29685,
  "bages</w>": 35165,
  "bagn": 33414,
  "bagne</w>": 30844,
  "bagno": 35828,
  "bago</w>": 49189,
  "bagu": 43229,
  "bague</w>": 11590,
  "bagues</w>": 23346,
  "baguette</w>": 15471,
  "baguettes</w>": 29012,
  "bah": 23472,
  "bah</w>": 10295,
  "bahamas</w>": 33662,
  "bahn</w>": 46782,
  "bahre": 49259,
  "bahreï": 49089,
  "bahreïn</w>": 26633,
  "bai": 6950,
  "baie-": 33941,
  "baie</w>": 5747,
  "baies</w>": 12183,
  "baign": 12424,
  "baignade</w>": 14533,
  "baigne</w>": 34213,
  "baigner</w>": 22978,
  "baignoire</w>": 10117,
  "baigné</w>": 39649,
  "bail</w>": 9267,
  "bailey</w>": 40803,
  "baill": 19395,
  "bailleur</w>": 21269,
  "bailleurs</w>": 17675,
  "bailli": 43340,
  "bailly</w>": 40929,
  "bain": 30162,
  "bain-": 49790,
  "bain-marie</w>": 43546,
  "bain</w>": 2093,
  "baine</w>": 48281,
  "bains</w>": 3772,
  "baise</w>": 10947,
  "baiser</w>": 7479,
  "baisers</w>": 27202,
  "baiss": 14068,
  "baissant</w>": 40697,
  "baisse</w>": 1316,
  "baissent</w>": 31864,
  "baisser</w>": 6034,
  "baisses</w>": 16646,
  "baissé</w>": 9133,
  "baissée</w>": 39551,
  "bait</w>": 34149,
  "baix</w>": 49432,
  "bak": 18441,
  "baker</w>": 21977,
  "bakou</w>": 46874,
  "bal": 2618,
  "bal</w>": 6900,
  "bala</w>": 37405,
  "balad": 19891,
  "balade</w>": 8431,
  "balader</w>": 20557,
  "balades</w>": 11222,
  "balai</w>": 27173,
  "balais</w>": 41019,
  "balan": 26981,
  "balanc": 23555,
  "balance</w>": 6089,
  "balancer</w>": 19384,
  "balances</w>": 42010,
  "balancé</w>": 38059,
  "balanç": 47960,
  "balançoire</w>": 38930,
  "balay": 19306,
  "balayage</w>": 21250,
  "balayer</w>": 30340,
  "balayé</w>": 30688,
  "balbu": 47631,
  "balbuti": 34486,
  "balcon</w>": 7784,
  "balcons</w>": 27715,
  "baldi</w>": 44820,
  "bale": 47029,
  "bale</w>": 19187,
  "baleine</w>": 24241,
  "baleines</w>": 22478,
  "bales</w>": 30266,
  "bali": 41296,
  "bali</w>": 20356,
  "balis": 48762,
  "balisage</w>": 37473,
  "balise</w>": 24549,
  "balises</w>": 24402,
  "balistique</w>": 37371,
  "balistiques</w>": 40434,
  "balisés</w>": 46280,
  "balk": 49565,
  "balkan": 33690,
  "balkans</w>": 17703,
  "ball": 7828,
  "ball</w>": 9900,
  "balla": 50348,
  "ballade</w>": 18596,
  "ballades</w>": 20580,
  "balladur</w>": 33049,
  "balle</w>": 4298,
  "baller": 33812,
  "balles</w>": 6280,
  "ballet</w>": 13450,
  "ballets</w>": 38111,
  "balleur</w>": 49397,
  "ballo": 44016,
  "ballon</w>": 4348,
  "ballons</w>": 12547,
  "ballot": 42592,
  "balné": 48280,
  "balnéaire</w>": 21554,
  "balnéaires</w>": 44460,
  "bals</w>": 39445,
  "balsam": 38093,
  "baltes</w>": 34332,
  "balth": 42695,
  "balti": 49566,
  "baltimore</w>": 29135,
  "baltique</w>": 26469,
  "balus": 42617,
  "baly</w>": 50426,
  "balzac</w>": 25572,
  "bam": 10074,
  "bam</w>": 41975,
  "bamako</w>": 22782,
  "bambins</w>": 45764,
  "bambou</w>": 22798,
  "ban": 2654,
  "ban</w>": 6485,
  "bana</w>": 44439,
  "banal</w>": 19227,
  "banale</w>": 23507,
  "banalisation</w>": 44298,
  "banalité</w>": 41254,
  "banane</w>": 18243,
  "bananes</w>": 20651,
  "banc": 26476,
  "banc</w>": 6901,
  "bancaire</w>": 4027,
  "bancaires</w>": 6289,
  "bancs</w>": 9124,
  "band": 11042,
  "band</w>": 13972,
  "bande-": 47477,
  "bande-annonce</w>": 21501,
  "bande-son</w>": 43262,
  "bande</w>": 1704,
  "bandeau</w>": 20755,
  "bander": 48088,
  "banderole</w>": 34393,
  "banderoles</w>": 39558,
  "bandes</w>": 5096,
  "bandi": 48582,
  "bandit</w>": 39776,
  "banditisme</w>": 46606,
  "bandits</w>": 25568,
  "bandou": 49785,
  "bandoulière</w>": 40347,
  "bane</w>": 32775,
  "bang": 21928,
  "bang</w>": 19331,
  "bangkok</w>": 21952,
  "bangl": 48398,
  "bangladesh</w>": 17314,
  "bangui</w>": 26338,
  "bani</w>": 42713,
  "bank": 28345,
  "bank</w>": 6148,
  "banking</w>": 32694,
  "banks</w>": 24865,
  "banlieue</w>": 7103,
  "banlieues</w>": 19261,
  "bann": 19426,
  "banne</w>": 48646,
  "banni</w>": 32810,
  "bannir</w>": 33890,
  "bannière</w>": 15788,
  "bannières</w>": 32175,
  "banqu": 49668,
  "banque</w>": 1066,
  "banquer": 46437,
  "banques</w>": 2159,
  "banquet</w>": 26684,
  "banquette</w>": 28441,
  "banquier</w>": 15205,
  "banquiers</w>": 17451,
  "banquise</w>": 39717,
  "bans</w>": 36092,
  "bant</w>": 13912,
  "bantes</w>": 34847,
  "bao</w>": 47278,
  "bap": 22223,
  "bapt": 42386,
  "bapti": 33655,
  "baptis": 31174,
  "baptiser</w>": 37356,
  "baptiste</w>": 19183,
  "baptisé</w>": 10240,
  "baptisée</w>": 14161,
  "baptisés</w>": 34245,
  "baptême</w>": 11212,
  "bar": 1143,
  "bar</w>": 2879,
  "bara</w>": 34822,
  "barack</w>": 6983,
  "barak</w>": 46084,
  "baraque</w>": 41269,
  "barb": 35622,
  "barba": 48065,
  "barbade</w>": 37572,
  "barbar": 31120,
  "barbara</w>": 15241,
  "barbare</w>": 20343,
  "barbares</w>": 15652,
  "barbarie</w>": 16556,
  "barbe": 24009,
  "barbe</w>": 9868,
  "barbecue</w>": 8416,
  "barbel": 48961,
  "barbelés</w>": 42865,
  "barber": 42130,
  "barbi": 38831,
  "barbie</w>": 22684,
  "barbier</w>": 27758,
  "barbo": 44769,
  "barbu": 40412,
  "barbu</w>": 38297,
  "barcel": 23319,
  "barcelone</w>": 6134,
  "barcl": 48165,
  "barclays</w>": 40313,
  "bard</w>": 29968,
  "barde</w>": 37372,
  "bardot</w>": 46020,
  "bari": 24869,
  "bari</w>": 34157,
  "baril</w>": 15675,
  "barils</w>": 20170,
  "barnes</w>": 46004,
  "barnier</w>": 46272,
  "baro": 48655,
  "baroin</w>": 44864,
  "baromètre</w>": 17881,
  "baron</w>": 9497,
  "baronne</w>": 39397,
  "barons</w>": 30181,
  "baroque</w>": 14231,
  "baroques</w>": 46414,
  "barou": 44363,
  "barque</w>": 19244,
  "barques</w>": 41139,
  "barr</w>": 45356,
  "barra": 37444,
  "barrage</w>": 8366,
  "barrages</w>": 14244,
  "barre</w>": 3076,
  "barreau</w>": 18193,
  "barreaux</w>": 20455,
  "barrer</w>": 37797,
  "barres</w>": 10235,
  "barrette</w>": 27425,
  "barri": 13521,
  "barricades</w>": 36486,
  "barrière</w>": 7731,
  "barrières</w>": 10769,
  "barro": 49442,
  "barroso</w>": 32795,
  "barry</w>": 20379,
  "barré</w>": 26957,
  "bars</w>": 7955,
  "bart</w>": 21258,
  "barth": 20792,
  "barthél": 49799,
  "barthélemy</w>": 35876,
  "barthélé": 50470,
  "barthélémy</w>": 42477,
  "bartol": 35160,
  "bartolone</w>": 45675,
  "bary": 32773,
  "barça</w>": 17130,
  "barème</w>": 17218,
  "bas": 4328,
  "bas-": 9890,
  "bas-rhin</w>": 22182,
  "bas</w>": 732,
  "basal": 45506,
  "basant</w>": 19756,
  "bascul": 31230,
  "bascule</w>": 17197,
  "basculement</w>": 28450,
  "basculer</w>": 14377,
  "basculé</w>": 37252,
  "base": 47031,
  "base</w>": 327,
  "baseball</w>": 14136,
  "based</w>": 32541,
  "basent</w>": 46224,
  "baser</w>": 34909,
  "bases</w>": 3003,
  "basi": 22095,
  "basic</w>": 28561,
  "basile</w>": 39419,
  "basilic</w>": 22029,
  "basilique</w>": 15681,
  "basique</w>": 18313,
  "basiques</w>": 24904,
  "bask": 49899,
  "basket": 43242,
  "basket-": 50257,
  "basket-ball</w>": 21046,
  "basket</w>": 10997,
  "basketball</w>": 37968,
  "baskets</w>": 20496,
  "basque</w>": 10134,
  "basques</w>": 26777,
  "bass": 8404,
  "bass</w>": 26862,
  "basse-": 17549,
  "basse-normandie</w>": 37038,
  "basse</w>": 2839,
  "basses</w>": 8803,
  "bassin</w>": 3883,
  "bassins</w>": 11591,
  "bassiste</w>": 22054,
  "basti": 21725,
  "bastia</w>": 17504,
  "bastide</w>": 36684,
  "bastien</w>": 27741,
  "bastille</w>": 22763,
  "bastion</w>": 24127,
  "bastions</w>": 40369,
  "basto": 36804,
  "basé</w>": 3808,
  "basée</w>": 4103,
  "basées</w>": 12664,
  "basés</w>": 11582,
  "bat": 3041,
  "bat</w>": 4905,
  "bata": 48077,
  "bataclan</w>": 35706,
  "bataill": 29864,
  "bataille</w>": 2233,
  "batailles</w>": 12272,
  "bataillon</w>": 13179,
  "bataillons</w>": 24729,
  "bate</w>": 37415,
  "bateau</w>": 3364,
  "bateaux</w>": 5963,
  "bates</w>": 37729,
  "bateur</w>": 48862,
  "bateurs</w>": 47873,
  "bath</w>": 35372,
  "bati": 16173,
  "batiment</w>": 40620,
  "bation</w>": 47674,
  "batman</w>": 17036,
  "bats</w>": 22000,
  "battait</w>": 28647,
  "battant</w>": 10146,
  "batte</w>": 42883,
  "battement</w>": 40835,
  "battements</w>": 35957,
  "battent</w>": 12718,
  "batterie</w>": 3910,
  "batteries</w>": 9494,
  "batteur</w>": 14612,
  "battez</w>": 41795,
  "battle": 39789,
  "battle</w>": 25161,
  "battre</w>": 3445,
  "battu</w>": 5221,
  "battue</w>": 12764,
  "battues</w>": 37977,
  "battus</w>": 10621,
  "bau": 5596,
  "baud</w>": 21272,
  "baudel": 49258,
  "baudelaire</w>": 28215,
  "baudouin</w>": 35577,
  "bauer</w>": 26260,
  "bault</w>": 22640,
  "baum</w>": 30954,
  "baume</w>": 19090,
  "baut</w>": 47754,
  "baux</w>": 28729,
  "bav": 12330,
  "bavar": 19899,
  "bavard</w>": 44382,
  "bavarois</w>": 33347,
  "bavi": 48705,
  "bavière</w>": 18636,
  "bay": 8691,
  "bay</w>": 10446,
  "bayard</w>": 40842,
  "baye</w>": 20263,
  "bayer</w>": 35202,
  "bayern</w>": 17271,
  "bayes</w>": 47159,
  "bayonne</w>": 19690,
  "bayrou</w>": 13116,
  "baz": 18406,
  "bazar</w>": 26399,
  "baï": 20367,
  "baï</w>": 49341,
  "bb": 13644,
  "bb</w>": 12072,
  "bbc</w>": 11471,
  "bble</w>": 29581,
  "bbq</w>": 36318,
  "bc": 46796,
  "bc</w>": 10563,
  "bce</w>": 7639,
  "bcp</w>": 21017,
  "bd": 33456,
  "bd</w>": 6405,
  "bds</w>": 39754,
  "bdsp</w>": 21119,
  "be": 1436,
  "be-": 30066,
  "be</w>": 2002,
  "bea</w>": 46453,
  "beach</w>": 12725,
  "bean</w>": 39019,
  "bear</w>": 38395,
  "beat": 31090,
  "beat</w>": 20593,
  "beatles</w>": 22988,
  "beats</w>": 38507,
  "beau": 3606,
  "beau-": 40002,
  "beau-frère</w>": 24337,
  "beau-père</w>": 23825,
  "beau</w>": 961,
  "beauce</w>": 36025,
  "beaucoup</w>": 177,
  "beaufort</w>": 43858,
  "beaujol": 49682,
  "beaujolais</w>": 31861,
  "beaulieu</w>": 25622,
  "beaumont</w>": 24866,
  "beaune</w>": 33014,
  "beaut": 48879,
  "beauti": 45708,
  "beauty</w>": 35731,
  "beauté</w>": 2080,
  "beautés</w>": 25738,
  "beauv": 46159,
  "beauvais</w>": 27342,
  "beaux-": 45712,
  "beaux-arts</w>": 10291,
  "beaux</w>": 2404,
  "bec": 12428,
  "bec</w>": 9730,
  "because</w>": 28343,
  "becca</w>": 48622,
  "beck": 31718,
  "beck</w>": 19794,
  "becker</w>": 34116,
  "beckham</w>": 36037,
  "becq</w>": 38648,
  "bed": 27881,
  "bed</w>": 21824,
  "bee</w>": 28027,
  "beek</w>": 21974,
  "been</w>": 11676,
  "beet": 48546,
  "beethoven</w>": 25352,
  "before</w>": 19981,
  "begin</w>": 38499,
  "beh": 32511,
  "bei": 21763,
  "bei</w>": 13658,
  "beige</w>": 20250,
  "beign": 48380,
  "beignets</w>": 40878,
  "beijing</w>": 23542,
  "bein</w>": 31712,
  "being</w>": 29640,
  "bek": 43366,
  "bek</w>": 39681,
  "beke</w>": 45122,
  "bel": 2146,
  "bel-": 46586,
  "bel</w>": 2503,
  "belfort</w>": 24097,
  "belge</w>": 3148,
  "belges</w>": 6808,
  "belgi": 27731,
  "belgique</w>": 1769,
  "belgium</w>": 41220,
  "belgrade</w>": 20407,
  "beli": 47232,
  "belie": 36878,
  "belin</w>": 46415,
  "belize</w>": 46754,
  "belkacem</w>": 48336,
  "bell": 32484,
  "bell</w>": 11571,
  "bella</w>": 20768,
  "belle": 16214,
  "belle-": 16266,
  "belle-mère</w>": 26558,
  "belle</w>": 609,
  "belles-": 39198,
  "belles</w>": 1849,
  "belleville</w>": 36516,
  "belli": 19996,
  "belligérants</w>": 44284,
  "bellion</w>": 47900,
  "bello</w>": 37380,
  "bels</w>": 44049,
  "belvé": 49549,
  "belvédère</w>": 38647,
  "bem": 34943,
  "bement</w>": 48458,
  "ben": 2617,
  "ben</w>": 2396,
  "bench": 32620,
  "bend": 45880,
  "bendit</w>": 44988,
  "bene": 21569,
  "benelux</w>": 42664,
  "benfica</w>": 44675,
  "benghazi</w>": 34950,
  "beni": 33307,
  "beni</w>": 46052,
  "benjam": 30896,
  "benjamin</w>": 7837,
  "benn": 25453,
  "benne</w>": 40768,
  "bennett</w>": 34843,
  "beno": 47100,
  "benoit</w>": 15199,
  "benoît</w>": 5838,
  "bent": 28578,
  "bent</w>": 15441,
  "benz": 26704,
  "benz</w>": 48262,
  "benzema</w>": 26944,
  "bep</w>": 43987,
  "ber": 1240,
  "ber</w>": 3880,
  "bera</w>": 32392,
  "berbère</w>": 33297,
  "berbères</w>": 36673,
  "berc": 46399,
  "berceau</w>": 14284,
  "bercy</w>": 13286,
  "bercé</w>": 43505,
  "berg": 17487,
  "berg</w>": 4547,
  "berge</w>": 28819,
  "bergen</w>": 35650,
  "berger": 37919,
  "berger</w>": 8934,
  "bergerac</w>": 36451,
  "bergerie</w>": 44310,
  "bergeron</w>": 27805,
  "bergers</w>": 26167,
  "berges</w>": 18812,
  "berie</w>": 48385,
  "berkeley</w>": 39766,
  "berland</w>": 38784,
  "berli": 48751,
  "berlin": 17558,
  "berlin</w>": 4239,
  "berline</w>": 23916,
  "berlioz</w>": 46331,
  "berlus": 49709,
  "berlusconi</w>": 19676,
  "berman</w>": 42812,
  "bermu": 33465,
  "bern": 8849,
  "bernad": 48319,
  "bernadette</w>": 28148,
  "bernar": 17610,
  "bernard</w>": 2780,
  "berne</w>": 14687,
  "bernie</w>": 34633,
  "bernier</w>": 29343,
  "beron</w>": 35227,
  "berry</w>": 12921,
  "bers</w>": 29389,
  "bert</w>": 5625,
  "berth": 26789,
  "berthe</w>": 43332,
  "bertin</w>": 30822,
  "berto</w>": 35104,
  "bertrand</w>": 7201,
  "berté</w>": 48283,
  "bes": 6813,
  "bes</w>": 6043,
  "besancen": 50990,
  "besancenot</w>": 45345,
  "besançon</w>": 16706,
  "beso": 25038,
  "besogne</w>": 30146,
  "besoin</w>": 365,
  "besoins</w>": 889,
  "bess": 30492,
  "besson</w>": 23400,
  "best-": 48370,
  "best-sel": 47615,
  "best-seller</w>": 36082,
  "best</w>": 13028,
  "besti": 23139,
  "bestiaux</w>": 42044,
  "bestioles</w>": 45883,
  "bet": 9139,
  "bet</w>": 11963,
  "beta</w>": 27420,
  "beth": 34150,
  "beth</w>": 24431,
  "bethlé": 50001,
  "bethléem</w>": 43804,
  "bets</w>": 44835,
  "betta</w>": 49664,
  "betten": 49773,
  "bettencourt</w>": 31713,
  "better": 49146,
  "better</w>": 35392,
  "betterave</w>": 34780,
  "betteraves</w>": 36351,
  "betty</w>": 30467,
  "between</w>": 25291,
  "beu": 13272,
  "beuf</w>": 46726,
  "beur": 18283,
  "beurre</w>": 3636,
  "beurré</w>": 45516,
  "bever": 47119,
  "beverly</w>": 43635,
  "bex</w>": 45186,
  "bey": 24174,
  "bey</w>": 19073,
  "beyoncé</w>": 31676,
  "beyond</w>": 44732,
  "beyrou": 49644,
  "beyrouth</w>": 20206,
  "bez": 35142,
  "bf": 36705,
  "bf</w>": 25162,
  "bfm</w>": 24504,
  "bfmtv</w>": 26532,
  "bfr</w>": 46314,
  "bg</w>": 31866,
  "bh": 37032,
  "bhou": 42688,
  "bi": 679,
  "bi-": 16382,
  "bi</w>": 4088,
  "bia</w>": 16018,
  "biais</w>": 3620,
  "bian": 32805,
  "bian</w>": 47380,
  "biarri": 50102,
  "biarritz</w>": 24811,
  "bias</w>": 40167,
  "biber": 48838,
  "biberon</w>": 34448,
  "biberons</w>": 35462,
  "bible</w>": 7636,
  "bibli": 26661,
  "biblio": 26799,
  "bibliographie</w>": 17883,
  "bibliographique</w>": 39412,
  "bibliographiques</w>": 37655,
  "bibliothè": 47583,
  "bibliothèque</w>": 2956,
  "bibliothèques</w>": 8516,
  "bibliothé": 49694,
  "bibliothécaire</w>": 35704,
  "bibliothécaires</w>": 42723,
  "biblique</w>": 20565,
  "bibliques</w>": 29774,
  "bic</w>": 26197,
  "bicarbonate</w>": 30667,
  "biche</w>": 33146,
  "bicycl": 47117,
  "bicyclette</w>": 26751,
  "bide</w>": 43779,
  "bidon": 46062,
  "bidon</w>": 25795,
  "bidons</w>": 39621,
  "bidonvilles</w>": 40639,
  "bidou": 35293,
  "bie": 47839,
  "bie</w>": 9612,
  "bieber</w>": 34008,
  "bien": 9113,
  "bien-": 16656,
  "bien-aimé</w>": 37122,
  "bien-aimée</w>": 37963,
  "bien-fondé</w>": 27170,
  "bien-être</w>": 4212,
  "bien</w>": 81,
  "bienfai": 26342,
  "bienfais": 47556,
  "bienfaisance</w>": 20005,
  "bienfait</w>": 42440,
  "bienfaits</w>": 10708,
  "bienheureux</w>": 30248,
  "biennal</w>": 16830,
  "biennale</w>": 26555,
  "bienne</w>": 29357,
  "biens</w>": 1699,
  "bient": 47094,
  "bientot</w>": 38374,
  "bientôt</w>": 1619,
  "bienveill": 39889,
  "bienveillance</w>": 16353,
  "bienveillant</w>": 27206,
  "bienveillante</w>": 32135,
  "bienvenu</w>": 20465,
  "bienvenue</w>": 5390,
  "bienvenues</w>": 34980,
  "bienvenus</w>": 19480,
  "bier": 45891,
  "bier</w>": 15035,
  "biers</w>": 25700,
  "bies</w>": 21803,
  "bifur": 32482,
  "big": 30234,
  "big</w>": 6033,
  "bigar": 45798,
  "bigg": 51018,
  "biggest</w>": 42751,
  "bigny</w>": 48332,
  "bijou": 33270,
  "bijou</w>": 11909,
  "bijouterie</w>": 36686,
  "bijoux</w>": 6236,
  "bike</w>": 29617,
  "bikini</w>": 39065,
  "bil": 5791,
  "bil</w>": 41473,
  "bilan</w>": 2236,
  "bilans</w>": 19098,
  "bilaté": 50920,
  "bilatéral</w>": 30353,
  "bilatérale</w>": 27207,
  "bilatérales</w>": 23362,
  "bilatéraux</w>": 20255,
  "bilbao</w>": 33769,
  "bile</w>": 19500,
  "bili": 12600,
  "bilingue</w>": 17498,
  "bilingues</w>": 31459,
  "bilinguisme</w>": 41761,
  "bilite</w>": 25707,
  "bility</w>": 28431,
  "bilité": 36665,
  "bilité</w>": 9040,
  "bilités</w>": 21469,
  "bill": 13283,
  "bill</w>": 7618,
  "billancourt</w>": 35693,
  "billard</w>": 18494,
  "billaud</w>": 46264,
  "billboard</w>": 37711,
  "bille</w>": 20473,
  "billes</w>": 15579,
  "billet</w>": 3848,
  "billets</w>": 3677,
  "billetterie</w>": 33129,
  "billi": 36783,
  "billion</w>": 21214,
  "billy</w>": 17647,
  "bin": 5246,
  "bin</w>": 8465,
  "binaire</w>": 20092,
  "binaires</w>": 32641,
  "bine</w>": 21612,
  "bines</w>": 40111,
  "bing</w>": 29086,
  "bingo</w>": 45758,
  "bins</w>": 22271,
  "binôme</w>": 30765,
  "bio": 3532,
  "bio-": 24642,
  "bio</w>": 3981,
  "biocarburants</w>": 35981,
  "biodiversité</w>": 8544,
  "biodégra": 31943,
  "biographie</w>": 10785,
  "biographies</w>": 31107,
  "biographique</w>": 33758,
  "biographiques</w>": 35686,
  "biologie</w>": 9321,
  "biologique</w>": 5286,
  "biologiques</w>": 7822,
  "biologiste</w>": 31906,
  "biologistes</w>": 40016,
  "biom": 23403,
  "biomasse</w>": 21650,
  "biomédi": 37486,
  "biop": 48287,
  "biopsie</w>": 45650,
  "bios</w>": 27570,
  "biosphère</w>": 43636,
  "biotechnologie</w>": 25182,
  "biotechnologies</w>": 34079,
  "biotiques</w>": 44220,
  "bip</w>": 44369,
  "bipolaire</w>": 42628,
  "bique</w>": 29184,
  "bir": 9014,
  "bir</w>": 32896,
  "bira</w>": 49141,
  "bird</w>": 20589,
  "birds</w>": 41906,
  "birmanie</w>": 21160,
  "birmingham</w>": 34163,
  "bis": 4705,
  "bis</w>": 6127,
  "bisch": 38390,
  "biscuit</w>": 22957,
  "biscuits</w>": 12571,
  "bise</w>": 33380,
  "bises</w>": 41140,
  "bisexu": 42150,
  "bishop</w>": 44882,
  "bismarck</w>": 40847,
  "bison</w>": 39287,
  "bisous</w>": 17265,
  "biss": 32662,
  "bissau</w>": 48416,
  "bistro</w>": 44336,
  "bistrot</w>": 28926,
  "bit": 18497,
  "bit</w>": 9941,
  "bitcoin</w>": 33909,
  "bite</w>": 12441,
  "bites</w>": 31936,
  "bits</w>": 10959,
  "bitu": 42607,
  "bitume</w>": 29342,
  "bitumineux</w>": 34492,
  "bivou": 48470,
  "bivouac</w>": 46335,
  "biz": 41833,
  "biz</w>": 38927,
  "bizar": 48205,
  "bizarr": 46379,
  "bizarre</w>": 8043,
  "bizarrement</w>": 23662,
  "bizarres</w>": 23041,
  "bière</w>": 5678,
  "bières</w>": 11861,
  "biél": 50368,
  "biélor": 42823,
  "biélorussie</w>": 32003,
  "bj": 32265,
  "bl": 2112,
  "bl</w>": 18715,
  "bla": 41853,
  "bla</w>": 16039,
  "blab": 39279,
  "blabla</w>": 46853,
  "black": 10572,
  "black</w>": 5414,
  "blackberry</w>": 29921,
  "blacks</w>": 30211,
  "blade</w>": 32521,
  "blag": 46694,
  "blague</w>": 14770,
  "blagues</w>": 20613,
  "blai": 32242,
  "blair</w>": 24313,
  "blais</w>": 28929,
  "blaise</w>": 20063,
  "blake</w>": 23847,
  "blan": 9326,
  "blanc": 17625,
  "blanc-": 30209,
  "blanc</w>": 1013,
  "blanch": 15946,
  "blanchard</w>": 39584,
  "blanche</w>": 2246,
  "blanches</w>": 6396,
  "blanchet</w>": 45865,
  "blancheur</w>": 33791,
  "blanchi</w>": 35005,
  "blanchim": 50294,
  "blanchiment</w>": 12907,
  "blanchir</w>": 30188,
  "blanchis": 45277,
  "blanchâ": 43001,
  "blancs</w>": 3061,
  "blant</w>": 49487,
  "blas": 14233,
  "blason</w>": 24487,
  "blasph": 48772,
  "blasphème</w>": 38864,
  "blat": 48463,
  "blatter</w>": 37569,
  "blaz": 26034,
  "ble": 16071,
  "ble.": 21815,
  "ble</w>": 5701,
  "bled</w>": 39269,
  "blement</w>": 12226,
  "blender</w>": 41109,
  "bler</w>": 19185,
  "bles": 20645,
  "bles.": 35166,
  "bles</w>": 5985,
  "bless": 32437,
  "blessant</w>": 36304,
  "blesse</w>": 21381,
  "blesser</w>": 18626,
  "blessure</w>": 5931,
  "blessures</w>": 5320,
  "blessé</w>": 4346,
  "blessée</w>": 17275,
  "blessées</w>": 17889,
  "blessés</w>": 3917,
  "bleu": 16686,
  "bleu-": 38913,
  "bleu</w>": 2306,
  "bleue</w>": 6303,
  "bleues</w>": 15416,
  "bleuets</w>": 46495,
  "bleus</w>": 5200,
  "bli": 7357,
  "bli</w>": 27468,
  "blin": 19153,
  "blin</w>": 43853,
  "blindage</w>": 34741,
  "blindé</w>": 34363,
  "blindée</w>": 36069,
  "blindés</w>": 23792,
  "bling</w>": 28691,
  "blir</w>": 35035,
  "blizz": 49653,
  "blizzard</w>": 34177,
  "blo": 4228,
  "blo</w>": 48188,
  "bloc-": 45543,
  "bloc</w>": 3949,
  "blocage</w>": 8586,
  "blocages</w>": 26265,
  "bloch</w>": 39411,
  "block": 19742,
  "block</w>": 25169,
  "blocs</w>": 7635,
  "blocus</w>": 19805,
  "blog": 25690,
  "blog</w>": 1447,
  "blogos": 50020,
  "blogosphère</w>": 36106,
  "blogs</w>": 8290,
  "blogu": 48907,
  "blogue</w>": 20272,
  "blogueur</w>": 26447,
  "blogueurs</w>": 20311,
  "blogueuse</w>": 35581,
  "blogueuses</w>": 44288,
  "blois</w>": 20520,
  "blon": 15744,
  "blond</w>": 19599,
  "blonde</w>": 10318,
  "blondes</w>": 28790,
  "blonds</w>": 33780,
  "blood</w>": 28364,
  "bloom": 47202,
  "bloom</w>": 43494,
  "bloomberg</w>": 29927,
  "bloquant</w>": 29158,
  "bloque</w>": 15242,
  "bloquent</w>": 32110,
  "bloquer</w>": 9697,
  "bloqué</w>": 10459,
  "bloquée</w>": 20994,
  "bloquées</w>": 33719,
  "bloqués</w>": 17520,
  "blot": 44215,
  "blot</w>": 37139,
  "blou": 25845,
  "blouse</w>": 30329,
  "blouson</w>": 35597,
  "blr</w>": 49812,
  "blu": 9596,
  "blu-": 50005,
  "blu-ray</w>": 20597,
  "blue": 35184,
  "blue</w>": 9196,
  "blues</w>": 8568,
  "blueto": 50078,
  "bluetooth</w>": 16211,
  "bluff": 25906,
  "blum</w>": 40057,
  "bly</w>": 39676,
  "blâ": 31845,
  "blâme</w>": 30982,
  "blâmer</w>": 32999,
  "blé</w>": 6250,
  "blés</w>": 30497,
  "bm": 31477,
  "bm</w>": 21843,
  "bmc</w>": 43948,
  "bmw</w>": 11214,
  "bn": 24280,
  "bn</w>": 37946,
  "bnb</w>": 48589,
  "bnf</w>": 28811,
  "bnp</w>": 12222,
  "bo": 1164,
  "bo</w>": 4554,
  "boa</w>": 37983,
  "board</w>": 10907,
  "boards</w>": 46889,
  "boat</w>": 42558,
  "bob": 12635,
  "bob</w>": 9147,
  "bobby</w>": 24368,
  "bobigny</w>": 34744,
  "bobine</w>": 17395,
  "bobines</w>": 29893,
  "bobo</w>": 34279,
  "bobos</w>": 36767,
  "boc": 14261,
  "bocage</w>": 35492,
  "bocal</w>": 31685,
  "bocaux</w>": 43583,
  "bod": 34244,
  "body": 32294,
  "body</w>": 18052,
  "boeing</w>": 14328,
  "boeuf</w>": 15177,
  "bof</w>": 33453,
  "bog": 40527,
  "bogo": 41009,
  "boh": 27669,
  "bohème</w>": 30295,
  "bohême</w>": 36472,
  "boi": 9387,
  "boileau</w>": 46788,
  "boire</w>": 4577,
  "bois": 10925,
  "bois-": 26540,
  "bois</w>": 715,
  "boisement</w>": 33393,
  "boiseries</w>": 43748,
  "boiss": 44024,
  "boisson</w>": 9045,
  "boissons</w>": 6553,
  "boisé</w>": 21077,
  "boisée</w>": 37465,
  "boisées</w>": 33215,
  "boisés</w>": 43709,
  "boit</w>": 19682,
  "boite</w>": 6366,
  "boites</w>": 18877,
  "boitier</w>": 21384,
  "boivent</w>": 34272,
  "boko</w>": 20880,
  "bol": 4920,
  "bol</w>": 6625,
  "bola</w>": 41779,
  "bolche": 48388,
  "bolchevi": 41944,
  "bold</w>": 46573,
  "bolduc</w>": 39858,
  "boli": 13517,
  "bolivie</w>": 18587,
  "bolloré</w>": 30625,
  "bologne</w>": 23766,
  "bols</w>": 35406,
  "bolt</w>": 32067,
  "bom": 9130,
  "bombar": 20945,
  "bombardement</w>": 18182,
  "bombardements</w>": 14099,
  "bombarder</w>": 40610,
  "bombardier</w>": 19793,
  "bombardiers</w>": 34940,
  "bombardé</w>": 37219,
  "bombay</w>": 37391,
  "bombe</w>": 7222,
  "bombes</w>": 10675,
  "bon": 2684,
  "bon-": 31716,
  "bon</w>": 206,
  "bonaparte</w>": 16117,
  "bonbon</w>": 31730,
  "bonbons</w>": 15831,
  "bond</w>": 9089,
  "bondi</w>": 27860,
  "bondir</w>": 34365,
  "bondit</w>": 44816,
  "bonds</w>": 30708,
  "bone</w>": 28697,
  "bones</w>": 43849,
  "bongo</w>": 23848,
  "bonheur</w>": 1878,
  "bonheurs</w>": 35653,
  "bonhomme</w>": 13418,
  "boni": 18136,
  "boni</w>": 37194,
  "boniface</w>": 41247,
  "bonifaci": 50314,
  "bonifacio</w>": 41078,
  "bonification</w>": 46241,
  "bonjour</w>": 6247,
  "bonn": 8499,
  "bonn</w>": 29718,
  "bonne": 34669,
  "bonne</w>": 301,
  "bonneau</w>": 46369,
  "bonnement</w>": 30183,
  "bonnes</w>": 1387,
  "bonnet</w>": 12001,
  "bonnets</w>": 30405,
  "bono</w>": 46761,
  "bons</w>": 1315,
  "bonsoir</w>": 30138,
  "bonté</w>": 13276,
  "bonus</w>": 5749,
  "boo": 28648,
  "boo</w>": 46080,
  "book": 18007,
  "book</w>": 10082,
  "booking</w>": 39689,
  "books</w>": 23204,
  "bookyogaretre": 50325,
  "bookyogaretreats</w>": 46532,
  "boom": 29027,
  "boom</w>": 18593,
  "boos": 28871,
  "boost</w>": 30786,
  "booster</w>": 18801,
  "boot": 36353,
  "boot</w>": 23748,
  "boots</w>": 33806,
  "bor": 2885,
  "bor</w>": 23773,
  "bora</w>": 43564,
  "bord</w>": 1161,
  "borde": 48092,
  "borde</w>": 35102,
  "bordeaux-": 37675,
  "bordeaux</w>": 3401,
  "bordel": 48169,
  "bordel</w>": 19684,
  "bordelais</w>": 22145,
  "bordelaise</w>": 43533,
  "bordent</w>": 44536,
  "border": 28786,
  "border</w>": 31400,
  "bords</w>": 5755,
  "bordure</w>": 11061,
  "bordures</w>": 34156,
  "bordé</w>": 28088,
  "bordée</w>": 23171,
  "bordées</w>": 43392,
  "bore</w>": 47084,
  "borg": 24064,
  "borg</w>": 19567,
  "borgne</w>": 46857,
  "bori": 48801,
  "boris</w>": 15500,
  "borloo</w>": 28775,
  "born</w>": 21758,
  "borne</w>": 9807,
  "bornes</w>": 10703,
  "borné</w>": 39476,
  "boro</w>": 45823,
  "borough</w>": 30108,
  "borussia</w>": 41110,
  "boré": 22685,
  "bos": 10289,
  "bos</w>": 16186,
  "bosch</w>": 26145,
  "bosni": 30122,
  "bosnie-": 50382,
  "bosnie-herzégovine</w>": 16903,
  "bosnie</w>": 20538,
  "boss": 14362,
  "boss</w>": 11525,
  "bosse</w>": 16973,
  "bosser</w>": 20452,
  "bosses</w>": 32661,
  "bossé</w>": 37435,
  "boston</w>": 9686,
  "bot": 12269,
  "bot</w>": 15430,
  "botan": 28808,
  "botanique</w>": 16567,
  "botaniste</w>": 44580,
  "both</w>": 33043,
  "bots": 48744,
  "bots</w>": 32589,
  "botswana</w>": 33723,
  "botte</w>": 19444,
  "bottes</w>": 10377,
  "bottines</w>": 32573,
  "bou": 1001,
  "bou</w>": 21681,
  "bouc": 48540,
  "bouc</w>": 25263,
  "bouch": 44525,
  "bouchard</w>": 16451,
  "bouche</w>": 2244,
  "boucher</w>": 11572,
  "boucherie</w>": 20443,
  "bouches-du-": 50021,
  "bouches-du-rhône</w>": 21710,
  "bouches</w>": 22024,
  "bouchon</w>": 12526,
  "bouchons</w>": 19627,
  "bouché</w>": 39252,
  "bouchée</w>": 23310,
  "bouchées</w>": 26711,
  "boucl": 25945,
  "boucle</w>": 6078,
  "boucler</w>": 21081,
  "boucles</w>": 10859,
  "boucli": 50268,
  "bouclier</w>": 12085,
  "boucliers</w>": 27135,
  "bouclé</w>": 25631,
  "bouclée</w>": 40898,
  "bouctou</w>": 50412,
  "boudd": 47149,
  "bouddh": 48096,
  "bouddha</w>": 20759,
  "bouddhisme</w>": 22010,
  "bouddhiste</w>": 30200,
  "bouddhistes</w>": 31342,
  "boudin</w>": 31168,
  "boue</w>": 11326,
  "boues</w>": 27645,
  "bouff": 14940,
  "bouffe</w>": 19177,
  "bouffer</w>": 31693,
  "bouffée</w>": 32688,
  "bouffées</w>": 45246,
  "bouge</w>": 12094,
  "bougent</w>": 32147,
  "bouger</w>": 7586,
  "bougie</w>": 16110,
  "bougies</w>": 12753,
  "bougé</w>": 28108,
  "bouill": 11950,
  "bouillant</w>": 39869,
  "bouillante</w>": 20442,
  "bouille</w>": 41783,
  "bouillet</w>": 45251,
  "bouillie</w>": 36677,
  "bouillir</w>": 20361,
  "bouilloire</w>": 23249,
  "bouillon</w>": 10351,
  "boul": 13513,
  "boulang": 26867,
  "boulanger</w>": 19268,
  "boulangerie</w>": 11996,
  "boulangeries</w>": 42132,
  "boule": 15701,
  "boule</w>": 7369,
  "bouleau</w>": 33999,
  "boules</w>": 10172,
  "boulet</w>": 23616,
  "boulets</w>": 38333,
  "boulette</w>": 47552,
  "boulettes</w>": 26186,
  "boulev": 49701,
  "boulevard</w>": 6757,
  "boulevards</w>": 36333,
  "bouleversant</w>": 39500,
  "bouleverse</w>": 35174,
  "bouleversement</w>": 27918,
  "bouleversements</w>": 23034,
  "bouleverser</w>": 24907,
  "bouleversé</w>": 21251,
  "bouleversée</w>": 33175,
  "boulimi": 40973,
  "boulo": 44559,
  "boulogne-": 30556,
  "boulogne</w>": 20422,
  "boulon</w>": 44393,
  "boulons</w>": 42864,
  "boulot</w>": 5193,
  "boulots</w>": 34538,
  "boum</w>": 38229,
  "boun": 40012,
  "bouquet</w>": 10061,
  "bouquets</w>": 25608,
  "bouquin</w>": 18648,
  "bouquins</w>": 28318,
  "bour": 2930,
  "bour</w>": 25441,
  "bourbon</w>": 18217,
  "bourdieu</w>": 42547,
  "bourdin</w>": 39277,
  "bourdon</w>": 36813,
  "bourdonn": 46696,
  "bouret</w>": 50200,
  "bourg": 24539,
  "bourg-": 18985,
  "bourg-en-": 44025,
  "bourg</w>": 4497,
  "bourgade</w>": 33838,
  "bourge": 27081,
  "bourgeo": 49394,
  "bourgeois</w>": 7994,
  "bourgeoise</w>": 15517,
  "bourgeoises</w>": 34379,
  "bourgeoisie</w>": 13251,
  "bourgeons</w>": 37783,
  "bourges</w>": 22011,
  "bourget</w>": 25320,
  "bourgmestre</w>": 21438,
  "bourgo": 38228,
  "bourgogne</w>": 8170,
  "bourgs</w>": 43047,
  "bourguign": 32356,
  "bourguignon</w>": 39262,
  "bourne</w>": 28897,
  "bourre</w>": 45819,
  "bourreau</w>": 23031,
  "bourreaux</w>": 30070,
  "bourré</w>": 27464,
  "bourse</w>": 2867,
  "bourses</w>": 7891,
  "boursier</w>": 25870,
  "boursiers</w>": 21541,
  "boursière</w>": 24540,
  "boursières</w>": 33412,
  "boursor": 48804,
  "boursoram": 50370,
  "boursoramaboursorama</w>": 37615,
  "bous": 34333,
  "bous</w>": 36040,
  "bouscul": 23659,
  "bouscule</w>": 36545,
  "bousculent</w>": 41310,
  "bousculer</w>": 27343,
  "bousculé</w>": 42222,
  "bouss": 30679,
  "boussole</w>": 32615,
  "bout</w>": 970,
  "boute": 47714,
  "boutefli": 50582,
  "bouteflika</w>": 33082,
  "bouteille</w>": 5344,
  "bouteilles</w>": 7488,
  "bouti": 35882,
  "boutin</w>": 34223,
  "boutique</w>": 3203,
  "boutiques</w>": 6447,
  "bouton": 41747,
  "bouton</w>": 3861,
  "boutons</w>": 7319,
  "bouts</w>": 13424,
  "bouv": 32462,
  "bouvier</w>": 44935,
  "bouy": 48741,
  "bouygues</w>": 20983,
  "bouée</w>": 41716,
  "bovine</w>": 23009,
  "bovins</w>": 21838,
  "bow": 19833,
  "bow</w>": 42239,
  "bowie</w>": 30468,
  "bowl</w>": 24184,
  "bowling</w>": 38240,
  "box": 14645,
  "box-": 49782,
  "box-office</w>": 35076,
  "box</w>": 5134,
  "boxe</w>": 16248,
  "boxer</w>": 43489,
  "boxeur</w>": 25864,
  "boy": 10674,
  "boy</w>": 9427,
  "boyco": 50302,
  "boycot": 37906,
  "boycott</w>": 23922,
  "boycotter</w>": 41313,
  "boyer</w>": 29583,
  "boys</w>": 17121,
  "boî": 47487,
  "boîte</w>": 2680,
  "boîtes</w>": 8192,
  "boîtier</w>": 7058,
  "boîtiers</w>": 35002,
  "bp": 31307,
  "bp</w>": 11694,
  "br": 2838,
  "br</w>": 19389,
  "bra": 2492,
  "bra</w>": 18321,
  "brabant</w>": 25699,
  "brac</w>": 34063,
  "bracel": 49636,
  "bracelet</w>": 11859,
  "bracelets</w>": 21443,
  "braconn": 44844,
  "brad": 34424,
  "brad</w>": 20596,
  "bradley</w>": 29772,
  "brady</w>": 44291,
  "brah": 23329,
  "brahim</w>": 45093,
  "brai": 18753,
  "brai</w>": 49679,
  "brain": 36101,
  "brait</w>": 45957,
  "bral": 49803,
  "bran": 3743,
  "branche</w>": 4249,
  "branchement</w>": 22855,
  "branchements</w>": 46607,
  "brancher</w>": 17615,
  "branches</w>": 5728,
  "branché</w>": 19188,
  "branchée</w>": 37621,
  "branchés</w>": 31161,
  "brand</w>": 26238,
  "brandissant</w>": 40616,
  "brandon</w>": 31318,
  "brandt</w>": 29832,
  "branl": 49706,
  "branle</w>": 30434,
  "braquage</w>": 30236,
  "bras</w>": 1423,
  "brasi": 45882,
  "brasier</w>": 45958,
  "brass": 14547,
  "brassage</w>": 38209,
  "brassard</w>": 34053,
  "brasse</w>": 40943,
  "brassens</w>": 39496,
  "brasserie</w>": 16614,
  "brasseries</w>": 39799,
  "brasseur</w>": 45486,
  "brau": 34539,
  "braun</w>": 41839,
  "braux</w>": 49133,
  "brav": 21561,
  "brave</w>": 14421,
  "braver</w>": 40643,
  "braves</w>": 18892,
  "bravo": 49100,
  "bravo</w>": 8401,
  "bravofly</w>": 38681,
  "bravou": 50486,
  "bravoure</w>": 25750,
  "bray</w>": 28550,
  "brazz": 49728,
  "brazzaville</w>": 29174,
  "bre": 3094,
  "bre-": 25695,
  "bre.": 34411,
  "bre</w>": 8487,
  "break": 18681,
  "break</w>": 11504,
  "breakfast</w>": 33760,
  "brebis</w>": 17943,
  "brecht</w>": 32444,
  "bref</w>": 1721,
  "brefs</w>": 18993,
  "brel</w>": 33590,
  "brem": 42329,
  "brement</w>": 47050,
  "bren": 16726,
  "brend": 49339,
  "brendan</w>": 46585,
  "brent</w>": 23994,
  "brer</w>": 45225,
  "bres": 10709,
  "bres</w>": 12377,
  "bresse</w>": 27483,
  "brest</w>": 11410,
  "bret": 46249,
  "bret</w>": 35583,
  "bretagne</w>": 4159,
  "breton</w>": 8654,
  "bretonne</w>": 19615,
  "bretonnes</w>": 40975,
  "bretons</w>": 17313,
  "brett</w>": 43965,
  "breu": 35266,
  "breu</w>": 49759,
  "breuil</w>": 39658,
  "breuse</w>": 37517,
  "breuvage</w>": 44799,
  "breux</w>": 35602,
  "breve": 27501,
  "brevet</w>": 7340,
  "brevets</w>": 9509,
  "breveté</w>": 36520,
  "brexit</w>": 14518,
  "bri": 2197,
  "bri</w>": 31979,
  "brian</w>": 11928,
  "briand</w>": 31329,
  "bribes</w>": 38077,
  "brice</w>": 22784,
  "brick</w>": 26973,
  "bricol": 16292,
  "bricolage</w>": 15861,
  "brid": 25741,
  "bride</w>": 20123,
  "brides</w>": 38009,
  "bridge</w>": 15210,
  "brie": 48739,
  "brie</w>": 22379,
  "briefing</w>": 45693,
  "brien</w>": 41406,
  "brieuc</w>": 48551,
  "brig": 35837,
  "briga": 49330,
  "brigade</w>": 8313,
  "brigades</w>": 25426,
  "brigadier</w>": 42993,
  "brigands</w>": 34786,
  "bright</w>": 45655,
  "brigi": 48829,
  "brigitte</w>": 13655,
  "briguer</w>": 37771,
  "bril</w>": 47328,
  "brill": 14347,
  "brillamment</w>": 30903,
  "brillance</w>": 22037,
  "brillant</w>": 7068,
  "brillante</w>": 10901,
  "brillantes</w>": 23079,
  "brillants</w>": 17349,
  "brille</w>": 17777,
  "brillent</w>": 36750,
  "briller</w>": 16834,
  "brillé</w>": 34540,
  "brin": 34114,
  "brin</w>": 12273,
  "brins</w>": 30626,
  "brio</w>": 19486,
  "brioche</w>": 26740,
  "brique</w>": 15006,
  "briques</w>": 11564,
  "briquet</w>": 32040,
  "bris": 6780,
  "bris</w>": 15123,
  "brise</w>": 13062,
  "briser</w>": 10333,
  "bristol</w>": 35019,
  "brisé</w>": 13151,
  "brisée</w>": 21968,
  "brisées</w>": 34993,
  "brisés</w>": 36297,
  "brit": 43591,
  "britan": 32736,
  "britannique</w>": 2101,
  "britanniques</w>": 4716,
  "british</w>": 12197,
  "britney</w>": 39579,
  "brité</w>": 48060,
  "brive</w>": 36711,
  "brière</w>": 45837,
  "brièvement</w>": 11120,
  "briété</w>": 47534,
  "bro": 2971,
  "bro</w>": 36550,
  "broad": 29517,
  "broadway</w>": 30003,
  "brocante</w>": 39193,
  "broche</w>": 22447,
  "broches</w>": 33151,
  "brochette</w>": 44085,
  "brochettes</w>": 37021,
  "brochure</w>": 15033,
  "brochures</w>": 24998,
  "broché</w>": 27271,
  "broder</w>": 35859,
  "broderie</w>": 21959,
  "broderies</w>": 39138,
  "brodé</w>": 32177,
  "broker</w>": 42481,
  "brom": 16523,
  "bron": 9651,
  "bron</w>": 22483,
  "bronchi": 41737,
  "bronz": 23525,
  "bronzage</w>": 33549,
  "bronzant</w>": 46706,
  "bronze</w>": 6643,
  "brook": 35923,
  "brook</w>": 32183,
  "brooke</w>": 34089,
  "brooklyn</w>": 23351,
  "brooks</w>": 37947,
  "bros</w>": 30787,
  "bross": 21372,
  "brossard</w>": 45824,
  "brosse</w>": 11741,
  "brosser</w>": 39168,
  "brosses</w>": 38528,
  "brossé</w>": 44120,
  "brother</w>": 33430,
  "brothers</w>": 24895,
  "brou": 6258,
  "brouill": 35865,
  "brouillard</w>": 14384,
  "brouille</w>": 39014,
  "brouiller</w>": 35296,
  "brouillon</w>": 32657,
  "brouss": 27106,
  "brousse</w>": 27580,
  "brow": 19858,
  "brown</w>": 10123,
  "broy": 17794,
  "broyage</w>": 43584,
  "broyer</w>": 46485,
  "bru": 2771,
  "bruce</w>": 15276,
  "bruck</w>": 40400,
  "bruges</w>": 20333,
  "bruins</w>": 28083,
  "bruit</w>": 2704,
  "bruits</w>": 10285,
  "brume</w>": 21209,
  "brumes</w>": 43418,
  "brumis": 45925,
  "brun": 14901,
  "brun</w>": 8711,
  "brunch</w>": 36330,
  "brune</w>": 11997,
  "brunes</w>": 29748,
  "brunet</w>": 39095,
  "bruni</w>": 42487,
  "bruno</w>": 5544,
  "bruns</w>": 25011,
  "brunswi": 48671,
  "brunswick</w>": 45135,
  "brus": 29527,
  "brusque</w>": 24624,
  "brusquement</w>": 13533,
  "bruss": 43339,
  "brussels</w>": 29823,
  "brut</w>": 4626,
  "brutal</w>": 16763,
  "brutale</w>": 14047,
  "brutalement</w>": 15060,
  "brutales</w>": 42309,
  "brutalité</w>": 22830,
  "brute</w>": 10864,
  "brutes</w>": 17702,
  "bruts</w>": 18561,
  "brux": 46958,
  "bruxel": 48240,
  "bruxelles-": 34040,
  "bruxelles</w>": 2183,
  "bruxellois</w>": 19826,
  "bruxelloise</w>": 29458,
  "bruy": 17523,
  "bruyant</w>": 24327,
  "bruyante</w>": 32848,
  "bruyants</w>": 42028,
  "bruyère</w>": 37893,
  "bry": 32729,
  "bry</w>": 48090,
  "bryan</w>": 25662,
  "brèche</w>": 19829,
  "brève</w>": 10828,
  "brèves</w>": 25348,
  "bré": 17299,
  "bré</w>": 17340,
  "brée</w>": 25665,
  "brées</w>": 43277,
  "brés</w>": 32886,
  "brési": 47475,
  "brésil</w>": 3557,
  "brésilien</w>": 9714,
  "brésilienne</w>": 15689,
  "brésiliennes</w>": 45231,
  "brésiliens</w>": 21938,
  "brû": 11569,
  "brûlant</w>": 22600,
  "brûlante</w>": 37480,
  "brûle</w>": 17689,
  "brûlent</w>": 39631,
  "brûler</w>": 12092,
  "brûleur</w>": 41770,
  "brûlure</w>": 40156,
  "brûlures</w>": 26708,
  "brûlé</w>": 14929,
  "brûlée</w>": 25917,
  "brûlées</w>": 36517,
  "brûlés</w>": 25446,
  "brü": 32827,
  "bs</w>": 6727,
  "bt": 30197,
  "bt</w>": 14530,
  "btp</w>": 19830,
  "bts</w>": 7269,
  "bu": 1170,
  "bu</w>": 8274,
  "buanderie</w>": 28538,
  "buc": 19257,
  "bucar": 50081,
  "bucarest</w>": 29111,
  "buck": 35851,
  "buck</w>": 36388,
  "buckingham</w>": 45717,
  "bucks</w>": 37601,
  "bucolique</w>": 38475,
  "bud": 21166,
  "budap": 50085,
  "budapest</w>": 19276,
  "budg": 37565,
  "budget-": 50304,
  "budget-programme</w>": 29043,
  "budget</w>": 1198,
  "budgets</w>": 6987,
  "budgé": 38657,
  "budgétaire</w>": 4330,
  "budgétaires</w>": 6286,
  "buen": 47463,
  "buena</w>": 49046,
  "buenos</w>": 17700,
  "buff": 16348,
  "buffalo</w>": 28257,
  "buffet</w>": 12674,
  "buffon</w>": 43671,
  "buffy</w>": 37048,
  "bug</w>": 18888,
  "bugs</w>": 23001,
  "buil": 24722,
  "build</w>": 40681,
  "building</w>": 21778,
  "buis</w>": 41762,
  "buisson</w>": 21264,
  "buissons</w>": 34239,
  "bul": 9443,
  "bul</w>": 48129,
  "bulaire</w>": 47206,
  "bulaires</w>": 37603,
  "bule</w>": 32510,
  "bules</w>": 36971,
  "bulgar": 48244,
  "bulgare</w>": 24212,
  "bulgares</w>": 32465,
  "bulgarie</w>": 10290,
  "bull": 16885,
  "bull</w>": 7492,
  "bulldo": 44017,
  "bulle": 49861,
  "bulle</w>": 9871,
  "bulles</w>": 12065,
  "bulletin</w>": 5907,
  "bulletins</w>": 10556,
  "bulls</w>": 36709,
  "bum": 42085,
  "bum</w>": 35430,
  "bun": 14846,
  "bund</w>": 45571,
  "bundes": 28631,
  "bundesliga</w>": 36747,
  "bundestag</w>": 44908,
  "bungal": 47370,
  "bungalow</w>": 40586,
  "bunker</w>": 38319,
  "buntu</w>": 49417,
  "bur": 3856,
  "bur</w>": 37158,
  "bure": 32158,
  "bure</w>": 46950,
  "bureau": 24763,
  "bureau</w>": 895,
  "bureaucratie</w>": 28241,
  "bureaucratique</w>": 39656,
  "bureautique</w>": 25287,
  "bureaux</w>": 2924,
  "burg</w>": 9229,
  "burger</w>": 19333,
  "burgers</w>": 29948,
  "burgh</w>": 47402,
  "burke</w>": 42825,
  "burkin": 46142,
  "burkina</w>": 11761,
  "burkinab": 44883,
  "burkinabè</w>": 43286,
  "burles": 48127,
  "burlesque</w>": 31154,
  "burn": 44644,
  "burn</w>": 19038,
  "burns</w>": 38594,
  "burton</w>": 24256,
  "burund": 47761,
  "burundais</w>": 35011,
  "burundi</w>": 14721,
  "bury</w>": 13805,
  "bus": 16198,
  "bus</w>": 2281,
  "buse</w>": 24424,
  "buses</w>": 42554,
  "bush</w>": 7971,
  "busier</w>": 46568,
  "busin": 48353,
  "business": 39324,
  "business</w>": 4370,
  "buss": 33785,
  "bussy</w>": 47152,
  "buste</w>": 21651,
  "buster</w>": 33473,
  "busti": 43055,
  "but": 27305,
  "but</w>": 565,
  "bute</w>": 32361,
  "buter</w>": 42445,
  "buteur</w>": 13695,
  "buteurs</w>": 39102,
  "butin</w>": 22832,
  "butler</w>": 32850,
  "butoir</w>": 38977,
  "buts</w>": 2460,
  "butte</w>": 22821,
  "butter": 39767,
  "button</w>": 43237,
  "buty": 45340,
  "butée</w>": 33525,
  "buu": 49629,
  "buuyers</w>": 34567,
  "buv": 40951,
  "buvant</w>": 38294,
  "buvette</w>": 42119,
  "buvez</w>": 42462,
  "buy</w>": 31901,
  "buzz": 31124,
  "buzz</w>": 13078,
  "bv</w>": 29646,
  "bvre</w>": 48807,
  "by": 7045,
  "by</w>": 1881,
  "bye</w>": 27711,
  "byl</w>": 49846,
  "byron</w>": 36692,
  "byz": 25353,
  "byzantin</w>": 34521,
  "byzantine</w>": 41463,
  "bâ": 7362,
  "bâche</w>": 36666,
  "bâcle</w>": 49850,
  "bâle</w>": 15040,
  "bât</w>": 46267,
  "bâtard</w>": 46016,
  "bâti": 30604,
  "bâti</w>": 9650,
  "bâtie</w>": 20444,
  "bâties</w>": 40894,
  "bâtiment</w>": 2062,
  "bâtiments</w>": 3082,
  "bâtir</w>": 8655,
  "bâtis</w>": 36498,
  "bâtiss": 36906,
  "bâtisse</w>": 25562,
  "bâtit</w>": 41632,
  "bâton": 46422,
  "bâton</w>": 10475,
  "bâtonn": 48433,
  "bâtonnets</w>": 43271,
  "bâtons</w>": 19490,
  "bè": 25109,
  "bène</w>": 40529,
  "bère</w>": 28905,
  "bères</w>": 48528,
  "bé": 2103,
  "bé</w>": 6245,
  "béarn</w>": 35684,
  "béati": 27562,
  "béatrice</w>": 21881,
  "bébé": 29324,
  "bébé</w>": 2688,
  "bébés</w>": 8723,
  "bédard</w>": 41005,
  "bée</w>": 10892,
  "bées</w>": 16139,
  "bég": 29736,
  "bél": 24456,
  "bélanger</w>": 37622,
  "bélar": 48284,
  "bélarus</w>": 30565,
  "béli": 47388,
  "bélier</w>": 31025,
  "bémol</w>": 12783,
  "bén": 21807,
  "béni": 16140,
  "béni</w>": 25269,
  "bénie</w>": 46320,
  "bénin": 48037,
  "bénin</w>": 12993,
  "béninois</w>": 37792,
  "béné": 25814,
  "bénédic": 20261,
  "bénédiction</w>": 15109,
  "bénédictions</w>": 42652,
  "bénéfice</w>": 3811,
  "bénéfices</w>": 4859,
  "bénéfici": 23537,
  "bénéficiaient</w>": 44089,
  "bénéficiaire</w>": 9344,
  "bénéficiaires</w>": 6418,
  "bénéficiait</w>": 39632,
  "bénéficiant</w>": 10816,
  "bénéficie</w>": 4782,
  "bénéficient</w>": 5836,
  "bénéficier</w>": 2599,
  "bénéficiera</w>": 26131,
  "bénéficierez</w>": 34871,
  "bénéficieront</w>": 23622,
  "bénéficiez</w>": 14757,
  "bénéficié</w>": 7048,
  "bénéfique</w>": 12946,
  "bénéfiques</w>": 21070,
  "bénévo": 51483,
  "bénévol": 49662,
  "bénévolat</w>": 26363,
  "bénévole</w>": 14260,
  "bénévolement</w>": 45565,
  "bénévoles</w>": 6472,
  "béri": 41447,
  "béry</w>": 48653,
  "béré": 34292,
  "bés</w>": 11125,
  "bét": 20789,
  "bétail</w>": 14001,
  "béth": 45128,
  "béton</w>": 6641,
  "béziers</w>": 26794,
  "bê": 24182,
  "bêta-": 43152,
  "bêta</w>": 22673,
  "bête</w>": 5655,
  "bêtement</w>": 31677,
  "bêtes</w>": 9066,
  "bêtise</w>": 20439,
  "bêtises</w>": 27543,
  "bö": 45878,
  "bû": 27643,
  "bûche</w>": 28923,
  "bûcher</w>": 37065,
  "bûches</w>": 42620,
  "bü": 26977,
  "bœuf</w>": 14303,
  "bœufs</w>": 32801,
  "c": 436,
  "c'</w>": 62,
  "c-": 3546,
  "c.": 3254,
  "c.1</w>": 40581,
  "c.2</w>": 45325,
  "c.3</w>": 43915,
  "c.</w>": 2561,
  "c.c.": 36412,
  "c1-": 45129,
  "c1</w>": 14813,
  "c2</w>": 28572,
  "c3</w>": 27563,
  "c4</w>": 29793,
  "c6</w>": 45142,
  "c</w>": 261,
  "ca": 837,
  "ca-": 26970,
  "ca</w>": 796,
  "caa</w>": 32395,
  "cab</w>": 35292,
  "caban": 28121,
  "cabane</w>": 13911,
  "cabanes</w>": 28037,
  "cabar": 34787,
  "cabaret</w>": 19130,
  "caber": 48053,
  "cabernet</w>": 42988,
  "cabin": 48131,
  "cabine</w>": 9635,
  "cabines</w>": 22487,
  "cabinet</w>": 2670,
  "cabinets</w>": 14462,
  "cable</w>": 12142,
  "cablement</w>": 41364,
  "cables</w>": 23636,
  "cabo": 26343,
  "cabri": 47217,
  "cabriolet</w>": 35930,
  "cac": 13875,
  "cac</w>": 10473,
  "caca</w>": 40112,
  "cacahu": 48100,
  "cacahuètes</w>": 44247,
  "cacao</w>": 12909,
  "cace</w>": 47397,
  "cachait</w>": 25732,
  "cachant</w>": 32742,
  "cache-": 29481,
  "cache</w>": 4421,
  "cachemi": 49571,
  "cachemire</w>": 31800,
  "cachent</w>": 15664,
  "cacher</w>": 5751,
  "caches</w>": 41213,
  "cachet</w>": 16800,
  "cachets</w>": 45211,
  "cachette</w>": 26089,
  "cachot</w>": 44018,
  "caché</w>": 7031,
  "cachée</w>": 12137,
  "cachées</w>": 21520,
  "cachés</w>": 13137,
  "cacité</w>": 43301,
  "caco": 46513,
  "cactus</w>": 34127,
  "cad": 8157,
  "cad</w>": 20602,
  "cadastre</w>": 40326,
  "cadav": 48982,
  "cadavre</w>": 13287,
  "cadavres</w>": 14026,
  "cade": 47371,
  "cade</w>": 13526,
  "cadeau</w>": 3593,
  "cadeaux</w>": 4839,
  "caden": 28127,
  "cadenas</w>": 38938,
  "cadence</w>": 18516,
  "cades</w>": 28072,
  "cadet</w>": 15513,
  "cadets</w>": 25992,
  "cadette</w>": 31037,
  "cadill": 50316,
  "cadillac</w>": 46135,
  "cadr": 33727,
  "cadra": 47934,
  "cadrage</w>": 23735,
  "cadran</w>": 22337,
  "cadre</w>": 318,
  "cadrer</w>": 37333,
  "cadres</w>": 3563,
  "cadu": 32542,
  "cae</w>": 38087,
  "caen</w>": 11431,
  "caf": 21696,
  "caf</w>": 16081,
  "cafe": 41456,
  "cafe</w>": 45414,
  "cafetière</w>": 19951,
  "café": 36932,
  "café-": 44056,
  "café</w>": 2279,
  "caféine</w>": 36125,
  "cafés</w>": 11285,
  "cafétéri": 49623,
  "cafétéria</w>": 46243,
  "cag": 14288,
  "cage</w>": 7732,
  "cages</w>": 25624,
  "cagnotte</w>": 40699,
  "cagou": 37192,
  "cahi": 49958,
  "cahier</w>": 6208,
  "cahiers</w>": 11583,
  "cahors</w>": 41162,
  "cahu": 48441,
  "cahuzac</w>": 25355,
  "cai": 14596,
  "cail": 39239,
  "caill": 13182,
  "caillou</w>": 33938,
  "cailloux</w>": 20870,
  "cain</w>": 14042,
  "caine</w>": 28385,
  "caines</w>": 35359,
  "cains</w>": 24247,
  "cair": 38484,
  "cair</w>": 50189,
  "caire</w>": 8831,
  "caires</w>": 48264,
  "caiss": 44764,
  "caisse</w>": 3711,
  "caisses</w>": 7628,
  "caisson</w>": 24283,
  "caissons</w>": 44704,
  "cake</w>": 13108,
  "cakes</w>": 31384,
  "cal": 1904,
  "cal</w>": 5184,
  "calais</w>": 13566,
  "calam": 42302,
  "calami": 30605,
  "calan": 43806,
  "calandre</w>": 41842,
  "calcaire</w>": 14631,
  "calcaires</w>": 25235,
  "calci": 37663,
  "calcin": 42597,
  "calcium</w>": 15546,
  "calcu": 45204,
  "calcul": 16177,
  "calcul</w>": 3089,
  "calculateur</w>": 34261,
  "calculatrice</w>": 42869,
  "calcule</w>": 19964,
  "calculer</w>": 8023,
  "calculs</w>": 8219,
  "calculé</w>": 10681,
  "calculée</w>": 14914,
  "calculées</w>": 23146,
  "calculés</w>": 21134,
  "cale": 25073,
  "cale</w>": 6424,
  "calement</w>": 34998,
  "calend": 29621,
  "calendrier</w>": 3152,
  "calendriers</w>": 27429,
  "caler</w>": 42555,
  "cales</w>": 12118,
  "calgary</w>": 18212,
  "cali": 11798,
  "calib": 29764,
  "calibr": 32074,
  "calibre</w>": 13909,
  "calice</w>": 41354,
  "califat</w>": 37562,
  "calife</w>": 37120,
  "califor": 36343,
  "california</w>": 35306,
  "californie</w>": 6184,
  "californien</w>": 30829,
  "californienne</w>": 34078,
  "calisation</w>": 47054,
  "calité</w>": 25080,
  "call": 15036,
  "call</w>": 16636,
  "called</w>": 37054,
  "calli": 30216,
  "calligraphie</w>": 43133,
  "calm</w>": 43616,
  "calme</w>": 1296,
  "calmement</w>": 34270,
  "calmer</w>": 11905,
  "calmes</w>": 21330,
  "calomni": 37713,
  "calomnie</w>": 43952,
  "calori": 42142,
  "calories</w>": 15869,
  "calorique</w>": 37630,
  "calotte</w>": 40448,
  "calque</w>": 38352,
  "cals</w>": 41182,
  "calv": 48899,
  "calvados</w>": 25609,
  "calvaire</w>": 21462,
  "calvi</w>": 43632,
  "calvin": 42270,
  "calvin</w>": 29660,
  "calyp": 47447,
  "calé": 50183,
  "calé</w>": 44621,
  "calédon": 45605,
  "calédonie</w>": 47473,
  "cam": 2703,
  "cam</w>": 13027,
  "camar": 23044,
  "camara</w>": 38180,
  "camarade</w>": 14399,
  "camarades</w>": 7004,
  "camargue</w>": 39770,
  "camba": 50386,
  "cambadélis</w>": 45973,
  "cambo": 48968,
  "cambod": 32315,
  "cambodge</w>": 16312,
  "cambrai</w>": 41937,
  "cambri": 47529,
  "cambridge</w>": 20087,
  "cambriol": 27848,
  "cambriolage</w>": 36794,
  "cambriolages</w>": 45184,
  "came</w>": 23020,
  "camer": 29484,
  "camera</w>": 33536,
  "cameron</w>": 13205,
  "camerou": 36896,
  "cameroun</w>": 8809,
  "camerounais</w>": 24381,
  "cami": 20381,
  "camille</w>": 10255,
  "camion</w>": 7769,
  "camionnette</w>": 28219,
  "camions</w>": 9617,
  "camou": 48733,
  "camoufl": 31916,
  "camouflage</w>": 35589,
  "camoufler</w>": 46303,
  "camp": 11121,
  "camp</w>": 2182,
  "campa": 47793,
  "campagn": 21942,
  "campagne</w>": 806,
  "campagnes</w>": 4631,
  "campai": 49381,
  "campaign</w>": 41387,
  "campan": 28920,
  "campbell</w>": 23334,
  "campe</w>": 31153,
  "campement</w>": 23948,
  "camper</w>": 38238,
  "camping-": 47941,
  "camping-car</w>": 41030,
  "camping</w>": 6308,
  "campings</w>": 21760,
  "camps</w>": 5679,
  "campus</w>": 8468,
  "camus</w>": 23120,
  "camé": 23381,
  "camélé": 45813,
  "caméra</w>": 4819,
  "caméras</w>": 7914,
  "can": 1518,
  "can</w>": 5297,
  "cana</w>": 26423,
  "canad": 30258,
  "canada-": 41332,
  "canada.": 46699,
  "canada</w>": 475,
  "canadi": 33028,
  "canadian</w>": 22080,
  "canadien</w>": 2475,
  "canadienne</w>": 3185,
  "canadiennes</w>": 5920,
  "canadiens</w>": 2934,
  "canal": 35965,
  "canal</w>": 2616,
  "canalisation</w>": 15175,
  "canalisations</w>": 24084,
  "canaliser</w>": 37050,
  "canap": 48141,
  "canapé-": 50344,
  "canapé-lit</w>": 28475,
  "canapé</w>": 7343,
  "canapés</w>": 27069,
  "canard</w>": 10426,
  "canards</w>": 22443,
  "canaries</w>": 31306,
  "canaux</w>": 7122,
  "canc": 41300,
  "cancer</w>": 2891,
  "cancers</w>": 12256,
  "cancé": 31616,
  "cancéreuses</w>": 28536,
  "cancéreux</w>": 42173,
  "cancéri": 38960,
  "cancéro": 42997,
  "candeur</w>": 41794,
  "candi": 17126,
  "candida": 49119,
  "candidat</w>": 1688,
  "candidate</w>": 8190,
  "candidates</w>": 21246,
  "candidats</w>": 1702,
  "candidature</w>": 4146,
  "candidatures</w>": 10793,
  "candide</w>": 36202,
  "candy</w>": 38016,
  "cane</w>": 14947,
  "canes</w>": 26211,
  "cani": 21067,
  "canicule</w>": 28552,
  "canique</w>": 41469,
  "cann": 13621,
  "cann</w>": 43620,
  "cannabis</w>": 10834,
  "canne</w>": 14032,
  "cannel": 34338,
  "cannelle</w>": 17661,
  "cannes</w>": 6753,
  "canni": 29528,
  "cano": 23829,
  "cano</w>": 41388,
  "canon": 26210,
  "canon</w>": 6448,
  "canonique</w>": 34886,
  "canons</w>": 10358,
  "canot</w>": 28256,
  "canoë</w>": 26414,
  "cans</w>": 24673,
  "cant": 21039,
  "cant</w>": 28325,
  "canta": 36522,
  "cantal</w>": 32526,
  "cante</w>": 27252,
  "cantes</w>": 26702,
  "cantine</w>": 20788,
  "cantines</w>": 41900,
  "canton": 28354,
  "canton</w>": 4509,
  "cantonal</w>": 35507,
  "cantonale</w>": 34334,
  "cantonales</w>": 30758,
  "cantonn": 31212,
  "cantons</w>": 12697,
  "cants</w>": 48447,
  "canu": 21245,
  "canyon</w>": 25698,
  "cao</w>": 21666,
  "caou": 49000,
  "caoutchou": 47407,
  "caoutchouc</w>": 9962,
  "cap": 4850,
  "cap-": 27341,
  "cap-vert</w>": 40157,
  "cap</w>": 3409,
  "capa": 17928,
  "capable</w>": 1840,
  "capables</w>": 4417,
  "capaci": 29643,
  "capacité</w>": 1093,
  "capacités</w>": 2231,
  "cape</w>": 17100,
  "capes</w>": 42363,
  "capi": 17001,
  "capill": 48633,
  "capillaire</w>": 25901,
  "capillaires</w>": 30976,
  "capit": 20326,
  "capitaine</w>": 3018,
  "capitaines</w>": 28931,
  "capital": 33192,
  "capital-": 28932,
  "capital</w>": 1730,
  "capitale</w>": 1566,
  "capitales</w>": 15201,
  "capitalis": 43800,
  "capitalisation</w>": 15937,
  "capitaliser</w>": 35403,
  "capitalisme</w>": 8187,
  "capitaliste</w>": 12802,
  "capitalistes</w>": 22813,
  "capitals</w>": 43283,
  "capitaux</w>": 5889,
  "capitole</w>": 29726,
  "capitu": 25292,
  "capitulation</w>": 33681,
  "capo": 45118,
  "capor": 47808,
  "caporal</w>": 33550,
  "capot</w>": 19562,
  "capote</w>": 38702,
  "capr": 36701,
  "capri": 20539,
  "caprice</w>": 31008,
  "caprices</w>": 26851,
  "capricieux</w>": 46410,
  "caps</w>": 35153,
  "capsu": 49098,
  "capsul": 49012,
  "capsule</w>": 18198,
  "capsules</w>": 20571,
  "captage</w>": 44425,
  "captain</w>": 26774,
  "captation</w>": 38682,
  "capte</w>": 33156,
  "capter</w>": 15816,
  "capteur</w>": 6956,
  "capteurs</w>": 10177,
  "capti": 19148,
  "captif</w>": 44541,
  "captifs</w>": 37883,
  "captivant</w>": 41640,
  "captive</w>": 42666,
  "captivité</w>": 21652,
  "captu": 19989,
  "capture</w>": 9507,
  "capturer</w>": 15783,
  "captures</w>": 24640,
  "capturé</w>": 20472,
  "capturés</w>": 29007,
  "capté</w>": 34541,
  "capu": 20383,
  "capuche</w>": 30016,
  "capuchon</w>": 33271,
  "caq</w>": 29049,
  "car": 827,
  "car</w>": 150,
  "cara</w>": 34711,
  "carab": 26364,
  "carabine</w>": 37604,
  "carac": 17072,
  "caracas</w>": 36888,
  "caracter": 47591,
  "caracteristiques</w>": 39581,
  "caractère</w>": 1273,
  "caractères</w>": 5689,
  "caracté": 49323,
  "caractéris": 30981,
  "caractérisant</w>": 45318,
  "caractérisation</w>": 25625,
  "caractérise</w>": 7986,
  "caractérisent</w>": 18134,
  "caractériser</w>": 22124,
  "caractéristique</w>": 6265,
  "caractéristiques</w>": 1969,
  "caractérisé</w>": 11657,
  "caractérisée</w>": 9431,
  "caractérisées</w>": 36287,
  "caractérisés</w>": 33980,
  "caram": 28513,
  "caramel</w>": 15196,
  "caramél": 30168,
  "carapa": 48887,
  "carapace</w>": 37697,
  "carat</w>": 46703,
  "carats</w>": 44877,
  "carav": 36036,
  "caravan": 47739,
  "caravane</w>": 18408,
  "caravanes</w>": 33885,
  "caraï": 49483,
  "caraïbe</w>": 45944,
  "caraïbes</w>": 9397,
  "carbo": 48894,
  "carbon": 11702,
  "carbonate</w>": 40525,
  "carbone</w>": 4396,
  "carbonique</w>": 36244,
  "carboxy": 26178,
  "carbu": 26767,
  "carburant</w>": 6172,
  "carburants</w>": 16618,
  "carbure</w>": 42711,
  "carcan</w>": 44447,
  "carcass": 48544,
  "carcasse</w>": 27754,
  "carcasses</w>": 36199,
  "carcassonne</w>": 22076,
  "carcin": 37642,
  "carcé": 47762,
  "carcéral</w>": 42110,
  "carcérale</w>": 45428,
  "card</w>": 12276,
  "carde</w>": 32985,
  "cardi": 15560,
  "cardiaque</w>": 7750,
  "cardiaques</w>": 19576,
  "cardiff</w>": 40133,
  "cardin": 26379,
  "cardinal</w>": 7627,
  "cardinaux</w>": 24600,
  "cardio": 38570,
  "cardio-": 35565,
  "cardio-vasculaires</w>": 44847,
  "cardio</w>": 39995,
  "cardiologue</w>": 42945,
  "cardiovasculaire</w>": 36250,
  "cardiovasculaires</w>": 28283,
  "cardo</w>": 47319,
  "cards</w>": 25399,
  "care</w>": 15637,
  "carence</w>": 20695,
  "carences</w>": 23831,
  "caress": 29460,
  "caresse</w>": 22991,
  "caresser</w>": 26394,
  "caresses</w>": 24841,
  "carey</w>": 29237,
  "carg": 47251,
  "cargaison</w>": 28210,
  "cargo</w>": 22882,
  "cari": 12861,
  "carib": 33737,
  "carica": 43588,
  "caricatu": 22294,
  "caricature</w>": 19574,
  "caricatures</w>": 29091,
  "carit": 48971,
  "caritative</w>": 44690,
  "caritatives</w>": 38439,
  "carl": 36731,
  "carl</w>": 14187,
  "carla</w>": 24854,
  "carlo</w>": 17222,
  "carlos</w>": 9601,
  "carmel</w>": 42031,
  "carmen</w>": 22938,
  "carnage</w>": 28934,
  "carnaval</w>": 14275,
  "carnet</w>": 8527,
  "carnets</w>": 16566,
  "carni": 25134,
  "carnot</w>": 40609,
  "caro</w>": 38529,
  "carol": 19341,
  "carol</w>": 31539,
  "carole</w>": 21809,
  "carolin": 40979,
  "caroline</w>": 7146,
  "caron</w>": 31053,
  "carot": 45855,
  "carotte</w>": 21623,
  "carottes</w>": 13322,
  "carpe</w>": 33652,
  "carpen": 32381,
  "carr": 43873,
  "carre": 45576,
  "carreau</w>": 28686,
  "carreaux</w>": 17945,
  "carrefour</w>": 7862,
  "carrefours</w>": 44472,
  "carrel": 34957,
  "carrelage</w>": 22414,
  "carri": 21036,
  "carrie</w>": 40372,
  "carrier</w>": 43031,
  "carrière</w>": 1237,
  "carrières</w>": 11871,
  "carro": 41367,
  "carross": 40280,
  "carrosse</w>": 38263,
  "carrosserie</w>": 15789,
  "carrou": 42549,
  "carré</w>": 5441,
  "carrée</w>": 19256,
  "carrées</w>": 38971,
  "carrément</w>": 9640,
  "carrés</w>": 7426,
  "cars</w>": 15596,
  "cart</w>": 24315,
  "carte</w>": 786,
  "carter</w>": 12631,
  "cartes</w>": 1905,
  "carth": 32075,
  "carthage</w>": 30539,
  "carthy</w>": 45137,
  "cartier</w>": 19878,
  "cartil": 42155,
  "carto": 14422,
  "cartographie</w>": 15588,
  "carton</w>": 6439,
  "cartonn": 44519,
  "cartons</w>": 11466,
  "cartouche</w>": 14652,
  "cartouches</w>": 16694,
  "carts</w>": 39327,
  "carté": 42870,
  "carême</w>": 29584,
  "cas": 6427,
  "cas-là</w>": 35181,
  "cas</w>": 149,
  "casa</w>": 17738,
  "casab": 49217,
  "casablanc": 49689,
  "casablanca</w>": 17716,
  "casam": 45689,
  "casan": 49342,
  "casanova</w>": 43388,
  "cascade</w>": 14775,
  "cascades</w>": 20296,
  "case</w>": 6388,
  "caser": 48216,
  "caser</w>": 44692,
  "caserne</w>": 19122,
  "casernes</w>": 37581,
  "cases</w>": 13395,
  "casey</w>": 40198,
  "cash": 25812,
  "cash</w>": 13527,
  "casi": 33683,
  "casier</w>": 12650,
  "casiers</w>": 43838,
  "casin": 48363,
  "casino</w>": 8236,
  "casinos</w>": 24179,
  "casque</w>": 6693,
  "casques</w>": 14766,
  "casquette</w>": 17838,
  "casquettes</w>": 39485,
  "cass": 5802,
  "cassation</w>": 9716,
  "casse-": 25153,
  "casse-tête</w>": 28515,
  "casse</w>": 7569,
  "cassent</w>": 45053,
  "casser": 48960,
  "casser</w>": 8231,
  "casserole</w>": 9810,
  "casseroles</w>": 31030,
  "casses</w>": 35169,
  "cassette</w>": 21546,
  "cassettes</w>": 29842,
  "casseurs</w>": 42131,
  "cassi": 19678,
  "cassis</w>": 24015,
  "cassonade</w>": 46565,
  "cassé</w>": 11249,
  "cassée</w>": 24151,
  "cassées</w>": 31695,
  "cassés</w>": 23628,
  "cast": 14498,
  "cast</w>": 18073,
  "castan": 42358,
  "caste</w>": 26276,
  "castel": 38895,
  "caster</w>": 35685,
  "castes</w>": 42720,
  "casti": 38262,
  "castill": 25480,
  "castille</w>": 34300,
  "casting</w>": 11336,
  "castle</w>": 34648,
  "castor</w>": 35874,
  "castr": 28863,
  "castres</w>": 29698,
  "castro</w>": 18410,
  "casts</w>": 43550,
  "casu": 47422,
  "casual</w>": 40848,
  "cat": 14976,
  "cat</w>": 8390,
  "cata": 18858,
  "cata</w>": 36568,
  "catacly": 35638,
  "catal": 21204,
  "catalan</w>": 17500,
  "catalane</w>": 31499,
  "catalans</w>": 27128,
  "catalo": 39415,
  "catalogne</w>": 14434,
  "catalogue</w>": 2868,
  "catalogues</w>": 20606,
  "cataly": 26457,
  "catalyseur</w>": 13976,
  "catalyseurs</w>": 38287,
  "catalytique</w>": 34011,
  "catapul": 43752,
  "catar": 25806,
  "catas": 50537,
  "catastroph": 47561,
  "catastrophe</w>": 5472,
  "catastrophes</w>": 9574,
  "catastrophique</w>": 16084,
  "catastrophiques</w>": 31281,
  "catawiki</w>": 11593,
  "catch": 35003,
  "catch</w>": 37418,
  "cate": 47925,
  "cate</w>": 21001,
  "categori": 48082,
  "categorie</w>": 35335,
  "cater": 38898,
  "cateur</w>": 20920,
  "cateurs</w>": 16990,
  "cath": 11808,
  "cather": 48364,
  "catherine</w>": 5422,
  "cathlon</w>": 46685,
  "cathode</w>": 41255,
  "catholi": 41989,
  "catholicisme</w>": 21450,
  "catholique</w>": 3797,
  "catholiques</w>": 6774,
  "cathy</w>": 35182,
  "cathé": 48299,
  "cathédra": 49751,
  "cathédrale</w>": 6260,
  "cathédrales</w>": 37607,
  "cathéter</w>": 29880,
  "cati": 25229,
  "cati</w>": 42100,
  "catif</w>": 29781,
  "catifs</w>": 21284,
  "cation": 18945,
  "cation</w>": 7468,
  "cations</w>": 10321,
  "cative</w>": 32929,
  "catives</w>": 47617,
  "catrice</w>": 18954,
  "catrices</w>": 39069,
  "cats</w>": 24010,
  "caté": 20133,
  "catéchisme</w>": 35529,
  "catég": 29570,
  "catégori": 30882,
  "catégorie</w>": 1705,
  "catégories</w>": 2802,
  "catégorique</w>": 34096,
  "catégoriquement</w>": 31344,
  "cau": 3872,
  "cauc": 49503,
  "caucase</w>": 23518,
  "cauchem": 43610,
  "cauchemar</w>": 13617,
  "cauchemars</w>": 28992,
  "caucus</w>": 33776,
  "caud</w>": 41123,
  "caus": 37316,
  "causa</w>": 37626,
  "causait</w>": 46727,
  "causalité</w>": 30148,
  "causant</w>": 23524,
  "cause</w>": 485,
  "causent</w>": 29424,
  "causer</w>": 9358,
  "causes</w>": 3798,
  "causé</w>": 8058,
  "causée</w>": 18306,
  "causées</w>": 24575,
  "causés</w>": 12973,
  "caut</w>": 36370,
  "caution</w>": 12066,
  "cautionnement</w>": 42002,
  "caux.com</w>": 51920,
  "caux</w>": 14496,
  "cav": 8801,
  "cav</w>": 46656,
  "caval": 35784,
  "cavale</w>": 39218,
  "cavalerie</w>": 13620,
  "cavalier</w>": 15418,
  "cavaliers</w>": 13772,
  "cavan": 49539,
  "cavani</w>": 33474,
  "cave": 47396,
  "cave</w>": 7571,
  "caveau</w>": 37838,
  "caver": 47415,
  "caverne</w>": 25449,
  "cavernes</w>": 37817,
  "caves</w>": 15837,
  "cavi": 46971,
  "caviar</w>": 33487,
  "cavité</w>": 13081,
  "cavités</w>": 27628,
  "cay": 26135,
  "cayenne</w>": 31408,
  "caz": 39529,
  "cazen": 48905,
  "cazeneuve</w>": 23190,
  "caï": 16287,
  "cb": 43024,
  "cb-": 48852,
  "cb-co-": 44266,
  "cb</w>": 17887,
  "cbc</w>": 33659,
  "cbs</w>": 27827,
  "cc": 8436,
  "cc</w>": 5937,
  "cca</w>": 31744,
  "ccas</w>": 41087,
  "cce</w>": 37228,
  "cci": 36599,
  "cci</w>": 9172,
  "cco</w>": 42792,
  "ccr": 41083,
  "cd": 9948,
  "cd-": 46918,
  "cd-rom</w>": 29845,
  "cd</w>": 3889,
  "cdc</w>": 25312,
  "cdd</w>": 17870,
  "cdh</w>": 25370,
  "cdi</w>": 12236,
  "cdiscoun": 46029,
  "cdiscount</w>": 17239,
  "cdp</w>": 46844,
  "cdr</w>": 42936,
  "cds</w>": 32582,
  "cdu</w>": 33510,
  "ce": 1804,
  "ce-": 7311,
  "ce-que</w>": 45049,
  "ce-t-il</w>": 45409,
  "ce.": 9780,
  "ce.</w>": 33006,
  "ce1</w>": 34757,
  "ce2</w>": 37530,
  "ce</w>": 43,
  "cea</w>": 19834,
  "ceau</w>": 16056,
  "ceaux</w>": 20488,
  "cec": 22568,
  "ceca</w>": 15894,
  "ceci</w>": 1362,
  "ced</w>": 19950,
  "cede": 49303,
  "cedeao</w>": 32606,
  "cedefop</w>": 41726,
  "cedex</w>": 19669,
  "cedh</w>": 39559,
  "cee-": 37104,
  "cee</w>": 1988,
  "cef</w>": 32595,
  "cei</w>": 25638,
  "cein": 32825,
  "ceinture</w>": 4909,
  "ceintures</w>": 26650,
  "cel": 4122,
  "cel</w>": 23544,
  "cela</w>": 131,
  "cele": 35170,
  "celi": 48913,
  "celibat": 44555,
  "cell</w>": 28952,
  "celle": 48672,
  "celle-": 47547,
  "celle-ci</w>": 1261,
  "celle-là</w>": 17315,
  "celle</w>": 315,
  "celles": 48489,
  "celles-": 37329,
  "celles-ci</w>": 3685,
  "celles</w>": 790,
  "celli</w>": 38599,
  "cellier</w>": 38737,
  "cellu": 26136,
  "cellulaire</w>": 9643,
  "cellulaires</w>": 20830,
  "cellule</w>": 4656,
  "cellules</w>": 2742,
  "cellulite</w>": 39493,
  "cellulose</w>": 29886,
  "celsius</w>": 39972,
  "celte</w>": 43073,
  "celtes</w>": 38200,
  "celtique</w>": 25190,
  "celu": 36094,
  "celui": 47027,
  "celui-ci</w>": 995,
  "celui-là</w>": 11486,
  "celui</w>": 269,
  "celà</w>": 24963,
  "cem": 19633,
  "cem</w>": 31890,
  "cement</w>": 11185,
  "cements</w>": 22301,
  "cen": 6290,
  "cen</w>": 25088,
  "cena</w>": 41864,
  "cence</w>": 27992,
  "cences</w>": 33285,
  "cend": 28393,
  "cendo</w>": 50104,
  "cendre</w>": 32366,
  "cendres</w>": 11937,
  "cendrillon</w>": 38168,
  "cens</w>": 33917,
  "censu": 36364,
  "censur": 39628,
  "censure</w>": 9997,
  "censuré</w>": 43159,
  "censé</w>": 9109,
  "censée</w>": 15273,
  "censées</w>": 28748,
  "censés</w>": 17426,
  "cent": 20615,
  "cent-": 40633,
  "cent</w>": 1916,
  "centaine</w>": 4912,
  "centaines</w>": 2516,
  "cente</w>": 26834,
  "centen": 48220,
  "centenaire</w>": 13528,
  "centenaires</w>": 38324,
  "center</w>": 8271,
  "centers</w>": 42367,
  "centes</w>": 48064,
  "centi": 21014,
  "centime</w>": 34495,
  "centimes</w>": 17283,
  "centimètre</w>": 36473,
  "centimètres</w>": 10635,
  "centième</w>": 42361,
  "centr": 6797,
  "centrafricaine</w>": 23642,
  "centrafrique</w>": 25126,
  "central</w>": 2383,
  "centrale</w>": 1405,
  "centrales</w>": 5496,
  "centralisation</w>": 30617,
  "centralisé</w>": 33335,
  "centralisée</w>": 29277,
  "centraux</w>": 17692,
  "centre": 45030,
  "centre-": 13142,
  "centre-est</w>": 44052,
  "centre-ville</w>": 5677,
  "centre</w>": 332,
  "centrer</w>": 39606,
  "centres</w>": 2045,
  "centri": 34169,
  "centrifu": 34777,
  "centrique</w>": 46282,
  "centriques</w>": 33017,
  "centriste</w>": 25058,
  "centristes</w>": 33452,
  "centré</w>": 15124,
  "centrée</w>": 15644,
[...]
